{"vocab": {"Ð": 0, "": 1, "¸": 2, "»": 3, "-": 4, "±": 5, "Ñ": 6, "": 7, "": 8, "": 9, "½": 10, "¾": 11, "º": 12, "¿": 13, "¼": 14, "µ": 15, "®": 16, "": 17, "°": 18, ".": 19, "": 20, "´": 21, "¶": 22, "²": 23, "": 24, "¹": 25, "": 26, "": 27, "³": 28, "": 29, "": 30, "": 31, "¢": 32, "·": 33, ",": 34, "": 35, "": 36, "": 37, "": 38, "": 39, ":": 40, "": 41, "¡": 42, "": 43, "": 44, "": 45, "": 46, "Â": 47, "«": 48, "": 49, "!": 50, "": 51, "": 52, "": 53, "§": 54, "?": 55, "â": 56, "": 57, "=": 58, "V": 59, "a": 60, "l": 61, "k": 62, "y": 63, "r": 64, "i": 65, "C": 66, "h": 67, "o": 68, "n": 69, "c": 70, "e": 71, "s": 72, "I": 73, "S": 74, "j": 75, "Å": 76, "": 77, "3": 78, "<": 79, "u": 80, ">": 81, "(": 82, "J": 83, "p": 84, "æ": 85, "¦": 86, "å": 87, " ": 88, "ã": 89, "­": 90, "¥": 91, "ª": 92, "t": 93, "f": 94, "B": 95, "d": 96, ")": 97, "m": 98, "@": 99, "g": 100, "v": 101, "b": 102, "M": 103, "P": 104, "R": 105, "2": 106, "0": 107, "1": 108, "w": 109, "\"": 110, "N": 111, "G": 112, "E": 113, "W": 114, "T": 115, "H": 116, "O": 117, "z": 118, "A": 119, "'": 120, "x": 121, "D": 122, "4": 123, "q": 124, "U": 125, "K": 126, "F": 127, ";": 128, "L": 129, "Y": 130, "7": 131, "5": 132, "X": 133, "Z": 134, "9": 135, "8": 136, "Ã": 137, "$": 138, "6": 139, "[": 140, "]": 141, "/": 142, "&": 143, "": 144, "Q": 145, "£": 146, "¤": 147, "~": 148, "%": 149, "+": 150, "#": 151, "á": 152, "¯": 153, "Î": 154, "©": 155, "Ä": 156, "à": 157, "": 158, "^": 159, "*": 160, "": 161, "¨": 162, "Ø": 163, "Ù": 164, "¬": 165, "ç": 166, "Ì": 167, "Ê": 168, "\\": 169, "`": 170, "Æ": 171, "|": 172, "é": 173, "": 174, "ï": 175, "␣": 176, "␤": 177, "�": 178, "Ð¾": 179, "Ð°": 180, "Ð»": 181, "Ð½": 182, "Ðµ": 183, "Ð¸": 184, "Ñ": 185, "Ð¿": 186, "Ð´": 187, "Ñ": 188, "Ñ": 189, "Ð¼": 190, "th": 191, "Ðº": 192, "Ñ": 193, "Ð²": 194, "Ð¿Ð¾": 195, "in": 196, "Ñ": 197, "Ñ": 198, "Ñ": 199, "the": 200, "an": 201, "Ð°Ð»": 202, "Ñ": 203, "er": 204, "Ð¾Ð½": 205, "Ð±": 206, "Ñ": 207, "on": 208, "Ð¶": 209, "ed": 210, "re": 211, "un": 212, "at": 213, "Ð³": 214, "or": 215, "Ð½Ð°": 216, "en": 217, "Ð¿Ð¾Ñ": 218, "ÐµÐ½": 219, "ÑÐ»": 220, "st": 221, "ÑÐ¾": 222, "al": 223, "ÑÑ": 224, "ar": 225, "ÐµÑ": 226, "Ð¿Ð¾ÑÑÐ»": 227, "ÐµÑ": 228, "of": 229, "and": 230, "Ð½Ð¾": 231, "as": 232, "Ð¸Ð»": 233, "Ð¹": 234, "unk": 235, "<unk": 236, "<unk>": 237, "Ð°Ð»ÑÑ": 238, "ÑÑ": 239, "is": 240, "es": 241, "to": 242, "Ð°Ð»Ð°": 243, "ing": 244, "Ð±Ñ": 245, "Ð°Ð¼": 246, "Ð·": 247, "it": 248, "ÐºÐ°": 249, "Ð¾Ð±": 250, "Ð¶Ð´": 251, "Ñ": 252, "ÑÐ°": 253, "ÑÐ¹": 254, "Ð¢": 255, "ic": 256, "Ð¸Ð¼": 257, "Ð±ÑÐ»": 258, "Ð¿Ñ": 259, "ÑÑÑ": 260, "ro": 261, "ÐµÐ½Ð¸": 262, "ion": 263, "Ð¸Ñ": 264, "Ð": 265, "ÑÐ¾Ð¼": 266, "ÑÐ¾": 267, "he": 268, "Ð³Ñ": 269, "ÐºÐ¾": 270, "le": 271, "Ð": 272, "Ð´.": 273, "Ð²Ð¿": 274, "Ð´Ð½Ð°": 275, "ÑÐ½Ð°": 276, "Ð´ÐµÐ½": 277, "ÐµÑÑ": 278, "Ð¸Ð»-": 279, "Ð°Ð»Ð°,": 280, "ÑÐ¾Ð±": 281, "Ð¶Ð´Ñ": 282, "Ð¢Ð°Ð¼": 283, "Ð¿ÑÐ³": 284, "Ð»ÑÑÑ": 285, "Ð¸Ð¼ÐµÐ½Ð¸": 286, "Ð¿Ð¾ÑÐ¾Ð¼": 287, "ÐÐ´Ð½Ð°": 288, "ÑÐ½Ð°Ñ": 289, "Ð´ÐµÐ½Ñ": 290, "Ð²Ð¿ÐµÑÑ": 291, "ÐÐ¸Ð»-": 292, "ÑÐ¾Ð±Ñ": 293, "Ð¸ÑÐ¿ÑÐ³": 294, "Ð³ÑÐ»ÑÑÑ": 295, "ÐÐ´Ð½Ð°Ð¶Ð´Ñ": 296, "ÑÐ½Ð°ÑÐ°Ð»Ð°,": 297, "Ð²Ð¿ÐµÑÑÐ´.": 298, "ÐÐ¸Ð»-Ð±ÑÐ»": 299, "ÐµÑ": 300, "ÑÑ": 301, "ou": 302, "Ñ": 303, "ÑÐ¾Ð±ÑÐ°Ð»ÑÑ": 304, "Ð¸ÑÐ¿ÑÐ³Ð°Ð»ÑÑ": 305, "ac": 306, "ent": 307, "ÑÐ°": 308, "Ð½Ðµ": 309, "il": 310, "Ð¾Ð»": 311, "se": 312, "ad": 313, "am": 314, "om": 315, "be": 316, "ÐµÑ": 317, "Ð": 318, "ly": 319, "Ð": 320, "Ð¾ÑÐ°": 321, "was": 322, "Ð²Ð°": 323, "Ð": 324, "Ð": 325, "for": 326, "Ð¡": 327, "ch": 328, "Ð½ÑÐ¹": 329, "Ð¾Ð½ÐµÑ": 330, "ÐÐ¾Ð½ÐµÑ": 331, "ÐÐ¾Ð½ÐµÑ.": 332, "ur": 333, "ÑÐºÐ°": 334, "Ð¼Ð°Ð¼": 335, "ÑÐºÐ°Ð·": 336, "ve": 337, "de": 338, "Ð´Ð¾": 339, "The": 340, "Ð¾Ñ": 341, "ÐµÑ": 342, "ÐµÐ´": 343, "ÐµÐ»": 344, "ir": 345, "Ð¾Ð¿": 346, "ol": 347, "Ð¾Ð½Ð¾": 348, "@-": 349, "@-@": 350, "im": 351, "wh": 352, "ver": 353, "ow": 354, "Ð´Ð¾Ð¶Ð´": 355, "ÑÐ»": 356, "ig": 357, "Ð¶Ð¸": 358, "Ð²Ñ": 359, "Ð": 360, "Ð¸.": 361, "Ñ.": 362, "Ð¾Ð´": 363, "wi": 364, "ter": 365, "ce": 366, "ay": 367, "ÐµÑÐµ": 368, "that": 369, "with": 370, "'s": 371, "con": 372, "ation": 373, "ct": 374, "ag": 375, "by": 376, "Ð¸Ð»Ð°": 377, "Ð°Ð´": 378, "Ð°Ð´Ð°": 379, "Ð": 380, "te": 381, "ÐµÑ": 382, "id": 383, "ÑÑ": 384, "us": 385, "Ð»Ñ": 386, "ÐºÑÑ": 387, "ÑÐ°Ñ": 388, "Ð³Ñ": 389, "Ð³ÑÑÑ": 390, "Ð¸ÐºÐ°": 391, "ot": 392, "ri": 393, "ul": 394, "el": 395, "ÑÐºÐ°Ð·Ð°Ð»Ð°": 396, "Ð½Ð¾Ðº": 397, "19": 398, "ÐÐ¸Ð»Ð°": 399, "Ð": 400, "ÐÑÑ": 401, "ÐÑ": 402, "ÐÑÐ²Ð°": 403, "Ð¾Ð½Ð¾Ðº": 404, "ÐÐ°Ð´Ð°": 405, "ÐÐ¸ÐºÐ°": 406, "ÐÐ¾ÑÐ°": 407, "Ð®": 408, "Ð®ÑÐ°": 409, "ÑÑ": 410, "ap": 411, "res": 412, "ere": 413, "Ð¢Ð¾ÑÐ°": 414, "Ð¸Ð¼Ð°": 415, "Ð¡Ð¸Ð¼Ð°": 416, "ain": 417, "rom": 418, "com": 419, "Ð": 420, "ÑÐ¾Ñ": 421, "ÐÑÐ¾Ñ": 422, "ÐÑÐ¾ÑÐ¾Ñ": 423, "et": 424, "op": 425, "pl": 426, "Ð": 427, "Ð´Ñ": 428, "ÑÐ¼": 429, "Ð¿Ð¾Ð½": 430, "Ð¿Ð¾Ñ": 431, "Ð¾Ð½Ð¸": 432, "ÑÐµÑ": 433, "ÑÐ·": 434, "Ð±ÑÐ»Ð¸": 435, "ÑÑ": 436, "Ð±ÑÐ²Ð°": 437, "Ð¼Ð¸.": 438, "ÑÐ¾Ð»Ñ": 439, "ÑÐ¼ÐµÐ»": 440, "Ð¿Ð¾Ð½ÑÐ»": 441, "ÑÐµÑ": 442, "Ð´ÑÑÐ·": 443, "ÑÑ.": 444, "Ð±ÑÐ²Ð°ÐµÑ": 445, "ÑÑÐ¼Ð¸.": 446, "ÑÐ¾Ð»ÑÐºÐ¾": 447, "ÑÐ¼ÐµÐ»ÑÑ.": 448, "Ð´ÑÑÐ·ÑÑÐ¼Ð¸.": 449, "ÑÐ¸": 450, "Ñ,": 451, "ÑÐ¶": 452, "ÑÐ½Ð¾": 453, "Ð¾Ð±ÑÐ°": 454, "ÐÐ°": 455, "Ð¾Ð¿ÑÑÑ": 456, "Ð³ÑÑÑÑ": 457, "Ð¿ÑÑÐ¸": 458, "Ð´Ð¾Ð¶Ð´Ñ,": 459, "ÑÐ¶Ðµ": 460, "ÑÐ½Ð¾Ð¼": 461, "Ð¾Ð±ÑÐ°ÑÐ½Ð¾Ð¼": 462, "ÐºÐ¾ÑÐ¾": 463, "».": 464, "Â«": 465, "!Â": 466, "Ðµ,": 467, "Ð¾Ð¼": 468, "ÐÐ¾Ð»": 469, "Ð¼Ð°Ð¼Ð°": 470, "ÐµÑÐµÑ": 471, "Ð²ÑÑ": 472, "Ð¾Ð´ÐµÑ": 473, "ÑÐºÐ°Ð·Ð°Ð»Ð°:": 474, "!Â».": 475, "Ð¼Ð°Ð¼Ðµ,": 476, "Â«ÐÐ¾Ð»": 477, "ÐÐµÑÐµÑ": 478, "Ð¾Ð´ÐµÑ!Â».": 479, "ÐÐµÑÐµÑÐ¾Ð¼": 480, "Â«ÐÐ¾Ð»Ð¾Ð´ÐµÑ!Â».": 481, "Ð²Ñ": 482, "Ð¶Ð¸Ð²Ñ": 483, "Ð¶Ð¸Ð²ÑÑ": 484, "his": 485, "ut": 486, "00": 487, "ÑÑ": 488, "mo": 489, "su": 490, "all": 491, "â": 492, "Ð½Ðµ.": 493, "Ð¾Ð½Ð°": 494, "Ð¸Ðº": 495, "ab": 496, "are": 497, "ers": 498, "um": 499, "li": 500, "ther": 501, "from": 502, "Ðµ.": 503, "Ð¿Ð¾Ð½ÑÐ»:": 504, "Ð¸Ð».": 505, "Ð³ÑÑÑÑÐ¸Ð».": 506, "ÑÐºÐ°Ð·Ð°Ð»": 507, "ÑÐ°ÑÑÐºÐ°Ð·Ð°Ð»": 508, "ÑÑÐ¹": 509, "ÐºÐ¾ÑÐ¾ÑÑÐ¹": 510, "pro": 511, "pe": 512, "di": 513, "In": 514, "ÑÐ¾": 515, "ÑÐ¾Ðº": 516, "ÑÐ¾ÑÐ¾Ðº": 517, "Ð»Ð°": 518, "Ð·Ð°": 519, "ne": 520, "Ð¸Ð·": 521, "sh": 522, "und": 523, "cl": 524, "ate": 525, "ÐµÐ½Ð¸Ðµ": 526, "Ñ": 527, "po": 528, "tr": 529, "art": 530, "ÑÑ": 531, "Ð¿Ð¾ÑÐ»Ð°": 532, "Ð°Ð»Ð°ÑÑ": 533, "ÑÐ¸Ðº": 534, "were": 535, "em": 536, "so": 537, "ong": 538, "igh": 539, "ex": 540, "est": 541, "ies": 542, "ld": 543, "ist": 544, "ich": 545, "Ð´Ñ": 546, "Ð´ÑÐ±": 547, "ill": 548, "ak": 549, "ast": 550, "ish": 551, "ard": 552, "gh": 553, "ame": 554, "ber": 555, "Ð»Ð¸Ñ": 556, "Ð»Ð¸ÑÑ": 557, "Ð¾Ð½Ð¾Ð¶": 558, "ÑÐ¾ÑÐ¾ÐºÐ¾Ð½Ð¾Ð¶": 559, "ÐºÐ¾ÑÑ": 560, "lo": 561, "ÐºÐ¾Ð½": 562, "Ð´ÑÐ°": 563, "Ð´ÑÐ°ÐºÐ¾Ð½": 564, "ort": 565, "Ð¹Ñ": 566, "Ð·Ð°Ð¹Ñ": 567, "co": 568, "Ð²Ð¾Ñ": 569, "Ð²Ð¾ÑÐ¾Ð±": 570, "od": 571, "ated": 572, "Ð²Ðµ": 573, "Ð¼ÐµÐ´": 574, "Ð²ÐµÐ¶": 575, "Ð¼ÐµÐ´Ð²ÐµÐ¶": 576, "ity": 577, "ÐµÑÑÑ": 578, "Ð².": 579, "Ð»Ñ": 580, "ÐºÑÑÑÐ¾": 581, "Ð¿ÐµÐ½Ð¸Ðµ": 582, "ÑÑÐ»Ñ": 583, "ÐºÑÑÑÐ¾Ð².": 584, "ÑÑÐ»ÑÑ": 585, "ÑÐ¶Ð¸": 586, "ant": 587, "ÑÑ": 588, "Ð´ÑÐ¾": 589, "Ð²ÑÑÑ": 590, "Ð´ÑÐ¾Ð¶": 591, "Ð²ÑÑÑÐµÑ": 592, "Ð»Ð¸": 593, "Ð²ÑÐ¹": 594, "Ð´Ð¾Ð¶Ð´Ð»Ð¸": 595, "Ð´Ð¾Ð¶Ð´Ð»Ð¸Ð²ÑÐ¹": 596, "per": 597, "fe": 598, "ive": 599, "Ð¿Ð»": 600, "ÑÑÐ¿Ð»": 601, "ÑÑÐ¿Ð»ÑÐ¹": 602, "Ð¿Ð¾Ñ": 603, "ÐµÑÑÐ»": 604, "Ð¿Ð¾ÑÐµÑÑÐ»": 605, "ment": 606, "Ð²ÐµÑ": 607, "Ñ:": 608, "ÐÑ": 609, "Ð¾Ð¿ÑÐ¾": 610, "Ð²ÐµÑ:": 611, "ÐÐ¾Ð¿ÑÐ¾": 612, "ÐÑÐ²ÐµÑ:": 613, "ÐÐ¾Ð¿ÑÐ¾Ñ:": 614, "Ð°Ð½": 615, "ÑÑ": 616, "Ð¼Ð°Ð½": 617, "ÑÑÐ¼Ð°Ð½": 618, "ÑÑÐ¼Ð°Ð½Ð½ÑÐ¹": 619, "ÑÐ½Ðµ": 620, "Ð¶Ð½ÑÐ¹": 621, "ÑÐ½ÐµÐ¶Ð½ÑÐ¹": 622, "man": 623, "ÑÐ¾Ð»": 624, "Ð½ÐµÑ": 625, "ÑÐ¾Ð»Ð½ÐµÑ": 626, "ÑÐ¾Ð»Ð½ÐµÑÐ½ÑÐ¹": 627, "Ð¿Ð¾Ð´": 628, "Ð½Ð°Ñ": 629, "ÑÐ¾Ð¼.": 630, "ÐºÑÑÑÐ¾Ð¼.": 631, "out": 632, "Ð¸Ðµ": 633, "ÑÐ»": 634, "Ð¸Ð´": 635, "ÑÐ²": 636, "Ñ,": 637, "Ð²ÐµÐ´": 638, "Ð²Ð¾Ð´": 639, "ÑÑ": 640, "ÑÐ»ÐµÐ´": 641, "Ð¸Ð´ÐµÐ»": 642, "Ð²Ð¾Ð´Ðµ.": 643, "Ð²ÐµÐ´ÑÑ": 644, "ÑÐ»ÐµÐ´Ñ,": 645, "ÑÐ²Ð¸Ð´ÐµÐ»": 646, "Ð²ÐµÐ´ÑÑÐ¸Ðµ": 647, "had": 648, "qu": 649, "ess": 650, "ear": 651, "ack": 652, "one": 653, "vi": 654, "tw": 655, "end": 656, "Ð»Ð¸ÑÑÐ½Ð¾Ðº": 657, "ÑÐ¾ÑÐ¾ÐºÐ¾Ð½Ð¾Ð¶ÐºÐ°": 658, "which": 659, "ÐºÐ¾ÑÑÐ½Ð¾Ðº": 660, "Ð´ÑÐ°ÐºÐ¾Ð½ÑÐ¸Ðº": 661, "ÐµÐ¹": 662, "Ð²Ð¾ÑÐ¾Ð±ÐµÐ¹": 663, "Ð·Ð°Ð¹ÑÐ¾Ð½Ð¾Ðº": 664, "Ð¼ÐµÐ´Ð²ÐµÐ¶Ð¾Ð½Ð¾Ðº": 665, "ÑÐ¶Ð¸Ðº": 666, "ÑÑÐ»ÑÑÐ°Ð»": 667, "ord": 668, "our": 669, "Ð°Ð».": 670, "Ð²ÑÑÑÐµÑÐ¸Ð»": 671, "Ð´ÑÐ¾Ð¶Ð°Ð».": 672, "ha": 673, "not": 674, "Ð½Ð°ÑÑÐ»": 675, "up": 676, "af": 677, "â": 678, "but": 679, "ge": 680, "rit": 681, "str": 682, "fo": 683, "Ð´ÐµÑÐµ": 684, "Ð²Ð½Ðµ.": 685, "Ð´ÐµÑÐµÐ²Ð½Ðµ.": 686, "ally": 687, "Ð¿ÐµÑ": 688, "ÐµÑÐµ": 689, "Ð¿ÐµÑÐµÑÐµ": 690, "Ð¿ÐµÑÐµÑÐµ.": 691, "ine": 692, "its": 693, "si": 694, "Ð°ÑÐ¾": 695, "ÑÑÐ°ÑÐ¾": 696, "ÑÑÐ°ÑÐ¾Ð¼": 697, "act": 698, "Ð¾Ñ": 699, "Ð±Ð¾Ð»": 700, "Ð±Ð¾Ð»Ð¾Ñ": 701, "Ð¿Ð¾Ð»": 702, "ÑÐ½Ðµ.": 703, "Ð¿Ð¾Ð»ÑÐ½Ðµ.": 704, "ÑÐ¾Ð»": 705, "ÑÐ¾Ð»Ð¼": 706, "Ð»ÐµÑ": 707, "Ð»ÐµÑÑ.": 708, "ÑÐµ": 709, "ÐºÐ¸.": 710, "Ð±ÐµÑÐµ": 711, "ÑÐµÐºÐ¸.": 712, "Ð±ÐµÑÐµÐ³Ñ": 713, "ci": 714, "ight": 715, "fir": 716, "her": 717, "Ch": 718, "ary": 719, "200": 720, "ud": 721, "own": 722, "du": 723, "ved": 724, "bo": 725, "20": 726, "pr": 727, "av": 728, "over": 729, "port": 730, "their": 731, "ass": 732, "land": 733, "ip": 734, "ew": 735, "ian": 736, "St": 737, "first": 738, "ÑÐ°": 739, "ous": 740, "ach": 741, "ould": 742, "â": 743, "ep": 744, "ical": 745, "wor": 746, "fic": 747, "other": 748, "age": 749, "ÐºÐ°,": 750, "also": 751, "Ð¸ÑÐ¿ÑÐ³Ð°Ð»Ð°ÑÑ": 752, "ÑÐ¾Ð±ÑÐ°Ð»Ð°ÑÑ": 753, "Ð´ÑÐ±Ñ.": 754, "ÑÑÐ°ÑÐ¾Ð¼Ñ": 755, "ÑÐ¾Ð»Ð¼Ñ.": 756, "low": 757, "unt": 758, "ition": 759, "Ð±Ð¾Ð»Ð¾ÑÑ.": 760, "ser": 761, "tim": 762, "has": 763, "form": 764, "ction": 765, "ater": 766, "ub": 767, "ign": 768, "au": 769, "pt": 770, "aw": 771, "comp": 772, "ll": 773, "ure": 774, "ev": 775, "have": 776, "play": 777, "att": 778, "int": 779, "who": 780, "18": 781, "ia": 782, "ke": 783, "He": 784, "ÑÑÑ": 785, "Ð´Ð¾ÑÑÑ": 786, "iv": 787, "cre": 788, "pos": 789, "been": 790, "ome": 791, "gr": 792, "two": 793, "part": 794, "no": 795, "sp": 796, "@.": 797, "@.@": 798, "ence": 799, "cont": 800, "uring": 801, "gu": 802, "ough": 803, "ree": 804, "cent": 805, "ran": 806, "pres": 807, "ok": 808, "this": 809, "ÐÐ¸Ð»Ð°.": 810, "des": 811, "ÐÑÐ²Ð°.": 812, "ÐÐ°Ð´Ð°.": 813, "ory": 814, "ÐÑÑ.": 815, "Ð®ÑÐ°.": 816, "It": 817, "ÐÐ¾ÑÐ°.": 818, "ÐÐ¸ÐºÐ°.": 819, "ile": 820, "oc": 821, "me": 822, "Ð¡Ð¸Ð¼Ð°.": 823, "they": 824, "year": 825, "ade": 826, "Ð¢Ð¾ÑÐ°.": 827, "201": 828, "ÐÑÐ¾ÑÐ¾Ñ.": 829, "fin": 830, "after": 831, "dis": 832, "comm": 833, "ult": 834, "ite": 835, "cord": 836, "pre": 837, "ans": 838, "vel": 839, "fer": 840, "rou": 841, "Th": 842, "fi": 843, "we": 844, "incl": 845, "ren": 846, "@,": 847, "@,@": 848, "An": 849, "ue": 850, "ell": 851, "ever": 852, "work": 853, "os": 854, "urn": 855, "ations": 856, "ace": 857, "time": 858, "ra": 859, "mer": 860, "ric": 861, "ark": 862, "into": 863, "sc": 864, "more": 865, "rough": 866, "able": 867, "ial": 868, "Un": 869, "ced": 870, "spe": 871, "most": 872, "sion": 873, "ship": 874, "any": 875, "ance": 876, "tem": 877, "old": 878, "she": 879, "would": 880, "him": 881, "ason": 882, "ces": 883, "cond": 884, "main": 885, "gro": 886, "used": 887, "amp": 888, "red": 889, "inter": 890, "ited": 891, "cted": 892, "ice": 893, "ased": 894, "bec": 895, "Al": 896, "includ": 897, "fore": 898, "br": 899, "though": 900, "ck": 901, "ern": 902, "fl": 903, "ath": 904, "ings": 905, "min": 906, "new": 907, "gan": 908, "ten": 909, "ild": 910, "way": 911, "mon": 912, "only": 913, "ÑÐ°Ñ": 914, "ÐºÑÐ°Ñ": 915, "ÐºÑÐ°ÑÐ½ÑÐ¹": 916, "song": 917, "ubl": 918, "when": 919, "cess": 920, "ake": 921, "iz": 922, "ie": 923, "Au": 924, "Ð§": 925, "under": 926, "Ð§ÑÐ¾": 927, "air": 928, "vis": 929, "Ro": 930, "ates": 931, "ÑÐµ": 932, "Ð¼ÐµÑ": 933, "Ð´ÑÐ±Ð°": 934, "ÑÐµÐ¼ÐµÑ": 935, "ÑÐµÐ¼ÐµÑÐºÐ¾": 936, "ÐºÐ»": 937, "ÐºÐ°Ñ": 938, "ÐºÐ»Ð°Ð´Ð°": 939, "ÐºÐ°ÑÑÐ°": 940, "ase": 941, "Ð´Ðµ": 942, "ÐÐ´Ðµ": 943, "Ð²Ñ": 944, "Ð½Ð°Ñ": 945, "Ð¿ÐºÐ°": 946, "Ð²ÑÐ·Ð°": 947, "ÑÐ°Ð¿ÐºÐ°": 948, "Ð²ÑÐ·Ð°Ð½Ð°Ñ": 949, "Ð»Ð¾": 950, "ÐºÐ¸": 951, "Ð²Ð¾Ð½": 952, "ÐºÐ¾Ð»Ñ": 953, "ÐºÐ¾Ð»Ð¾": 954, "ÐºÐ¸Ð¹": 955, "Ð·Ð²Ð¾Ð½": 956, "ÐºÐ¾Ð»ÑÑÐ¸Ðº": 957, "Ð·Ð²Ð¾Ð½ÐºÐ¸Ð¹": 958, "ÐºÐ¾Ð»Ð¾ÐºÐ¾Ð»ÑÑÐ¸Ðº": 959, "ents": 960, "them": 961, "als": 962, "bu": 963, "during": 964, "ts": 965, "ail": 966, "ph": 967, "Ñ": 968, "Ð¸Ð½": 969, "ÑÑ": 970, "ÑÐµ": 971, "Ð¾Ð¶": 972, "ions": 973, "ÐµÑÐµÐ»": 974, "Ð¾Ð½Ð°Ñ": 975, "Ð±Ð¸Ð½": 976, "Ð¾Ð¶ÐµÑÐµÐ»": 977, "ÑÐ¾Ð½Ð°Ñ": 978, "ÑÑÐ±Ð¸Ð½": 979, "Ð¾Ð¶ÐµÑÐµÐ»ÑÐµ": 980, "ÑÐ¾Ð½Ð°ÑÐ¸Ðº": 981, "ÑÑÐ±Ð¸Ð½Ñ": 982, "arch": 983, "Ð¿Ð¸": 984, "Ð°Ð»ÐºÐ°": 985, "Ð¿Ð¸Ñ": 986, "Ð¿Ð¸ÑÐ°Ð»ÐºÐ°": 987, "ÐºÐ¾Ð¹": 988, "ÐÑÐ¾": 989, "ÑÐ°ÐºÐ¾Ð¹": 990, "reg": 991, "game": 992, "go": 993, "ted": 994, "ilm": 995, "ind": 996, "ang": 997, "een": 998, "col": 999, "ward": 1000, "les": 1001, "og": 1002, "En": 1003, "Ar": 1004, "ollow": 1005, "can": 1006, "199": 1007, "about": 1008, "ret": 1009, "nor": 1010, "son": 1011, "day": 1012, "outh": 1013, "season": 1014, "some": 1015, "ry": 1016, "than": 1017, "kn": 1018, "writ": 1019, "ble": 1020, "while": 1021, "again": 1022, "lar": 1023, "gen": 1024, "sy": 1025, "three": 1026, "sing": 1027, "ob": 1028, "if": 1029, "ors": 1030, "On": 1031, "stru": 1032, "ef": 1033, "char": 1034, "betw": 1035, "between": 1036, "record": 1037, "Jo": 1038, "where": 1039, "num": 1040, "produ": 1041, "ational": 1042, "through": 1043, "Re": 1044, "ular": 1045, "cr": 1046, "ÐµÑÐ½": 1047, "ÑÑÐµÑÐ½": 1048, "ÑÑÐµÑÐ½ÐµÐ½Ð¸Ðµ": 1049, "Wh": 1050, "dr": 1051, "ens": 1052, "Ð³ÑÑÑÑÑ": 1053, "ick": 1054, "later": 1055, "led": 1056, "rele": 1057, "Com": 1058, "iver": 1059, "film": 1060, "ÑÐ°Ð´Ð¾ÑÑÑ": 1061, "view": 1062, "Af": 1063, "ann": 1064, "ames": 1065, "ty": 1066, "Ð³Ð¾Ñ": 1067, "Ð³Ð¾ÑÐ´Ð¾ÑÑÑ": 1068, "ered": 1069, "ful": 1070, "ished": 1071, "made": 1072, "Ñ": 1073, "Ð²Ð¾": 1074, "ÑÑ": 1075, "Ð±Ð¾Ð¿": 1076, "Ð»Ñ": 1077, "ÑÑÐ²Ð¾": 1078, "Ð±Ð¾Ð¿ÑÑ": 1079, "Ð»ÑÐ±Ð¾Ð¿ÑÑ": 1080, "Ð»ÑÐ±Ð¾Ð¿ÑÑÑÑÐ²Ð¾": 1081, "ÑÐ°Ñ": 1082, "ÑÑÑÐ°Ñ": 1083, "ust": 1084, "mi": 1085, "set": 1086, "sa": 1087, "then": 1088, "cons": 1089, "ele": 1090, "rel": 1091, "New": 1092, "do": 1093, "As": 1094, "ron": 1095, "Amer": 1096, "Americ": 1097, "ury": 1098, "10": 1099, "call": 1100, "bum": 1101, "ire": 1102, "row": 1103, "off": 1104, "my": 1105, "Ð½ÐºÐ°,": 1106, "follow": 1107, "ict": 1108, "appe": 1109, "ss": 1110, "000": 1111, "high": 1112, "such": 1113, "second": 1114, "ating": 1115, "sel": 1116, "med": 1117, "sub": 1118, "Ð¾Ð½ÐºÐ°,": 1119, "four": 1120, "ose": 1121, "publ": 1122, "ton": 1123, "Le": 1124, "cap": 1125, "This": 1126, "ving": 1127, "cri": 1128, "well": 1129, "ters": 1130, "..": 1131, "album": 1132, "before": 1133, "ari": 1134, "ma": 1135, "At": 1136, "ily": 1137, "cur": 1138, "mus": 1139, "rop": 1140, "being": 1141, "sur": 1142, "back": 1143, "je": 1144, "urch": 1145, "ual": 1146, "years": 1147, "16": 1148, "sup": 1149, "loc": 1150, "there": 1151, "ven": 1152, "Eng": 1153, "owever": 1154, "No": 1155, "appear": 1156, "hel": 1157, "arri": 1158, "many": 1159, "ics": 1160, "use": 1161, "found": 1162, "ins": 1163, "ning": 1164, "long": 1165, "number": 1166, "Co": 1167, "series": 1168, "De": 1169, "12": 1170, "add": 1171, "side": 1172, "like": 1173, "ative": 1174, "ause": 1175, "ÑÐ°Ñ.": 1176, "velop": 1177, "mber": 1178, "point": 1179, "ince": 1180, "reat": 1181, "ird": 1182, "17": 1183, "Nor": 1184, "Mo": 1185, "both": 1186, "ÑÐ°Ñ": 1187, "Ð´ÑÐ±Ð°.": 1188, "ÐºÐ¾ÑÐ¾ÑÐ°Ñ": 1189, "Ð°:": 1190, "ane": 1191, "sever": 1192, "Ð¿Ð¾Ð½ÑÐ»Ð°:": 1193, "par": 1194, "ities": 1195, "der": 1196, "15": 1197, "cho": 1198, "ft": 1199, "including": 1200, "ÐºÐ¾Ð»Ð¾ÐºÐ¾Ð»ÑÑÐ¸Ðº.": 1201, "cept": 1202, "Ð¸Ð»Ð°.": 1203, "Ð³ÑÑÑÑÐ¸Ð»Ð°.": 1204, "epis": 1205, "ave": 1206, "Brit": 1207, "ho": 1208, "dire": 1209, "ale": 1210, "ÑÐ°Ð¿ÐºÐ°.": 1211, "against": 1212, "known": 1213, "igin": 1214, "became": 1215, "pop": 1216, "line": 1217, "ÐºÐ»Ð°Ð´Ð°.": 1218, "uary": 1219, "hn": 1220, "ound": 1221, "ÑÑÐ±Ð¸Ð½Ñ.": 1222, "ÑÐ¾ÑÐ¾ÐºÐ¸.": 1223, "charac": 1224, "oy": 1225, "feat": 1226, "ÑÐ¾Ð½Ð°ÑÐ¸Ðº.": 1227, "II": 1228, "ese": 1229, "198": 1230, "dif": 1231, "down": 1232, "cover": 1233, "ÑÐ°ÑÑÐºÐ°Ð·Ð°Ð»Ð°": 1234, "eld": 1235, "ments": 1236, "descri": 1237, "ident": 1238, "United": 1239, "ek": 1240, "eng": 1241, "tain": 1242, "atch": 1243, "ond": 1244, "team": 1245, "John": 1246, "30": 1247, "suc": 1248, "trans": 1249, "develop": 1250, "olog": 1251, "century": 1252, "ise": 1253, "After": 1254, "peri": 1255, "ode": 1256, "show": 1257, "origin": 1258, "lead": 1259, "Br": 1260, "cer": 1261, "ped": 1262, "contin": 1263, "cial": 1264, "star": 1265, "ures": 1266, "offic": 1267, "hist": 1268, "called": 1269, "ide": 1270, "ung": 1271, "stor": 1272, "194": 1273, "bed": 1274, "mem": 1275, "lack": 1276, "mill": 1277, "cle": 1278, "west": 1279, "several": 1280, "oper": 1281, "uch": 1282, "comple": 1283, "lan": 1284, "sign": 1285, "began": 1286, "196": 1287, "ball": 1288, "may": 1289, "Be": 1290, "197": 1291, "Con": 1292, "ves": 1293, "road": 1294, "dec": 1295, "ised": 1296, "pol": 1297, "remain": 1298, "ually": 1299, "sm": 1300, "near": 1301, "early": 1302, "head": 1303, "present": 1304, "could": 1305, "crit": 1306, "She": 1307, "did": 1308, "run": 1309, "ific": 1310, "episode": 1311, "eral": 1312, "war": 1313, "la": 1314, "ple": 1315, "ended": 1316, "ject": 1317, "une": 1318, "ste": 1319, "dam": 1320, "rece": 1321, "ople": 1322, "self": 1323, "along": 1324, "large": 1325, "nam": 1326, "spec": 1327, "Wor": 1328, "Ð±Ð¾Ð»Ð¾ÑÐµ.": 1329, "try": 1330, "ress": 1331, "ore": 1332, "said": 1333, "American": 1334, "success": 1335, "vid": 1336, "Ð´ÑÐ±Ðµ.": 1337, "these": 1338, "For": 1339, "ith": 1340, "gust": 1341, "aking": 1342, "May": 1343, "mil": 1344, "position": 1345, "open": 1346, "Mar": 1347, "ms": 1348, "por": 1349, "pass": 1350, "dep": 1351, "stem": 1352, "British": 1353, "ley": 1354, "met": 1355, "erson": 1356, "Sh": 1357, "until": 1358, "War": 1359, "fam": 1360, "leg": 1361, "now": 1362, "released": 1363, "start": 1364, "ines": 1365, "city": 1366, "ood": 1367, "Ger": 1368, "music": 1369, "same": 1370, "tow": 1371, "val": 1372, "Se": 1373, "thern": 1374, "ÑÐ¾Ð»Ð¼Ðµ.": 1375, "ived": 1376, "return": 1377, "Car": 1378, "They": 1379, "50": 1380, "gg": 1381, "km": 1382, "cy": 1383, "area": 1384, "design": 1385, "ru": 1386, "jor": 1387, "million": 1388, "orn": 1389, "tri": 1390, "state": 1391, "because": 1392, "mis": 1393, "ca": 1394, "ather": 1395, "formed": 1396, "xt": 1397, "sim": 1398, "plac": 1399, "each": 1400, "August": 1401, "14": 1402, "ink": 1403, "overn": 1404, "rist": 1405, "come": 1406, "vol": 1407, "hy": 1408, "fect": 1409, "read": 1410, "vide": 1411, "life": 1412, "people": 1413, "13": 1414, "east": 1415, "ower": 1416, "grap": 1417, "Sep": 1418, "ross": 1419, "chool": 1420, "Ju": 1421, "serv": 1422, "national": 1423, "car": 1424, "support": 1425, "six": 1426, "coun": 1427, "io": 1428, "let": 1429, "around": 1430, "stral": 1431, "itt": 1432, "However": 1433, "ib": 1434, "group": 1435, "Is": 1436, "ision": 1437, "rote": 1438, "field": 1439, "north": 1440, "ized": 1441, "Bo": 1442, "attack": 1443, "list": 1444, "ouse": 1445, "tember": 1446, "September": 1447, "consid": 1448, "Fe": 1449, "small": 1450, "dist": 1451, "book": 1452, "following": 1453, "men": 1454, "character": 1455, "continu": 1456, "light": 1457, "will": 1458, "less": 1459, "mark": 1460, "World": 1461, "ured": 1462, "enn": 1463, "prote": 1464, "contro": 1465, "Eu": 1466, "ash": 1467, "Austral": 1468, "top": 1469, "very": 1470, "five": 1471, "sou": 1472, "late": 1473, "win": 1474, "result": 1475, "ground": 1476, "vent": 1477, "ales": 1478, "lish": 1479, "dom": 1480, "requ": 1481, "what": 1482, "get": 1483, "sol": 1484, "cording": 1485, "stand": 1486, "tit": 1487, "ank": 1488, "ague": 1489, "rest": 1490, "track": 1491, "ivers": 1492, "Col": 1493, "report": 1494, "US": 1495, "aim": 1496, "ural": 1497, "bers": 1498, "az": 1499, "ody": 1500, "vision": 1501, "June": 1502, "reach": 1503, "North": 1504, "played": 1505, "aged": 1506, "ired": 1507, "final": 1508, "ied": 1509, "ctor": 1510, "build": 1511, "week": 1512, "pon": 1513, "last": 1514, "ÐºÐ¾ÑÑÐ½ÐºÐ°,": 1515, "Her": 1516, "name": 1517, "atter": 1518, "count": 1519, "vari": 1520, "ious": 1521, "Fran": 1522, "overnment": 1523, "allow": 1524, "che": 1525, "prom": 1526, "system": 1527, "11": 1528, "gun": 1529, "States": 1530, "since": 1531, "ÐºÑ": 1532, "Ð°Ð»Ð°.": 1533, "Ð²ÑÑÑÐµÑÐ¸Ð»Ð°": 1534, "Ð·Ð°Ð¹ÑÐ¾Ð½ÐºÐ°,": 1535, "ÑÐ¾ÑÐ¾ÐºÐ¾Ð½Ð¾Ð¶ÐºÑ": 1536, "Ð´ÑÐ¾Ð¶Ð°Ð»Ð°.": 1537, "ÑÐ¾ÑÐ¾ÐºÐ¾Ð½Ð¾Ð¶ÐºÑ,": 1538, "Oc": 1539, "species": 1540, "care": 1541, "public": 1542, "tal": 1543, "south": 1544, "received": 1545, "oman": 1546, "def": 1547, "ists": 1548, "major": 1549, "0s": 1550, "ask": 1551, "took": 1552, "gy": 1553, "Wil": 1554, "cour": 1555, "Jan": 1556, "ately": 1557, "soci": 1558, "even": 1559, "cut": 1560, "ock": 1561, "ined": 1562, "child": 1563, "ÑÐ²Ð¸Ð´ÐµÐ»Ð°": 1564, "partic": 1565, "South": 1566, "won": 1567, "25": 1568, "ages": 1569, "ÑÑÐ»ÑÑÐ°Ð»Ð°": 1570, "ained": 1571, "batt": 1572, "Christ": 1573, "King": 1574, "ÑÑ,": 1575, "Ð²Ð¾ÑÐ¾Ð±ÑÑ,": 1576, "appro": 1577, "fied": 1578, "wards": 1579, "described": 1580, "cast": 1581, "tober": 1582, "October": 1583, "ÑÐ¸ÐºÐ°": 1584, "world": 1585, "Ð´ÑÐ°ÐºÐ¾Ð½ÑÐ¸ÐºÐ°": 1586, "Ð´ÑÐ°ÐºÐ¾Ð½ÑÐ¸ÐºÐ°,": 1587, "place": 1588, "ime": 1589, "Man": 1590, "moved": 1591, "just": 1592, "mb": 1593, "Gu": 1594, "ony": 1595, "Ð»Ð¸ÑÑÐ½ÐºÐ°,": 1596, "giv": 1597, "Pl": 1598, "incre": 1599, "ilt": 1600, "ham": 1601, "ropical": 1602, "Ac": 1603, "ork": 1604, "constru": 1605, "Me": 1606, "gre": 1607, "ris": 1608, "liam": 1609, "organ": 1610, "vious": 1611, "wrote": 1612, "ional": 1613, "ains": 1614, "ÑÐ¾ÑÐ¾ÐºÐ¸": 1615, "July": 1616, "band": 1617, "York": 1618, "ina": 1619, "kill": 1620, "Ð¼ÐµÐ´Ð²ÐµÐ¶Ð¾Ð½ÐºÐ°,": 1621, "Ð½Ð°ÑÐ»Ð°": 1622, "named": 1623, "town": 1624, "Ã©": 1625, "ude": 1626, "gin": 1627, "sequ": 1628, "bre": 1629, "ards": 1630, "differ": 1631, "Gr": 1632, "pri": 1633, "During": 1634, "much": 1635, "due": 1636, "water": 1637, "camp": 1638, "Ð¿Ð¾ÑÐµÑÑÐ»Ð°": 1639, "Can": 1640, "lie": 1641, "ute": 1642, "Apr": 1643, "posed": 1644, "single": 1645, "April": 1646, "Mon": 1647, "ÑÐ¶Ð¸ÐºÐ°,": 1648, "aft": 1649, "...": 1650, "death": 1651, "power": 1652, "Euro": 1653, "another": 1654, "version": 1655, "included": 1656, "ys": 1657, "hand": 1658, "195": 1659, "ility": 1660, "order": 1661, "tempt": 1662, "ature": 1663, "German": 1664, "ston": 1665, "January": 1666, "short": 1667, "ets": 1668, "West": 1669, "Par": 1670, "within": 1671, "estab": 1672, "event": 1673, "England": 1674, "stud": 1675, "gener": 1676, "ants": 1677, "ships": 1678, "ored": 1679, "udi": 1680, "left": 1681, "built": 1682, "Ma": 1683, "fur": 1684, "based": 1685, "although": 1686, "sed": 1687, "attempt": 1688, "ling": 1689, "round": 1690, "person": 1691, "family": 1692, "right": 1693, "ery": 1694, "hal": 1695, "ement": 1696, "third": 1697, "claim": 1698, "home": 1699, "games": 1700, "Cl": 1701, "ital": 1702, "March": 1703, "All": 1704, "sent": 1705, "akes": 1706, "pect": 1707, "pen": 1708, "previous": 1709, "fall": 1710, "Nove": 1711, "November": 1712, "tra": 1713, "review": 1714, "period": 1715, "best": 1716, "193": 1717, "issu": 1718, "story": 1719, "school": 1720, "cas": 1721, "Europe": 1722, "hum": 1723, "His": 1724, "turn": 1725, "government": 1726, "ats": 1727, "expl": 1728, "adv": 1729, "Dece": 1730, "December": 1731, "ove": 1732, "make": 1733, "ilar": 1734, "those": 1735, "jo": 1736, "ting": 1737, "roy": 1738, "dest": 1739, "avy": 1740, "urric": 1741, "By": 1742, "There": 1743, "original": 1744, "Ste": 1745, "using": 1746, "storm": 1747, "ster": 1748, "City": 1749, "And": 1750, "thing": 1751, "chan": 1752, "ulation": 1753, "Ð¢Ð¾ÑÐ°?": 1754, "ism": 1755, "company": 1756, "ext": 1757, "command": 1758, "Ge": 1759, "rown": 1760, "ÐÑÑ?": 1761, "month": 1762, "real": 1763, "When": 1764, "king": 1765, "ially": 1766, "fact": 1767, "ense": 1768, "ner": 1769, "itary": 1770, "match": 1771, "ons": 1772, "2009": 1773, "auth": 1774, "flu": 1775, "ety": 1776, "rench": 1777, "video": 1778, "ÐÐ¸ÐºÐ°?": 1779, "National": 1780, "ral": 1781, "arm": 1782, "2008": 1783, "club": 1784, "2010": 1785, "Sc": 1786, "ÐÐ¾ÑÐ°?": 1787, "trad": 1788, "oung": 1789, "fac": 1790, "role": 1791, "colle": 1792, "cor": 1793, "Indi": 1794, "church": 1795, "ivision": 1796, "gram": 1797, "So": 1798, "We": 1799, "ref": 1800, "ences": 1801, "River": 1802, "ÐÑÐ²Ð°?": 1803, "forman": 1804, "move": 1805, "still": 1806, "cus": 1807, "player": 1808, "'t": 1809, "Mc": 1810, "Ð®ÑÐ°?": 1811, "ically": 1812, "possi": 1813, "stit": 1814, "Ð¡Ð¸Ð¼Ð°?": 1815, "bro": 1816, "iversity": 1817, "addition": 1818, "riend": 1819, "Li": 1820, "ix": 1821, "ently": 1822, "ched": 1823, "came": 1824, "class": 1825, "local": 1826, "ium": 1827, "S.": 1828, "ÐÑÐ¾ÑÐ¾Ñ?": 1829, "often": 1830, "history": 1831, "ls": 1832, "24": 1833, "ali": 1834, "former": 1835, "ÐÐ°Ð´Ð°?": 1836, "site": 1837, "ÐÐ¸Ð»Ð°?": 1838, "half": 1839, "urricane": 1840, "26": 1841, "lim": 1842, "stri": 1843, "21": 1844, "mag": 1845, "tract": 1846, "aken": 1847, "continued": 1848, "100": 1849, "ians": 1850, "draw": 1851, "Sp": 1852, "23": 1853, "2007": 1854, "ggest": 1855, "next": 1856, "considered": 1857, "Ad": 1858, "rodu": 1859, "effect": 1860, "28": 1861, "suggest": 1862, "ae": 1863, "say": 1864, "put": 1865, "recorded": 1866, "ze": 1867, "few": 1868, "que": 1869, "quar": 1870, "refer": 1871, "published": 1872, "French": 1873, "career": 1874, "similar": 1875, "mid": 1876, "One": 1877, "Dy": 1878, "mar": 1879, "English": 1880, "body": 1881, "held": 1882, "placed": 1883, "performan": 1884, "init": 1885, "import": 1886, "take": 1887, "production": 1888, "Gen": 1889, "ending": 1890, "mp": 1891, "ah": 1892, "Pr": 1893, "elt": 1894, "ared": 1895, "Batt": 1896, "different": 1897, "vo": 1898, "Tr": 1899, "ribut": 1900, "ution": 1901, "ush": 1902, "chang": 1903, "Or": 1904, "mand": 1905, "idge": 1906, "Ear": 1907, "you": 1908, "imes": 1909, "wind": 1910, "larg": 1911, "without": 1912, "commun": 1913, "songs": 1914, "den": 1915, "ampion": 1916, "Pe": 1917, "ars": 1918, "aining": 1919, "written": 1920, "With": 1921, "ico": 1922, "among": 1923, "sty": 1924, "level": 1925, "ler": 1926, "strong": 1927, "State": 1928, "polit": 1929, "lor": 1930, "force": 1931, "fort": 1932, "seven": 1933, "bert": 1934, "ÑÐ¶Ð¸Ðº,": 1935, "action": 1936, "every": 1937, "house": 1938, "tro": 1939, "ided": 1940, "Inter": 1941, "vil": 1942, "Division": 1943, "2011": 1944, "release": 1945, "white": 1946, "struct": 1947, "further": 1948, "iment": 1949, "tropical": 1950, "days": 1951, "become": 1952, "2006": 1953, "According": 1954, "Although": 1955, "Church": 1956, "stead": 1957, "find": 1958, "however": 1959, "22": 1960, "Canad": 1961, "Bar": 1962, "ged": 1963, "aster": 1964, "fr": 1965, "pite": 1966, "Ð·Ð°Ð¹ÑÐ¾Ð½Ð¾Ðº,": 1967, "itar": 1968, "Mus": 1969, "Te": 1970, "ÑÐ¾ÑÐ¾ÐºÐ¾Ð½Ð¾Ð¶ÐºÐ°,": 1971, "title": 1972, "author": 1973, "ops": 1974, "particular": 1975, "craft": 1976, "studi": 1977, "ness": 1978, "military": 1979, "respon": 1980, "Ser": 1981, "how": 1982, "foot": 1983, "augh": 1984, "bird": 1985, "graph": 1986, "27": 1987, "members": 1988, "flo": 1989, "Char": 1990, "popular": 1991, "League": 1992, "Roman": 1993, "gn": 1994, "Per": 1995, "Port": 1996, "wide": 1997, "mm": 1998, "ÐºÐ¾ÑÑÐ½Ð¾Ðº,": 1999, "scen": 2000, "went": 2001, "app": 2002, "Song": 2003, "Ð¼ÐµÐ´Ð²ÐµÐ¶Ð¾Ð½Ð¾Ðº,": 2004, "hold": 2005, "bruary": 2006, "histor": 2007, "February": 2008, "ai": 2009, "lost": 2010, "times": 2011, "mission": 2012, "iter": 2013, "direct": 2014, "bar": 2015, "sit": 2016, "ively": 2017, "gave": 2018, "ittle": 2019, "produced": 2020, "successful": 2021, "fan": 2022, "tele": 2023, "Ð´ÑÐ°ÐºÐ¾Ð½ÑÐ¸Ðº,": 2024, "reported": 2025, "Mis": 2026, "Dylan": 2027, "provid": 2028, "Geor": 2029, "friend": 2030, "served": 2031, "ology": 2032, "clear": 2033, "prof": 2034, "2012": 2035, "fire": 2036, "els": 2037, "mod": 2038, "capt": 2039, "common": 2040, "divid": 2041, "total": 2042, "Po": 2043, "test": 2044, "Old": 2045, "cult": 2046, "Park": 2047, "search": 2048, "covered": 2049, "wood": 2050, "children": 2051, "omin": 2052, "decl": 2053, "night": 2054, "forces": 2055, "given": 2056, "enter": 2057, "ps": 2058, "seen": 2059, "ford": 2060, "Ð»Ð¸ÑÑÐ½Ð¾Ðº,": 2061, "ator": 2062, "Jap": 2063, "stated": 2064, "Japan": 2065, "sure": 2066, "ception": 2067, "Min": 2068, "having": 2069, "include": 2070, "critic": 2071, "tour": 2072, "depend": 2073, "see": 2074, "face": 2075, "fail": 2076, "indu": 2077, "ctions": 2078, "great": 2079, "invol": 2080, "alion": 2081, "influ": 2082, "away": 2083, "close": 2084, "want": 2085, "Count": 2086, "represent": 2087, "anno": 2088, "Afric": 2089, "To": 2090, "compet": 2091, "country": 2092, "young": 2093, "bas": 2094, "signific": 2095, "manag": 2096, "Comp": 2097, "stre": 2098, "omen": 2099, "Pol": 2100, "making": 2101, "2013": 2102, "ices": 2103, "Sim": 2104, "net": 2105, "ney": 2106, "fron": 2107, "control": 2108, "itch": 2109, "eder": 2110, "Des": 2111, "rad": 2112, "chn": 2113, "river": 2114, "look": 2115, "occur": 2116, "program": 2117, "never": 2118, "father": 2119, "comb": 2120, "ploy": 2121, "General": 2122, "aur": 2123, "should": 2124, "lished": 2125, "vict": 2126, "While": 2127, "project": 2128, "construction": 2129, "post": 2130, "writing": 2131, "gl": 2132, "plan": 2133, "ods": 2134, "returned": 2135, "ned": 2136, "ister": 2137, "change": 2138, "University": 2139, "bl": 2140, "Tw": 2141, "aren": 2142, "mix": 2143, "fem": 2144, "xim": 2145, "developed": 2146, "established": 2147, "ither": 2148, "Scot": 2149, "29": 2150, "Ph": 2151, "ides": 2152, "reached": 2153, "ax": 2154, "too": 2155, "190": 2156, "chart": 2157, "America": 2158, "These": 2159, "omet": 2160, "ensive": 2161, "belie": 2162, "cing": 2163, "sound": 2164, "Ð²Ð¾ÑÐ¾Ð±ÐµÐ¹,": 2165, "island": 2166, "activ": 2167, "Ire": 2168, "Dav": 2169, "population": 2170, "announ": 2171, "BC": 2172, "equ": 2173, "law": 2174, "works": 2175, "ways": 2176, "Ha": 2177, "ama": 2178, "coming": 2179, "earli": 2180, "Jack": 2181, "hour": 2182, "novel": 2183, "died": 2184, "ably": 2185, "antic": 2186, "word": 2187, "noted": 2188, "introdu": 2189, "Ireland": 2190, "40": 2191, "bur": 2192, "Air": 2193, "igade": 2194, "tail": 2195, "tell": 2196, "range": 2197, "ges": 2198, "thought": 2199, "throughout": 2200, "across": 2201, "building": 2202, "blo": 2203, "cou": 2204, "agre": 2205, "itions": 2206, "ondon": 2207, "Vi": 2208, "Pro": 2209, "sum": 2210, "ances": 2211, "London": 2212, "gar": 2213, "exp": 2214, "full": 2215, "himself": 2216, "development": 2217, "felt": 2218, "William": 2219, "U.": 2220, "teen": 2221, "atic": 2222, "East": 2223, "board": 2224, "ument": 2225, "grow": 2226, "complete": 2227, "performed": 2228, "rap": 2229, "Mich": 2230, "important": 2231, "significant": 2232, "U.S.": 2233, "rent": 2234, "Australia": 2235, "aint": 2236, "typ": 2237, "pur": 2238, "ades": 2239, "eight": 2240, "Atl": 2241, "human": 2242, "destroy": 2243, "miles": 2244, "room": 2245, "live": 2246, "television": 2247, "interest": 2248, "Black": 2249, "various": 2250, "style": 2251, "fle": 2252, "areas": 2253, "key": 2254, "black": 2255, "sk": 2256, "sett": 2257, "Ed": 2258, "appeared": 2259, "bus": 2260, "Rich": 2261, "others": 2262, "relation": 2263, "bor": 2264, "hip": 2265, "does": 2266, "official": 2267, "del": 2268, "aign": 2269, "events": 2270, "need": 2271, "marri": 2272, "da": 2273, "Har": 2274, "suf": 2275, "Road": 2276, "Reg": 2277, "medi": 2278, "ior": 2279, "amb": 2280, "players": 2281, "started": 2282, "nd": 2283, "ones": 2284, "idence": 2285, "Roy": 2286, "James": 2287, "modern": 2288, "gether": 2289, "pra": 2290, "hind": 2291, "tion": 2292, "ots": 2293, "feet": 2294, "appoint": 2295, "ological": 2296, "experi": 2297, "poem": 2298, "High": 2299, "itive": 2300, "ified": 2301, "cil": 2302, "aver": 2303, "ope": 2304, "created": 2305, "performance": 2306, "County": 2307, "front": 2308, "nu": 2309, "prim": 2310, "located": 2311, "Wal": 2312, "caused": 2313, "aff": 2314, "ives": 2315, "cell": 2316, "techn": 2317, "Ke": 2318, "fun": 2319, "fig": 2320, "189": 2321, "Mount": 2322, "60": 2323, "You": 2324, "vill": 2325, "alth": 2326, "sex": 2327, "mother": 2328, "mount": 2329, "ago": 2330, "abor": 2331, "rick": 2332, "Ber": 2333, "coast": 2334, "stant": 2335, "2004": 2336, "Pal": 2337, "2005": 2338, "formation": 2339, "pression": 2340, "good": 2341, "na": 2342, "TV": 2343, "acy": 2344, "ample": 2345, "political": 2346, "Ho": 2347, "Cor": 2348, "rock": 2349, "characters": 2350, "mit": 2351, "theast": 2352, "relig": 2353, "bes": 2354, "Mag": 2355, "Sci": 2356, "Ne": 2357, "nal": 2358, "taken": 2359, "rew": 2360, "rul": 2361, "begin": 2362, "mun": 2363, "iness": 2364, "core": 2365, "cru": 2366, "born": 2367, "Su": 2368, "â": 2369, "Town": 2370, "goal": 2371, "Mont": 2372, "burn": 2373, "vic": 2374, "vert": 2375, "once": 2376, "Care": 2377, "fight": 2378, "aves": 2379, "grad": 2380, "scri": 2381, "far": 2382, "pred": 2383, "nia": 2384, "remained": 2385, "ring": 2386, "fav": 2387, "ison": 2388, "iting": 2389, "ination": 2390, "completed": 2391, "battle": 2392, "killed": 2393, "Phil": 2394, "yard": 2395, "quad": 2396, "ficult": 2397, "region": 2398, "Kingdom": 2399, "scored": 2400, "difficult": 2401, "Of": 2402, "mor": 2403, "Hist": 2404, "arded": 2405, "sess": 2406, "offer": 2407, "ible": 2408, "guns": 2409, "inv": 2410, "meet": 2411, "Island": 2412, "Australian": 2413, "tradition": 2414, "announced": 2415, "campaign": 2416, "van": 2417, "debut": 2418, "ublic": 2419, "Music": 2420, "Feder": 2421, "ked": 2422, "omb": 2423, "ks": 2424, "Bl": 2425, "anim": 2426, "stars": 2427, "Cup": 2428, "host": 2429, "Company": 2430, "Sy": 2431, "ising": 2432, "exist": 2433, "peak": 2434, "process": 2435, "added": 2436, "little": 2437, "help": 2438, "instead": 2439, "stat": 2440, "asing": 2441, "Som": 2442, "names": 2443, "lines": 2444, "Pa": 2445, "ael": 2446, "cient": 2447, "possible": 2448, "rought": 2449, "conne": 2450, "least": 2451, "followed": 2452, "cogn": 2453, "Ham": 2454, "redu": 2455, "bet": 2456, "ption": 2457, "saw": 2458, "know": 2459, "entire": 2460, "member": 2461, "Ex": 2462, "aid": 2463, "ories": 2464, "cause": 2465, "originally": 2466, "months": 2467, "together": 2468, "ality": 2469, "wife": 2470, "comment": 2471, "regular": 2472, "Army": 2473, "A.": 2474, "ues": 2475, "southern": 2476, "David": 2477, "rain": 2478, "Some": 2479, "reek": 2480, "Ang": 2481, "loss": 2482, "resident": 2483, "Grand": 2484, "study": 2485, "ug": 2486, "enced": 2487, "hurricane": 2488, "tar": 2489, "cir": 2490, "press": 2491, "associ": 2492, "women": 2493, "era": 2494, "eastern": 2495, "France": 2496, "ape": 2497, "Bill": 2498, "aving": 2499, "opened": 2500, "Ã¡": 2501, "Ã­": 2502, "lect": 2503, "2003": 2504, "mass": 2505, "critics": 2506, "Champion": 2507, "stone": 2508, "playing": 2509, "eventually": 2510, "consist": 2511, "features": 2512, "utes": 2513, "Other": 2514, "2015": 2515, "vest": 2516, "fif": 2517, "pair": 2518, "base": 2519, "broad": 2520, "carri": 2521, "Love": 2522, "hor": 2523, "dri": 2524, "route": 2525, "fourth": 2526, "recogn": 2527, "hab": 2528, "sport": 2529, "ability": 2530, "Two": 2531, "got": 2532, "voc": 2533, "forced": 2534, "decided": 2535, "sl": 2536, "ought": 2537, "Ä": 2538, "ota": 2539, "estim": 2540, "accept": 2541, "damage": 2542, "profess": 2543, "Fo": 2544, "non": 2545, "aly": 2546, "aper": 2547, "points": 2548, "heavy": 2549, "birds": 2550, "wall": 2551, "Battalion": 2552, "either": 2553, "termin": 2554, "proble": 2555, "elect": 2556, "tempor": 2557, "Ab": 2558, "commer": 2559, "finished": 2560, "leading": 2561, "cert": 2562, "break": 2563, "behind": 2564, "ament": 2565, "ull": 2566, "cop": 2567, "azine": 2568, "semb": 2569, "believed": 2570, "Carey": 2571, "forms": 2572, "speci": 2573, "sold": 2574, "writer": 2575, "separ": 2576, "current": 2577, "Mi": 2578, "tre": 2579, "nat": 2580, "condom": 2581, "ique": 2582, "liament": 2583, "claimed": 2584, "individ": 2585, "inc": 2586, "impro": 2587, "El": 2588, "uses": 2589, "appearance": 2590, "Fin": 2591, "Mor": 2592, "special": 2593, "fantry": 2594, "employ": 2595, "Royal": 2596, "example": 2597, "don": 2598, "188": 2599, "almost": 2600, "sts": 2601, "compan": 2602, "uck": 2603, "vir": 2604, "Mex": 2605, "ization": 2606, "directed": 2607, "yards": 2608, "European": 2609, "uc": 2610, "ara": 2611, "langu": 2612, "service": 2613, "generally": 2614, "respect": 2615, "Federer": 2616, "vier": 2617, "mater": 2618, "igned": 2619, "pie": 2620, "elements": 2621, "western": 2622, "towards": 2623, "Robert": 2624, "odes": 2625, "dou": 2626, "sour": 2627, "lower": 2628, "case": 2629, "weeks": 2630, "Brigade": 2631, "2nd": 2632, "brought": 2633, "concl": 2634, "ends": 2635, "cup": 2636, "upon": 2637, "mph": 2638, "No.": 2639, "International": 2640, "Ev": 2641, "Hen": 2642, "mot": 2643, "Oli": 2644, "illa": 2645, "Stre": 2646, "lled": 2647, "laun": 2648, "Wales": 2649, "central": 2650, "31": 2651, "bel": 2652, "ceed": 2653, "icated": 2654, "stry": 2655, "bodi": 2656, "highway": 2657, "featured": 2658, "35": 2659, "stage": 2660, "ready": 2661, "aircraft": 2662, "Viet": 2663, "term": 2664, "assist": 2665, "director": 2666, "Flor": 2667, "ida": 2668, "God": 2669, "crew": 2670, "mean": 2671, "Du": 2672, "dle": 2673, "via": 2674, "White": 2675, "survi": 2676, "general": 2677, "amo": 2678, "vers": 2679, "Part": 2680, "defe": 2681, "approach": 2682, "contract": 2683, "research": 2684, "sw": 2685, "SA": 2686, "ply": 2687, "Game": 2688, "provided": 2689, "George": 2690, "Day": 2691, "ordan": 2692, "meas": 2693, "ey": 2694, "ier": 2695, "Act": 2696, "compl": 2697, "fund": 2698, "cret": 2699, "graphy": 2700, "Play": 2701, "Val": 2702, "lear": 2703, "fly": 2704, "oted": 2705, "parts": 2706, "Follow": 2707, "Hero": 2708, "earlier": 2709, "Jordan": 2710, "reve": 2711, "From": 2712, "free": 2713, "Thom": 2714, "allowed": 2715, "hon": 2716, "Cent": 2717, "2014": 2718, "rather": 2719, "female": 2720, "Atlantic": 2721, "pat": 2722, "nar": 2723, "sea": 2724, "ration": 2725, "ington": 2726, "House": 2727, "ino": 2728, "opening": 2729, "largest": 2730, "victory": 2731, "Following": 2732, "heel": 2733, "Jew": 2734, "worked": 2735, "reason": 2736, "useum": 2737, "certain": 2738, "operations": 2739, "Christian": 2740, "subsequ": 2741, "particularly": 2742, "manager": 2743, "Dr": 2744, "Mad": 2745, "19th": 2746, "cially": 2747, "Rep": 2748, "travel": 2749, "troops": 2750, "Fir": 2751, "Mary": 2752, "audi": 2753, "spir": 2754, "working": 2755, "rail": 2756, "III": 2757, "joined": 2758, "wanted": 2759, "urb": 2760, "condu": 2761, "section": 2762, "Red": 2763, "standing": 2764, "evidence": 2765, "San": 2766, "reli": 2767, "northern": 2768, "Command": 2769, "Florida": 2770, "Paul": 2771, "Ir": 2772, "70": 2773, "hest": 2774, "anti": 2775, "nine": 2776, "outside": 2777, "engine": 2778, "leng": 2779, "Rock": 2780, "Street": 2781, "love": 2782, "stren": 2783, "saying": 2784, "Med": 2785, "pract": 2786, "ellow": 2787, "ission": 2788, "cross": 2789, "fre": 2790, "whom": 2791, "emy": 2792, "issue": 2793, "hours": 2794, "conom": 2795, "ential": 2796, "coll": 2797, "ators": 2798, "AA": 2799, "Gre": 2800, "ata": 2801, "har": 2802, "2001": 2803, "185": 2804, "avail": 2805, "souri": 2806, "account": 2807, "Missouri": 2808, "Cr": 2809, "streng": 2810, "38": 2811, "atin": 2812, "deal": 2813, "500": 2814, "territ": 2815, "Bra": 2816, "length": 2817, "My": 2818, "Sw": 2819, "tel": 2820, "mach": 2821, "court": 2822, "Tech": 2823, "nomin": 2824, "Lo": 2825, "Gal": 2826, "inch": 2827, "stay": 2828, "tee": 2829, "plann": 2830, "material": 2831, "ping": 2832, "poor": 2833, "gold": 2834, "cycl": 2835, "designed": 2836, "Cro": 2837, "Bay": 2838, "prob": 2839, "pool": 2840, "seem": 2841, "minist": 2842, "quarter": 2843, "soon": 2844, "argu": 2845, "think": 2846, "praised": 2847, "ger": 2848, "Don": 2849, "nes": 2850, "ishing": 2851, "quest": 2852, "Mark": 2853, "remains": 2854, "Indian": 2855, "football": 2856, "First": 2857, "ded": 2858, "aland": 2859, "Best": 2860, "drop": 2861, "counter": 2862, "suffer": 2863, "amount": 2864, "Ze": 2865, "station": 2866, "date": 2867, "ties": 2868, "bill": 2869, "hous": 2870, "flight": 2871, "winds": 2872, "Michael": 2873, "sho": 2874, "phas": 2875, "ival": 2876, "Ros": 2877, "quick": 2878, "type": 2879, "increased": 2880, "discus": 2881, "Â£": 2882, "Pri": 2883, "cul": 2884, "past": 2885, "viol": 2886, "scre": 2887, "Coun": 2888, "previously": 2889, "appointed": 2890, "45": 2891, "inj": 2892, "ica": 2893, "acc": 2894, "dol": 2895, "Bus": 2896, "deli": 2897, "units": 2898, "Egy": 2899, "pressed": 2900, "above": 2901, "replaced": 2902, "Cap": 2903, "ecut": 2904, "Richard": 2905, "lands": 2906, "erous": 2907, "Dep": 2908, "ranch": 2909, "maintain": 2910, "passed": 2911, "relationship": 2912, "Am": 2913, "ened": 2914, "alter": 2915, "ids": 2916, "spo": 2917, "clos": 2918, "civil": 2919, "Despite": 2920, "business": 2921, "rid": 2922, "pain": 2923, "aries": 2924, "interview": 2925, "signed": 2926, "flood": 2927, "invest": 2928, "ighest": 2929, "Â°": 2930, "achie": 2931, "going": 2932, "threat": 2933, "taking": 2934, "hib": 2935, "ributed": 2936, "Henry": 2937, "Hill": 2938, "186": 2939, "Canada": 2940, "osaur": 2941, "quadron": 2942, "estimated": 2943, "specific": 2944, "ik": 2945, "ff": 2946, "FA": 2947, "rang": 2948, "ault": 2949, "Que": 2950, "race": 2951, "vice": 2952, "available": 2953, "tor": 2954, "uel": 2955, "native": 2956, "structure": 2957, "Japanese": 2958, "somet": 2959, "highest": 2960, "stop": 2961, "ples": 2962, "sell": 2963, "Carol": 2964, "situ": 2965, "Oldham": 2966, "involved": 2967, "Ver": 2968, "comes": 2969, "must": 2970, "treat": 2971, "suggested": 2972, "Times": 2973, "mixed": 2974, "President": 2975, "Tor": 2976, "Vir": 2977, "lay": 2978, "shot": 2979, "establish": 2980, "turned": 2981, "introduced": 2982, "Ap": 2983, "inst": 2984, "recent": 2985, "goals": 2986, "likely": 2987, "usually": 2988, "Brown": 2989, "scene": 2990, "script": 2991, "Olivier": 2992, "ention": 2993, "proper": 2994, "itself": 2995, "league": 2996, "oney": 2997, "Chin": 2998, "bound": 2999, "Later": 3000, "cern": 3001, "actions": 3002, "Most": 3003, "transport": 3004, "India": 3005, "average": 3006, "Mexico": 3007, "ana": 3008, "sis": 3009, "tolo": 3010, "give": 3011, "Arab": 3012, "Egypt": 3013, "ald": 3014, "Rac": 3015, "lam": 3016, "olic": 3017, "School": 3018, "limited": 3019, "90": 3020, "lin": 3021, "told": 3022, "super": 3023, "sia": 3024, "whose": 3025, "recording": 3026, "village": 3027, "ita": 3028, "Cam": 3029, "bri": 3030, "Cong": 3031, "transfer": 3032, "brother": 3033, "responsi": 3034, "Thomas": 3035, "ming": 3036, "oring": 3037, "bow": 3038, "prepar": 3039, "possib": 3040, "size": 3041, "ximately": 3042, "religious": 3043, "Irish": 3044, "vin": 3045, "hit": 3046, "ordered": 3047, "block": 3048, "temporary": 3049, "occup": 3050, "Pac": 3051, "hom": 3052, "But": 3053, "bell": 3054, "187": 3055, "Britain": 3056, "pond": 3057, "shows": 3058, "damaged": 3059, "thus": 3060, "increasing": 3061, "Republic": 3062, "commission": 3063, "ky": 3064, "80": 3065, "NY": 3066, "ient": 3067, "ray": 3068, "Str": 3069, "istic": 3070, "mult": 3071, "icted": 3072, "touch": 3073, "marked": 3074, "Hurricane": 3075, "educ": 3076, "Wheel": 3077, "Mac": 3078, "irth": 3079, "space": 3080, "Many": 3081, "Rose": 3082, "thedr": 3083, "nearly": 3084, "changes": 3085, "despite": 3086, "Guitar": 3087, "Hel": 3088, "Hall": 3089, "beli": 3090, "clo": 3091, "feel": 3092, "forward": 3093, "watch": 3094, "social": 3095, "consider": 3096, "community": 3097, "Zealand": 3098, "Sun": 3099, "mal": 3100, "Rou": 3101, "aut": 3102, "defin": 3103, "surround": 3104, "independ": 3105, "econom": 3106, "err": 3107, "Jer": 3108, "Union": 3109, "lected": 3110, "ronic": 3111, "object": 3112, "international": 3113, "listed": 3114, "initially": 3115, "daugh": 3116, "commercial": 3117, "aces": 3118, "cts": 3119, "usion": 3120, "rate": 3121, "That": 3122, "asked": 3123, "Peter": 3124, "immedi": 3125, "already": 3126, "chap": 3127, "hard": 3128, "might": 3129, "anna": 3130, "winning": 3131, "archae": 3132, "Early": 3133, "failed": 3134, "detail": 3135, "depression": 3136, "Championship": 3137, "Chinese": 3138, "36": 3139, "espe": 3140, "St.": 3141, "Gold": 3142, "pected": 3143, "states": 3144, "related": 3145, "gress": 3146, "according": 3147, "woman": 3148, "capital": 3149, "training": 3150, "language": 3151, "probably": 3152, "Pacific": 3153, "especially": 3154, "Em": 3155, "here": 3156, "vate": 3157, "2002": 3158, "minor": 3159, "visit": 3160, "arily": 3161, "occas": 3162, "execut": 3163, "enj": 3164, "chol": 3165, "fut": 3166, "cost": 3167, "commit": 3168, "Mos": 3169, "ilities": 3170, "text": 3171, "studio": 3172, "natural": 3173, "pot": 3174, "hair": 3175, "coach": 3176, "spent": 3177, "includes": 3178, "arrived": 3179, "ield": 3180, "liter": 3181, "History": 3182, "Wheeler": 3183, "Jin": 3184, "god": 3185, "enough": 3186, "pho": 3187, "army": 3188, "moving": 3189, "remaining": 3190, "particip": 3191, "Awards": 3192, "Canadian": 3193, "habit": 3194, "respond": 3195, "thedral": 3196, "arts": 3197, "mention": 3198, "Law": 3199, "center": 3200, "Cath": 3201, "male": 3202, "prevent": 3203, "Navy": 3204, "sometimes": 3205, "dy": 3206, "UK": 3207, "aled": 3208, "pit": 3209, "ula": 3210, "atory": 3211, "doc": 3212, "required": 3213, "reviews": 3214, "quarters": 3215, "approximately": 3216, "Res": 3217, "amed": 3218, "dead": 3219, "nation": 3220, "nel": 3221, "hap": 3222, "slow": 3223, "positions": 3224, "fru": 3225, "latter": 3226, "phys": 3227, "pan": 3228, "sat": 3229, "ken": 3230, "Sing": 3231, "ries": 3232, "aters": 3233, "nest": 3234, "tons": 3235, "Associ": 3236, "Africa": 3237, "beginning": 3238, "urt": 3239, "pound": 3240, "2000": 3241, "perform": 3242, "running": 3243, "Angel": 3244, "Mid": 3245, "lot": 3246, "ateg": 3247, "exc": 3248, "inated": 3249, "notes": 3250, "ief": 3251, "Film": 3252, "decision": 3253, "soldi": 3254, "Scien": 3255, "Creek": 3256, "defeated": 3257, "Scientolo": 3258, "yer": 3259, "Pre": 3260, "sen": 3261, "bit": 3262, "Star": 3263, "Art": 3264, "additional": 3265, "Regiment": 3266, "Super": 3267, "Lu": 3268, "ication": 3269, "oid": 3270, "jour": 3271, "evol": 3272, "president": 3273, "response": 3274, "better": 3275, "Virgin": 3276, "Rachel": 3277, "aring": 3278, "Hol": 3279, "uded": 3280, "ference": 3281, "students": 3282, "larger": 3283, "positive": 3284, "concern": 3285, "whe": 3286, "aby": 3287, "sip": 3288, "Light": 3289, "supported": 3290, "Colle": 3291, "constructed": 3292, "captured": 3293, "magazine": 3294, "Gl": 3295, "1st": 3296, "Oly": 3297, "bot": 3298, "food": 3299, "rics": 3300, "Award": 3301, "police": 3302, "changed": 3303, "bridge": 3304, "pressure": 3305, "Scott": 3306, "agreed": 3307, "staff": 3308, "Olymp": 3309, "cal": 3310, "Lad": 3311, "poet": 3312, "active": 3313, "Charles": 3314, "fleet": 3315, "cele": 3316, "Rus": 3317, "shown": 3318, "1995": 3319, "score": 3320, "Billboard": 3321, "birth": 3322, "Hu": 3323, "aven": 3324, "teach": 3325, "plays": 3326, "frequ": 3327, "assigned": 3328, "future": 3329, "FI": 3330, "pay": 3331, "print": 3332, "access": 3333, "location": 3334, "provide": 3335, "Penn": 3336, "fifth": 3337, "rd": 3338, "75": 3339, "Tom": 3340, "agon": 3341, "pose": 3342, "ctive": 3343, "acqu": 3344, "aval": 3345, "keep": 3346, "uments": 3347, "selves": 3348, "discovered": 3349, "Hor": 3350, "appl": 3351, "temper": 3352, "syn": 3353, "feature": 3354, "broadcast": 3355, "Route": 3356, "Ri": 3357, "ny": 3358, "sal": 3359, "iss": 3360, "itz": 3361, "ami": 3362, "idea": 3363, "subject": 3364, "prior": 3365, "surface": 3366, "pitch": 3367, "becoming": 3368, "circ": 3369, "ander": 3370, "uals": 3371, "Arch": 3372, "ifa": 3373, "defeat": 3374, "rison": 3375, "33": 3376, "cm": 3377, "NA": 3378, "Cer": 3379, "exam": 3380, "box": 3381, "operation": 3382, "smaller": 3383, "Western": 3384, "Fort": 3385, "inci": 3386, "idents": 3387, "intended": 3388, "groups": 3389, "summer": 3390, "Scientology": 3391, "Go": 3392, "Sou": 3393, "cean": 3394, "ishop": 3395, "percent": 3396, "mostly": 3397, "exten": 3398, "Great": 3399, "stein": 3400, "metres": 3401, "paren": 3402, "themselves": 3403, "Haifa": 3404, "48": 3405, "Ot": 3406, "Bro": 3407, "otion": 3408, "lies": 3409, "quare": 3410, "Year": 3411, "assi": 3412, "2016": 3413, "orial": 3414, "ize": 3415, "makes": 3416, "referred": 3417, "champion": 3418, "favor": 3419, "minutes": 3420, "Dan": 3421, "edy": 3422, "enon": 3423, "Gro": 3424, "Bri": 3425, "apo": 3426, "hop": 3427, "ners": 3428, "atest": 3429, "affic": 3430, "flow": 3431, "create": 3432, "musical": 3433, "Since": 3434, "office": 3435, "largely": 3436, "stitute": 3437, "alifor": 3438, "professional": 3439, "problems": 3440, "Croat": 3441, "Association": 3442, "pers": 3443, "rael": 3444, "indic": 3445, "entered": 3446, "media": 3447, "Under": 3448, "ranked": 3449, "Parliament": 3450, "pole": 3451, "Lord": 3452, "secur": 3453, "conf": 3454, "reser": 3455, "contr": 3456, "Frank": 3457, "contains": 3458, "radio": 3459, "ns": 3460, "pi": 3461, "Ã³": 3462, "kan": 3463, "imp": 3464, "Not": 3465, "fill": 3466, "aker": 3467, "Oper": 3468, "artment": 3469, "send": 3470, "demon": 3471, "1999": 3472, "appears": 3473, "link": 3474, "experience": 3475, "Galve": 3476, "closed": 3477, "Califor": 3478, "mas": 3479, "fell": 3480, "relative": 3481, "effects": 3482, "guitar": 3483, "money": 3484, "zz": 3485, "Mal": 3486, "asy": 3487, "How": 3488, "ully": 3489, "ume": 3490, "tray": 3491, "sian": 3492, "grant": 3493, "jected": 3494, "stories": 3495, "1950": 3496, "bio": 3497, "majority": 3498, "ergy": 3499, "nature": 3500, "voice": 3501, "Earth": 3502, "Jewish": 3503, "Council": 3504, "Israel": 3505, "adop": 3506, "Galveston": 3507, "orm": 3508, "eding": 3509, "Tur": 3510, "roll": 3511, "reme": 3512, "Camp": 3513, "strict": 3514, "critical": 3515, "Wood": 3516, "market": 3517, "culture": 3518, "leaving": 3519, "bodies": 3520, "ga": 3521, "ML": 3522, "Bal": 3523, "Var": 3524, "sil": 3525, "mir": 3526, "Bel": 3527, "Chic": 3528, "cred": 3529, "colon": 3530, "Record": 3531, "gins": 3532, "primary": 3533, "Tri": 3534, "lived": 3535, "Another": 3536, "writers": 3537, "election": 3538, "Brad": 3539, "gods": 3540, "always": 3541, "married": 3542, "schol": 3543, "lyrics": 3544, "ox": 3545, "bal": 3546, "rare": 3547, "pring": 3548, "Station": 3549, "ept": 3550, "depart": 3551, "films": 3552, "officers": 3553, "runs": 3554, "attract": 3555, "launched": 3556, "brief": 3557, "California": 3558, "39": 3559, "mel": 3560, "umb": 3561, "rup": 3562, "teams": 3563, "Bey": 3564, "course": 3565, "quickly": 3566, "Catholic": 3567, "verse": 3568, "uter": 3569, "deep": 3570, "meant": 3571, "minute": 3572, "proposed": 3573, "spital": 3574, "occurred": 3575, "episodes": 3576, "If": 3577, "37": 3578, "Mer": 3579, "Ale": 3580, "increase": 3581, "equip": 3582, "settle": 3583, "mitted": 3584, "daughter": 3585, "whether": 3586, "irl": 3587, "adap": 3588, "exper": 3589, "pian": 3590, "ugu": 3591, "fans": 3592, "fected": 3593, "illery": 3594, "Saint": 3595, "destroyed": 3596, "northeast": 3597, "traffic": 3598, "47": 3599, "Qu": 3600, "Mr": 3601, "rein": 3602, "ben": 3603, "hol": 3604, "earth": 3605, "insp": 3606, "bring": 3607, "longer": 3608, "takes": 3609, "Nix": 3610, "fighting": 3611, "meaning": 3612, "Central": 3613, "Chicago": 3614, "ream": 3615, "hus": 3616, "twent": 3617, "upper": 3618, "iva": 3619, "meth": 3620, "theme": 3621, "kind": 3622, "syl": 3623, "job": 3624, "throw": 3625, "numbers": 3626, "Battle": 3627, "ville": 3628, "aught": 3629, "competition": 3630, "soldiers": 3631, "andon": 3632, "mom": 3633, "Haw": 3634, "trade": 3635, "Alice": 3636, "overnor": 3637, "ario": 3638, "leave": 3639, "Northern": 3640, "secut": 3641, "McC": 3642, "awarded": 3643, "carried": 3644, "determin": 3645, "administ": 3646, "celebr": 3647, "zy": 3648, "hou": 3649, "pet": 3650, "undred": 3651, "fles": 3652, "Enter": 3653, "1998": 3654, "directly": 3655, "conducted": 3656, "Latin": 3657, "private": 3658, "inal": 3659, "nis": 3660, "Lou": 3661, "sey": 3662, "ports": 3663, "Ital": 3664, "newsp": 3665, "records": 3666, "attacks": 3667, "request": 3668, "subsequently": 3669, "tom": 3670, "gent": 3671, "400": 3672, "emer": 3673, "Tour": 3674, "plans": 3675, "tourn": 3676, "1930": 3677, "onym": 3678, "issued": 3679, "corpor": 3680, "earned": 3681, "Villa": 3682, "Dj": 3683, "ses": 3684, "ases": 3685, "onto": 3686, "ying": 3687, "ites": 3688, "neg": 3689, "Tex": 3690, "vie": 3691, "hero": 3692, "20th": 3693, "overall": 3694, "1993": 3695, "Second": 3696, "influence": 3697, "stream": 3698, "Polish": 3699, "commented": 3700, "industry": 3701, "Otto": 3702, "Alkan": 3703, "49": 3704, "RA": 3705, "rat": 3706, "Land": 3707, "dem": 3708, "igg": 3709, "aging": 3710, "finally": 3711, "Liver": 3712, "fully": 3713, "Fore": 3714, "books": 3715, "serious": 3716, "Nixon": 3717, "Liverpool": 3718, "kil": 3719, "Tay": 3720, "load": 3721, "whole": 3722, "greater": 3723, "compared": 3724, "scenes": 3725, "network": 3726, "Sar": 3727, "Over": 3728, "mig": 3729, "plot": 3730, "done": 3731, "image": 3732, "Its": 3733, "Sever": 3734, "unable": 3735, "Span": 3736, "piece": 3737, "double": 3738, "Ross": 3739, "Texas": 3740, "Ca": 3741, "uk": 3742, "ett": 3743, "div": 3744, "vement": 3745, "necess": 3746, "mium": 3747, "erset": 3748, "buildings": 3749, "health": 3750, "concert": 3751, "expected": 3752, "Lady": 3753, "Somerset": 3754, "Fow": 3755, "sus": 3756, "yet": 3757, "Spe": 3758, "jud": 3759, "gian": 3760, "centre": 3761, "sets": 3762, "Tropical": 3763, "Mosley": 3764, "bi": 3765, "Mil": 3766, "Bow": 3767, "Cour": 3768, "actor": 3769, "party": 3770, "finan": 3771, "confl": 3772, "aily": 3773, "1996": 3774, "living": 3775, "legal": 3776, "Studi": 3777, "personal": 3778, "rapid": 3779, "nucle": 3780, "prison": 3781, "Busch": 3782, "Squadron": 3783, "begins": 3784, "300": 3785, "ump": 3786, "purch": 3787, "discover": 3788, "terms": 3789, "Tenn": 3790, "waters": 3791, "classi": 3792, "fa": 3793, "mode": 3794, "Mart": 3795, "Lake": 3796, "anger": 3797, "ency": 3798, "cÃ©": 3799, "advant": 3800, "movement": 3801, "marriage": 3802, "status": 3803, "3rd": 3804, "Christmas": 3805, "sylvan": 3806, "Taylor": 3807, "Spanish": 3808, "ato": 3809, "wing": 3810, "mur": 3811, "Back": 3812, "weight": 3813, "mith": 3814, "concept": 3815, "helped": 3816, "withdraw": 3817, "screen": 3818, "dollar": 3819, "portray": 3820, "Several": 3821, "Fowler": 3822, "bs": 3823, "NC": 3824, "Ter": 3825, "Three": 3826, "Los": 3827, "istics": 3828, "starting": 3829, "standard": 3830, "batter": 3831, "sequence": 3832, "schools": 3833, "join": 3834, "sched": 3835, "African": 3836, "information": 3837, "possess": 3838, "traditional": 3839, "bomb": 3840, "planned": 3841, "suffered": 3842, "ds": 3843, "32": 3844, "han": 3845, "itor": 3846, "bad": 3847, "bery": 3848, "dark": 3849, "speed": 3850, "escap": 3851, "venue": 3852, "wound": 3853, "giving": 3854, "collection": 3855, "performances": 3856, "demand": 3857, "activity": 3858, "figure": 3859, "associated": 3860, "Infantry": 3861, "inspired": 3862, "Sam": 3863, "pow": 3864, "ously": 3865, "ultim": 3866, "athan": 3867, "path": 3868, "forts": 3869, "regard": 3870, "thick": 3871, "Common": 3872, "Jane": 3873, "leaders": 3874, "presented": 3875, "division": 3876, "Sovi": 3877, "sembly": 3878, "condoms": 3879, "source": 3880, "Party": 3881, "machine": 3882, "husband": 3883, "abandon": 3884, "anal": 3885, "bey": 3886, "dev": 3887, "edge": 3888, "presence": 3889, "lock": 3890, "raised": 3891, "tracks": 3892, "allowing": 3893, "inner": 3894, "Soci": 3895, "initial": 3896, "Series": 3897, "expand": 3898, "Foot": 3899, "companies": 3900, "greatest": 3901, "pal": 3902, "gal": 3903, "ering": 3904, "unit": 3905, "ican": 3906, "Fle": 3907, "deb": 3908, "suit": 3909, "portion": 3910, "Bob": 3911, "viewers": 3912, "except": 3913, "continue": 3914, "nearby": 3915, "slight": 3916, "Paris": 3917, "Anderson": 3918, "Carolina": 3919, "education": 3920, "document": 3921, "Virginia": 3922, "sylvania": 3923, "Im": 3924, "Gi": 3925, "ding": 3926, "fit": 3927, "ius": 3928, "Mill": 3929, "Live": 3930, "genus": 3931, "kick": 3932, "Boy": 3933, "ederal": 3934, "cyclone": 3935, "Do": 3936, "44": 3937, "Jam": 3938, "olk": 3939, "chall": 3940, "ulated": 3941, "dated": 3942, "confir": 3943, "web": 3944, "weap": 3945, "Just": 3946, "annual": 3947, "complex": 3948, "composed": 3949, "services": 3950, "Queen": 3951, "College": 3952, "hundred": 3953, "76": 3954, "Tre": 3955, "atre": 3956, "cad": 3957, "resc": 3958, "abs": 3959, "Sha": 3960, "really": 3961, "boy": 3962, "step": 3963, "1997": 3964, "Games": 3965, "Vict": 3966, "producer": 3967, "polic": 3968, "extended": 3969, "commander": 3970, "figures": 3971, "territory": 3972, "numerous": 3973, "cathedral": 3974, "Beyon": 3975, "Ottoman": 3976, "BeyoncÃ©": 3977, "gas": 3978, "iser": 3979, "Ever": 3980, "essa": 3981, "heav": 3982, "park": 3983, "things": 3984, "Germany": 3985, "proteins": 3986, "Open": 3987, "Six": 3988, "friends": 3989, "vocals": 3990, "Museum": 3991, "enjoy": 3992, "Miami": 3993, "I.": 3994, "arc": 3995, "beat": 3996, "rical": 3997, "Nations": 3998, "pson": 3999, "ensity": 4000, "Club": 4001, "something": 4002, "stitut": 4003, "Jackson": 4004, "nuclear": 4005, "target": 4006, "Meyer": 4007, "C.": 4008, "Ty": 4009, "anas": 4010, "vey": 4011, "Their": 4012, "olf": 4013, "Sol": 4014, "gue": 4015, "Through": 4016, "highly": 4017, "Sea": 4018, "attacked": 4019, "promin": 4020, "attempts": 4021, "types": 4022, "morning": 4023, "strength": 4024, "estival": 4025, "investig": 4026, "Service": 4027, "responsible": 4028, "Ã³n": 4029, "impact": 4030, "Os": 4031, "orders": 4032, "stra": 4033, "Ill": 4034, "dise": 4035, "metal": 4036, "aspect": 4037, "issues": 4038, "Prince": 4039, "individual": 4040, "immediately": 4041, "Pennsylvania": 4042, "AI": 4043, "wal": 4044, "pil": 4045, "beer": 4046, "Sur": 4047, "bid": 4048, "uries": 4049, "artist": 4050, "anta": 4051, "owned": 4052, "itect": 4053, "severe": 4054, "itting": 4055, "distin": 4056, "distance": 4057, "removed": 4058, "advan": 4059, "ademy": 4060, "situation": 4061, "scoring": 4062, "piano": 4063, "hic": 4064, "Che": 4065, "dig": 4066, "Hum": 4067, "Water": 4068, "mouth": 4069, "inside": 4070, "advance": 4071, "variety": 4072, "Nico": 4073, "studies": 4074, "Scotland": 4075, "needed": 4076, "offered": 4077, "peaked": 4078, "selected": 4079, "Storm": 4080, "artillery": 4081, "utch": 4082, "creation": 4083, "means": 4084, "1991": 4085, "singer": 4086, "Jose": 4087, "thens": 4088, "observ": 4089, "Chris": 4090, "attempted": 4091, "copies": 4092, "progress": 4093, "headquarters": 4094, "countries": 4095, "Pat": 4096, "oting": 4097, "plant": 4098, "struction": 4099, "shire": 4100, "Cross": 4101, "China": 4102, "casual": 4103, "focus": 4104, "adium": 4105, "ribution": 4106, "horse": 4107, "respectively": 4108, "princi": 4109, "MS": 4110, "alo": 4111, "acing": 4112, "ili": 4113, "cting": 4114, "Out": 4115, "mole": 4116, "ousand": 4117, "higher": 4118, "rule": 4119, "Both": 4120, "symb": 4121, "itude": 4122, "Major": 4123, "widely": 4124, "appearances": 4125, "describes": 4126, "touchdown": 4127, "Department": 4128, "ti": 4129, "andid": 4130, "Tem": 4131, "Crit": 4132, "1992": 4133, "semi": 4134, "powerful": 4135, "missed": 4136, "observed": 4137, "completely": 4138, "sexual": 4139, "Corps": 4140, "Braa": 4141, "hanna": 4142, "Football": 4143, "heavily": 4144, "La": 4145, "6th": 4146, "Are": 4147, "tic": 4148, "bour": 4149, "portun": 4150, "below": 4151, "adult": 4152, "1994": 4153, "pick": 4154, "crow": 4155, "bank": 4156, "managed": 4157, "chester": 4158, "meeting": 4159, "reduced": 4160, "quality": 4161, "middle": 4162, "relief": 4163, "xenon": 4164, "Alex": 4165, "BA": 4166, "iny": 4167, "bon": 4168, "cis": 4169, "sixth": 4170, "resulted": 4171, "matches": 4172, "Like": 4173, "ricket": 4174, "audience": 4175, "Minnes": 4176, "concluded": 4177, "parents": 4178, "affected": 4179, "Minnesota": 4180, "34": 4181, "inn": 4182, "Lan": 4183, "true": 4184, "Force": 4185, "inkel": 4186, "Time": 4187, "activities": 4188, "Offic": 4189, "akapo": 4190, "Victor": 4191, "Hot": 4192, "Del": 4193, "gain": 4194, "award": 4195, "stating": 4196, "Young": 4197, "Center": 4198, "words": 4199, "houses": 4200, "contemporary": 4201, "revealed": 4202, "Southern": 4203, "Townsend": 4204, "Rosebery": 4205, "opportun": 4206, "Fre": 4207, "rect": 4208, "opin": 4209, "sole": 4210, "eway": 4211, "mile": 4212, "vised": 4213, "write": 4214, "calling": 4215, "150": 4216, "Colon": 4217, "refused": 4218, "levels": 4219, "declared": 4220, "separate": 4221, "trees": 4222, "viron": 4223, "secret": 4224, "residents": 4225, "Italian": 4226, "za": 4227, "eu": 4228, "Sto": 4229, "ado": 4230, "Sir": 4231, "Long": 4232, "aware": 4233, "drum": 4234, "annel": 4235, "armed": 4236, "1970": 4237, "faced": 4238, "stitution": 4239, "blue": 4240, "wealth": 4241, "drew": 4242, "Because": 4243, "question": 4244, "photo": 4245, "Walpole": 4246, "Hawai": 4247, "Meyerbeer": 4248, "Finkel": 4249, "Finkelstein": 4250, "Dou": 4251, "spl": 4252, "fast": 4253, "rated": 4254, "peror": 4255, "eval": 4256, "grand": 4257, "rane": 4258, "athus": 4259, "today": 4260, "featuring": 4261, "carry": 4262, "background": 4263, "university": 4264, "historical": 4265, "offensive": 4266, "typically": 4267, "contrast": 4268, "Shiva": 4269, "Tessa": 4270, "Cal": 4271, "mes": 4272, "iron": 4273, "Wel": 4274, "Met": 4275, "Cast": 4276, "odon": 4277, "acting": 4278, "eves": 4279, "Yue": 4280, "icts": 4281, "elected": 4282, "hands": 4283, "conditions": 4284, "paper": 4285, "Smith": 4286, "Society": 4287, "Nicole": 4288, "bing": 4289, "ros": 4290, "excl": 4291, "worth": 4292, "peace": 4293, "mainly": 4294, "alty": 4295, "rhy": 4296, "organized": 4297, "weaken": 4298, "initi": 4299, "sites": 4300, "reception": 4301, "tax": 4302, "assault": 4303, "becomes": 4304, "attention": 4305, "efforts": 4306, "chor": 4307, "Jim": 4308, "rum": 4309, "Mem": 4310, "log": 4311, "wear": 4312, "charge": 4313, "produce": 4314, "prise": 4315, "specim": 4316, "strugg": 4317, "controver": 4318, "brown": 4319, "divided": 4320, "Highway": 4321, "scient": 4322, "vehic": 4323, "Braathens": 4324, "mat": 4325, "Ven": 4326, "isl": 4327, "rich": 4328, "Civ": 4329, "sail": 4330, "actually": 4331, "corn": 4332, "titles": 4333, "ufact": 4334, "sense": 4335, "Hait": 4336, "mentioned": 4337, "evolution": 4338, "incorpor": 4339, "Nes": 4340, "strated": 4341, "sci": 4342, "rend": 4343, "color": 4344, "roles": 4345, "cannot": 4346, "1990": 4347, "seasons": 4348, "struck": 4349, "bury": 4350, "Dire": 4351, "Johnson": 4352, "Adam": 4353, "defend": 4354, "combat": 4355, "tellig": 4356, "Blue": 4357, "accepted": 4358, "Green": 4359, "achieved": 4360, "extreme": 4361, "Court": 4362, "Illino": 4363, "hu": 4364, "5th": 4365, "hed": 4366, "ils": 4367, "pul": 4368, "instr": 4369, "Indu": 4370, "180": 4371, "winter": 4372, "tainment": 4373, "tower": 4374, "athlet": 4375, "protein": 4376, "border": 4377, "capture": 4378, "vocal": 4379, "Vietnam": 4380, "practice": 4381, "deliver": 4382, "Captain": 4383, "girl": 4384, "Portugu": 4385, "advantage": 4386, "analys": 4387, "Portuguese": 4388, "4th": 4389, "Van": 4390, "zer": 4391, "sec": 4392, "Rad": 4393, "cam": 4394, "Jul": 4395, "lif": 4396, "havi": 4397, "iving": 4398, "forest": 4399, "Thunder": 4400, "ements": 4401, "finals": 4402, "ledge": 4403, "helm": 4404, "Fey": 4405, "flank": 4406, "Government": 4407, "fiction": 4408, "primarily": 4409, "Soviet": 4410, "Academy": 4411, "thousand": 4412, "Up": 4413, "lb": 4414, "Fur": 4415, "cere": 4416, "lers": 4417, "Tod": 4418, "Tran": 4419, "hood": 4420, "1986": 4421, "spread": 4422, "Prote": 4423, "push": 4424, "mountain": 4425, "paid": 4426, "infantry": 4427, "twenty": 4428, "slightly": 4429, "architect": 4430, "Civil": 4431, "Ka": 4432, "pun": 4433, "Sal": 4434, "Ram": 4435, "vation": 4436, "concent": 4437, "Engine": 4438, "scale": 4439, "sales": 4440, "rights": 4441, "Spain": 4442, "sister": 4443, "blood": 4444, "inches": 4445, "expressed": 4446, "extens": 4447, "B.": 4448, "Ben": 4449, "die": 4450, "clim": 4451, "neigh": 4452, "estic": 4453, "mist": 4454, "serve": 4455, "ulpt": 4456, "preser": 4457, "shell": 4458, "wild": 4459, "colour": 4460, "Mog": 4461, "transl": 4462, "showed": 4463, "officer": 4464, "protest": 4465, "arent": 4466, "ceeded": 4467, "commissioned": 4468, "Horse": 4469, "Ocean": 4470, "Group": 4471, "Louis": 4472, "sculpt": 4473, "nic": 4474, "pup": 4475, "Tint": 4476, "older": 4477, "themes": 4478, "visions": 4479, "Leg": 4480, "county": 4481, "defense": 4482, "Emp": 4483, "window": 4484, "Little": 4485, "battalion": 4486, "looking": 4487, "combined": 4488, "Secret": 4489, "Zhou": 4490, "Varanas": 4491, "Welsh": 4492, "Tintin": 4493, "Empire": 4494, "Varanasi": 4495, "nh": 4496, "Pit": 4497, "sust": 4498, "ensi": 4499, "rance": 4500, "Though": 4501, "iction": 4502, "diff": 4503, "bitt": 4504, "titled": 4505, "cultural": 4506, "represented": 4507, "Andrew": 4508, "Apple": 4509, "fruit": 4510, "onymous": 4511, "folk": 4512, "casualties": 4513, "Nesbitt": 4514, "hi": 4515, "L.": 4516, "bat": 4517, "ram": 4518, "Bol": 4519, "tation": 4520, "ems": 4521, "Dist": 4522, "alone": 4523, "grass": 4524, "recomm": 4525, "ications": 4526, "spect": 4527, "founded": 4528, "Form": 4529, "continues": 4530, "castle": 4531, "says": 4532, "street": 4533, "sides": 4534, "earliest": 4535, "Oda": 4536, "ancient": 4537, "Eva": 4538, "Angeles": 4539, "excav": 4540, "avoid": 4541, "Ceres": 4542, "square": 4543, "newspaper": 4544, "murder": 4545, "vironment": 4546, "enathus": 4547, "Odaenathus": 4548, "42": 4549, "SR": 4550, "9th": 4551, "jun": 4552, "omer": 4553, "thir": 4554, "1920": 4555, "Home": 4556, "Turn": 4557, "doing": 4558, "pedo": 4559, "places": 4560, "northwest": 4561, "Book": 4562, "resulting": 4563, "artists": 4564, "officially": 4565, "authorities": 4566, "maxim": 4567, "identified": 4568, "function": 4569, "Commun": 4570, "influenced": 4571, "DuMont": 4572, "flooding": 4573, "Olympic": 4574, "adopted": 4575, "Records": 4576, "Sarnia": 4577, "disease": 4578, "Francis": 4579, "manufact": 4580, "ceremon": 4581, "wa": 4582, "Er": 4583, "MD": 4584, "alle": 4585, "Dam": 4586, "Fam": 4587, "Way": 4588, "itation": 4589, "Bul": 4590, "tru": 4591, "18th": 4592, "anning": 4593, "Tele": 4594, "captain": 4595, "reports": 4596, "basis": 4597, "Simpson": 4598, "Illinois": 4599, "ker": 4600, "ulf": 4601, "Bet": 4602, "cers": 4603, "repe": 4604, "perman": 4605, "raid": 4606, "toward": 4607, "letters": 4608, "Week": 4609, "soundtrack": 4610, "southeast": 4611, "broken": 4612, "tournament": 4613, "Manchester": 4614, "Wilhelm": 4615, "Mogad": 4616, "apparent": 4617, "7th": 4618, "zed": 4619, "Pen": 4620, "mob": 4621, "reign": 4622, "workers": 4623, "Burn": 4624, "Fred": 4625, "alongside": 4626, "Wash": 4627, "oppon": 4628, "encour": 4629, "Add": 4630, "rush": 4631, "delay": 4632, "advert": 4633, "exhib": 4634, "osaurus": 4635, "occasion": 4636, "relatively": 4637, "kakapo": 4638, "torpedo": 4639, "Washington": 4640, "ono": 4641, "Lar": 4642, "iled": 4643, "Four": 4644, "Night": 4645, "edition": 4646, "contain": 4647, "content": 4648, "ression": 4649, "mond": 4650, "chair": 4651, "losing": 4652, "cities": 4653, "direction": 4654, "popul": 4655, "1988": 4656, "attended": 4657, "tried": 4658, "patter": 4659, "otional": 4660, "mechan": 4661, "Post": 4662, "narrow": 4663, "yellow": 4664, "transferred": 4665, "individuals": 4666, "cadmium": 4667, "Di": 4668, "J.": 4669, "umn": 4670, "mess": 4671, "proved": 4672, "contact": 4673, "Alab": 4674, "wick": 4675, "News": 4676, "Oma": 4677, "require": 4678, "Clark": 4679, "royal": 4680, "farm": 4681, "Produ": 4682, "effort": 4683, "officials": 4684, "ovic": 4685, "measure": 4686, "dedicated": 4687, "surrounding": 4688, "physical": 4689, "Middle": 4690, "determined": 4691, "Alabama": 4692, "Omaha": 4693, "ises": 4694, "union": 4695, "nast": 4696, "height": 4697, "lives": 4698, "opposed": 4699, "couple": 4700, "atives": 4701, "rainfall": 4702, "eye": 4703, "energy": 4704, "conflict": 4705, "candid": 4706, "53": 4707, "Sen": 4708, "dete": 4709, "uled": 4710, "adel": 4711, "illu": 4712, "ishu": 4713, "follows": 4714, "restor": 4715, "timore": 4716, "designated": 4717, "1960s": 4718, "Mean": 4719, "shortly": 4720, "Reception": 4721, "possibly": 4722, "Helms": 4723, "financial": 4724, "intensity": 4725, "PerÃ³n": 4726, "Mogadishu": 4727, "bin": 4728, "Sch": 4729, "lip": 4730, "Fant": 4731, "your": 4732, "osen": 4733, "phen": 4734, "door": 4735, "albums": 4736, "1940": 4737, "1964": 4738, "shore": 4739, "vention": 4740, "1980s": 4741, "images": 4742, "society": 4743, "Edward": 4744, "gradu": 4745, "shape": 4746, "sources": 4747, "simply": 4748, "security": 4749, "Innis": 4750, "science": 4751, "maximum": 4752, "oft": 4753, "Kent": 4754, "iel": 4755, "ores": 4756, "ordin": 4757, "spot": 4758, "visited": 4759, "phil": 4760, "orses": 4761, "serving": 4762, "Demo": 4763, "voy": 4764, "revol": 4765, "successfully": 4766, "Independ": 4767, "Histor": 4768, "emphas": 4769, "potential": 4770, "journal": 4771, "dissip": 4772, "comedy": 4773, "uzz": 4774, "kept": 4775, "necessary": 4776, "Assembly": 4777, "Joseph": 4778, "behavi": 4779, "rem": 4780, "wen": 4781, "kes": 4782, "sac": 4783, "igan": 4784, "ares": 4785, "kare": 4786, "Jour": 4787, "Jup": 4788, "nown": 4789, "boat": 4790, "seek": 4791, "dress": 4792, "systems": 4793, "Commission": 4794, "buried": 4795, "pieces": 4796, "spirit": 4797, "argued": 4798, "pounds": 4799, "McCall": 4800, "movie": 4801, "Fleet": 4802, "Bu": 4803, "46": 4804, "M.": 4805, "ada": 4806, "shap": 4807, "heart": 4808, "guest": 4809, "rating": 4810, "suppl": 4811, "passes": 4812, "depth": 4813, "grew": 4814, "boats": 4815, "suggests": 4816, "authority": 4817, "happ": 4818, "management": 4819, "projects": 4820, "Hamels": 4821, "PlayStation": 4822, "Argent": 4823, "Rihanna": 4824, "domestic": 4825, "Baltimore": 4826, "inth": 4827, "dro": 4828, "dut": 4829, "600": 4830, "shr": 4831, "Dest": 4832, "weak": 4833, "rence": 4834, "twice": 4835, "phy": 4836, "belong": 4837, "wave": 4838, "Conf": 4839, "letter": 4840, "gained": 4841, "placement": 4842, "cases": 4843, "causing": 4844, "structures": 4845, "frag": 4846, "criticized": 4847, "paint": 4848, "invas": 4849, "unique": 4850, "Valley": 4851, "museum": 4852, "consecut": 4853, "Bowl": 4854, "ultimately": 4855, "website": 4856, "legisl": 4857, "entrance": 4858, "H.": 4859, "65": 4860, "cat": 4861, "oud": 4862, "neut": 4863, "share": 4864, "hill": 4865, "propos": 4866, "Cra": 4867, "condition": 4868, "verted": 4869, "vince": 4870, "fung": 4871, "vessel": 4872, "results": 4873, "extra": 4874, "containing": 4875, "Palest": 4876, "debuted": 4877, "doub": 4878, "homes": 4879, "Djed": 4880, "negative": 4881, "Jupiter": 4882, "Djedkare": 4883, "kg": 4884, "Der": 4885, "Dis": 4886, "big": 4887, "smo": 4888, "artic": 4889, "Writ": 4890, "Mass": 4891, "foreign": 4892, "actors": 4893, "Def": 4894, "premi": 4895, "obtain": 4896, "1947": 4897, "passing": 4898, "Short": 4899, "defence": 4900, "battles": 4901, "deploy": 4902, "defensive": 4903, "Constant": 4904, "favour": 4905, "Torres": 4906, "chief": 4907, "spring": 4908, "hospital": 4909, "wounded": 4910, "chosen": 4911, "DV": 4912, "51": 4913, "ert": 4914, "'re": 4915, "Lis": 4916, "else": 4917, "bute": 4918, "plement": 4919, "Kore": 4920, "Horn": 4921, "Hib": 4922, "reaching": 4923, "reference": 4924, "graphic": 4925, "holds": 4926, "brigade": 4927, "Eastern": 4928, "growing": 4929, "borough": 4930, "mounted": 4931, "animal": 4932, "connected": 4933, "normal": 4934, "granted": 4935, "rejected": 4936, "abandoned": 4937, "prominent": 4938, "consecutive": 4939, "DVD": 4940, "yn": 4941, "64": 4942, "Kh": 4943, "din": 4944, "ban": 4945, "ging": 4946, "Sil": 4947, "eigh": 4948, "fish": 4949, "iple": 4950, "beach": 4951, "Ann": 4952, "quake": 4953, "aired": 4954, "Once": 4955, "saur": 4956, "calls": 4957, "therefore": 4958, "1941": 4959, "operated": 4960, "temple": 4961, "Tru": 4962, "colony": 4963, "claims": 4964, "cells": 4965, "currently": 4966, "organization": 4967, "Scottish": 4968, "Forest": 4969, "confirmed": 4970, "analysis": 4971, "Applewhite": 4972, "Cre": 4973, "cies": 4974, "Chap": 4975, "iana": 4976, "phia": 4977, "regions": 4978, "singles": 4979, "seconds": 4980, "1987": 4981, "alleg": 4982, "Bank": 4983, "student": 4984, "broke": 4985, "Airport": 4986, "model": 4987, "independent": 4988, "symbol": 4989, "adelphia": 4990, "Ra": 4991, "43": 4992, "GA": 4993, "eth": 4994, "ingu": 4995, "Pop": 4996, "ilies": 4997, "fox": 4998, "bud": 4999, "chance": 5000, "Isa": 5001, "ahead": 5002, "famous": 5003, "gency": 5004, "advent": 5005, "solo": 5006, "1970s": 5007, "imony": 5008, "versions": 5009, "explained": 5010, "planet": 5011, "controlled": 5012, "enemy": 5013, "collabor": 5014, "nominated": 5015, "seems": 5016, "install": 5017, "Egyptian": 5018, "temperature": 5019, "bishop": 5020, "Institute": 5021, "equipment": 5022, "moment": 5023, "Background": 5024, "intellig": 5025, "G.": 5026, "95": 5027, "FE": 5028, "Kar": 5029, "resol": 5030, "Gall": 5031, "prop": 5032, "foc": 5033, "Due": 5034, "osop": 5035, "newly": 5036, "greg": 5037, "element": 5038, "lane": 5039, "1989": 5040, "1984": 5041, "Before": 5042, "1972": 5043, "laid": 5044, "returning": 5045, "supporting": 5046, "males": 5047, "tank": 5048, "ultural": 5049, "BBC": 5050, "growth": 5051, "Greek": 5052, "problem": 5053, "branch": 5054, "selling": 5055, "prepared": 5056, "Baby": 5057, "Croatia": 5058, "freeway": 5059, "knowledge": 5060, "Further": 5061, "SAFE": 5062, "ec": 5063, "CA": 5064, "Ob": 5065, "eds": 5066, "ror": 5067, "rear": 5068, "mic": 5069, "tur": 5070, "Bir": 5071, "lap": 5072, "uten": 5073, "Card": 5074, "fired": 5075, "Lew": 5076, "Each": 5077, "mical": 5078, "interpre": 5079, "mind": 5080, "fair": 5081, "1985": 5082, "address": 5083, "arms": 5084, "Lock": 5085, "tomb": 5086, "pursu": 5087, "repair": 5088, "Mike": 5089, "employed": 5090, "Dr.": 5091, "increasingly": 5092, "Sky": 5093, "literature": 5094, "Operation": 5095, "unknown": 5096, "tun": 5097, "edar": 5098, "Big": 5099, "agan": 5100, "tex": 5101, "fres": 5102, "ires": 5103, "tact": 5104, "theory": 5105, "Anth": 5106, "speak": 5107, "commonly": 5108, "trail": 5109, "writes": 5110, "views": 5111, "rative": 5112, "ideas": 5113, "1960": 5114, "Barrow": 5115, "historian": 5116, "believe": 5117, "council": 5118, "burns": 5119, "Field": 5120, "breeding": 5121, "settlement": 5122, "HMS": 5123, "Cardiff": 5124, "environment": 5125, "Ox": 5126, "'m": 5127, "oil": 5128, "atmo": 5129, "Sum": 5130, "mort": 5131, "pack": 5132, "120": 5133, "stations": 5134, "Child": 5135, "Abu": 5136, "singing": 5137, "shif": 5138, "Only": 5139, "More": 5140, "1944": 5141, "roads": 5142, "herself": 5143, "stood": 5144, "perfect": 5145, "servation": 5146, "arrest": 5147, "prompt": 5148, "females": 5149, "Public": 5150, "experienced": 5151, "consisted": 5152, "property": 5153, "economic": 5154, "advanced": 5155, "cricket": 5156, "Michigan": 5157, "Philadelphia": 5158, "atmosp": 5159, "96": 5160, "NH": 5161, "Jon": 5162, "Far": 5163, "ras": 5164, "yle": 5165, "umber": 5166, "Never": 5167, "alions": 5168, "hang": 5169, "Even": 5170, "deities": 5171, "Vide": 5172, "weather": 5173, "1990s": 5174, "Origin": 5175, "ranged": 5176, "master": 5177, "failure": 5178, "Keats": 5179, "Mounted": 5180, "parliament": 5181, "Swed": 5182, "dropped": 5183, "maintained": 5184, "happen": 5185, "kilomet": 5186, "intensi": 5187, "Meanwhile": 5188, "cin": 5189, "sand": 5190, "Rol": 5191, "rie": 5192, "elim": 5193, "loy": 5194, "glo": 5195, "tav": 5196, "compar": 5197, "evil": 5198, "oppos": 5199, "dates": 5200, "filmed": 5201, "Album": 5202, "ologist": 5203, "rise": 5204, "leader": 5205, "serves": 5206, "risk": 5207, "killing": 5208, "awards": 5209, "landfall": 5210, "strike": 5211, "popularity": 5212, "flying": 5213, "honor": 5214, "collap": 5215, "injury": 5216, "arrang": 5217, "pitched": 5218, "frequently": 5219, "Dutch": 5220, "Addition": 5221, "Tu": 5222, "thr": 5223, "aling": 5224, "wit": 5225, "bul": 5226, "adem": 5227, "cited": 5228, "usual": 5229, "exped": 5230, "actress": 5231, "value": 5232, "km2": 5233, "retired": 5234, "tional": 5235, "humans": 5236, "Steve": 5237, "Andy": 5238, "Italy": 5239, "launch": 5240, "promoted": 5241, "urban": 5242, "phase": 5243, "Slam": 5244, "belief": 5245, "Premi": 5246, "rapidly": 5247, "battery": 5248, "Nathan": 5249, "weapons": 5250, "nasty": 5251, "horses": 5252, "families": 5253, "budget": 5254, "Tim": 5255, "imag": 5256, "Ali": 5257, "resist": 5258, "Head": 5259, "decre": 5260, "Americans": 5261, "pict": 5262, "creating": 5263, "Good": 5264, "marks": 5265, "publication": 5266, "organis": 5267, "Minister": 5268, "cougar": 5269, "significantly": 5270, "suffic": 5271, "religion": 5272, "description": 5273, "recognized": 5274, "Conference": 5275, "promotion": 5276, "federal": 5277, "straight": 5278, "invasion": 5279, "multiple": 5280, "Fl": 5281, "SP": 5282, "p.": 5283, "Pan": 5284, "Sor": 5285, "iles": 5286, "oms": 5287, "lying": 5288, "prot": 5289, "Mort": 5290, "Line": 5291, "asure": 5292, "attend": 5293, "ify": 5294, "chose": 5295, "publish": 5296, "Develop": 5297, "highlight": 5298, "domin": 5299, "matter": 5300, "allows": 5301, "asket": 5302, "Max": 5303, "seventh": 5304, "restaur": 5305, "agreement": 5306, "regarded": 5307, "sought": 5308, "walls": 5309, "Final": 5310, "data": 5311, "strengthen": 5312, "haps": 5313, "volume": 5314, "aspects": 5315, "producers": 5316, "scheduled": 5317, "Video": 5318, "Si": 5319, "Ve": 5320, "56": 5321, "iced": 5322, "Cle": 5323, "tend": 5324, "landing": 5325, "ached": 5326, "crete": 5327, "tree": 5328, "agric": 5329, "Jef": 5330, "cust": 5331, "1981": 5332, "catch": 5333, "starts": 5334, "theless": 5335, "agement": 5336, "reaction": 5337, "industri": 5338, "namese": 5339, "accompan": 5340, "Congress": 5341, "filled": 5342, "nucleus": 5343, "sustained": 5344, "Vietnamese": 5345, "41": 5346, "tin": 5347, "uan": 5348, "isy": 5349, "otes": 5350, "Hart": 5351, "strate": 5352, "Stan": 5353, "lection": 5354, "note": 5355, "miner": 5356, "izing": 5357, "rival": 5358, "simple": 5359, "labor": 5360, "altar": 5361, "fought": 5362, "Among": 5363, "Cambodi": 5364, "occupied": 5365, "beaut": 5366, "Haven": 5367, "scholar": 5368, "computer": 5369, "Thunderbirds": 5370, "Gulf": 5371, "philosop": 5372, "55": 5373, "Ath": 5374, "Ban": 5375, "Mat": 5376, "Men": 5377, "onom": 5378, "nur": 5379, "outer": 5380, "oration": 5381, "aine": 5382, "Eli": 5383, "emb": 5384, "firm": 5385, "awa": 5386, "guan": 5387, "Greg": 5388, "trial": 5389, "gather": 5390, "govern": 5391, "underground": 5392, "contained": 5393, "1939": 5394, "afety": 5395, "teenth": 5396, "victim": 5397, "drive": 5398, "virt": 5399, "supply": 5400, "facilities": 5401, "Athlet": 5402, "Dun": 5403, "fat": 5404, "ening": 5405, "deg": 5406, "recon": 5407, "Nich": 5408, "ordon": 5409, "Down": 5410, "save": 5411, "17th": 5412, "Pho": 5413, "1942": 5414, "clean": 5415, "composition": 5416, "Naz": 5417, "task": 5418, "stages": 5419, "collected": 5420, "reflect": 5421, "improve": 5422, "contributed": 5423, "executive": 5424, "insula": 5425, "bottom": 5426, "Festival": 5427, "Revolution": 5428, "Oxford": 5429, "degree": 5430, "Nichol": 5431, "Gordon": 5432, "bb": 5433, "cu": 5434, "97": 5435, "8th": 5436, "Den": 5437, "extr": 5438, "illo": 5439, "owners": 5440, "1918": 5441, "ween": 5442, "minim": 5443, "cake": 5444, "angers": 5445, "Coast": 5446, "130": 5447, "opera": 5448, "moves": 5449, "Juan": 5450, "fields": 5451, "kills": 5452, "Friend": 5453, "effective": 5454, "missions": 5455, "animals": 5456, "entirely": 5457, "sports": 5458, "improved": 5459, "subsequent": 5460, "multi": 5461, "1950s": 5462, "Studios": 5463, "beyond": 5464, "NBA": 5465, "Entertainment": 5466, "Turner": 5467, "shaped": 5468, "Crazy": 5469, "utenant": 5470, "Premier": 5471, "Between": 5472, "Ry": 5473, "94": 5474, "Ru": 5475, "PA": 5476, "D.": 5477, "oth": 5478, "var": 5479, "thur": 5480, "atop": 5481, "plat": 5482, "umes": 5483, "train": 5484, "Fish": 5485, "coal": 5486, "icip": 5487, "finish": 5488, "disp": 5489, "notable": 5490, "Alli": 5491, "sses": 5492, "medical": 5493, "capable": 5494, "1969": 5495, "1968": 5496, "Boise": 5497, "ashion": 5498, "stock": 5499, "gives": 5500, "draft": 5501, "Boston": 5502, "ropium": 5503, "finding": 5504, "Muslim": 5505, "Williams": 5506, "gradually": 5507, "recently": 5508, "responded": 5509, "Mario": 5510, "edding": 5511, "Today": 5512, "extensive": 5513, "Lewis": 5514, "kilometres": 5515, "Arthur": 5516, "thew": 5517, "'ve": 5518, "Jain": 5519, "700": 5520, "assu": 5521, "aret": 5522, "astic": 5523, "Gard": 5524, "Well": 5525, "Cold": 5526, "iments": 5527, "icks": 5528, "secondary": 5529, "Chel": 5530, "1975": 5531, "headed": 5532, "egg": 5533, "Class": 5534, "People": 5535, "apping": 5536, "historic": 5537, "programs": 5538, "Russian": 5539, "Governor": 5540, "Martin": 5541, "expanded": 5542, "distingu": 5543, "antimony": 5544, "CE": 5545, "Han": 5546, "Jes": 5547, "ental": 5548, "isol": 5549, "conve": 5550, "unte": 5551, "ria": 5552, "heard": 5553, "sort": 5554, "hunt": 5555, "display": 5556, "stable": 5557, "Lie": 5558, "presents": 5559, "Rail": 5560, "Cole": 5561, "12th": 5562, "1965": 5563, "1974": 5564, "Upon": 5565, "southwest": 5566, "campus": 5567, "irls": 5568, "finds": 5569, "Philip": 5570, "System": 5571, "goti": 5572, "Magazine": 5573, "Evita": 5574, "possibility": 5575, "Turk": 5576, "centuries": 5577, "items": 5578, "Democr": 5579, "Ni": 5580, "Sat": 5581, "asc": 5582, "ardi": 5583, "Sund": 5584, "asters": 5585, "berg": 5586, "ansas": 5587, "mush": 5588, "render": 5589, "deaths": 5590, "floor": 5591, "contest": 5592, "Domin": 5593, "criticism": 5594, "sections": 5595, "decades": 5596, "losses": 5597, "Äda": 5598, "Commander": 5599, "treatment": 5600, "independence": 5601, "slowly": 5602, "naval": 5603, "method": 5604, "daily": 5605, "classified": 5606, "Ã¡nh": 5607, "fictional": 5608, "mushroom": 5609, "KhÃ¡nh": 5610, "Ul": 5611, "NL": 5612, "dan": 5613, "lic": 5614, "gam": 5615, "ech": 5616, "Kir": 5617, "acks": 5618, "Raf": 5619, "Stone": 5620, "fication": 5621, "evin": 5622, "Rome": 5623, "nov": 5624, "anny": 5625, "myth": 5626, "Jurch": 5627, "visual": 5628, "didn": 5629, "azz": 5630, "engaged": 5631, "sentence": 5632, "setting": 5633, "Crown": 5634, "Bridge": 5635, "Songs": 5636, "Fox": 5637, "layer": 5638, "MacLe": 5639, "personnel": 5640, "silver": 5641, "purchased": 5642, "faith": 5643, "Avenue": 5644, "Jamal": 5645, "policy": 5646, "Ly": 5647, "TC": 5648, "rey": 5649, "acres": 5650, "abo": 5651, "cool": 5652, "acts": 5653, "compr": 5654, "prefer": 5655, "rict": 5656, "scar": 5657, "End": 5658, "yson": 5659, "1946": 5660, "lasted": 5661, "begun": 5662, "green": 5663, "faces": 5664, "worldwide": 5665, "lywood": 5666, "declined": 5667, "rivers": 5668, "Science": 5669, "reasons": 5670, "ategory": 5671, "purpose": 5672, "Brian": 5673, "briefly": 5674, "dream": 5675, "challeng": 5676, "Throughout": 5677, "protagon": 5678, "concrete": 5679, "negoti": 5680, "District": 5681, "Tennyson": 5682, "IV": 5683, "Je": 5684, "UN": 5685, "Aer": 5686, "eas": 5687, "Mic": 5688, "ote": 5689, "Sus": 5690, "800": 5691, "perial": 5692, "Also": 5693, "flag": 5694, "Dubl": 5695, "goes": 5696, "Arts": 5697, "160": 5698, "adding": 5699, "USA": 5700, "organiz": 5701, "bility": 5702, "nothing": 5703, "Liu": 5704, "drawn": 5705, "importance": 5706, "Simone": 5707, "Project": 5708, "skin": 5709, "MTV": 5710, "incident": 5711, "Columb": 5712, "escape": 5713, "exclus": 5714, "Dublin": 5715, "54": 5716, "Hy": 5717, "Cy": 5718, "RE": 5719, "kin": 5720, "Bre": 5721, "seas": 5722, "ura": 5723, "usal": 5724, "1919": 5725, "map": 5726, "Cub": 5727, "worship": 5728, "Kang": 5729, "Arm": 5730, "foundation": 5731, "longest": 5732, "Bru": 5733, "1966": 5734, "decade": 5735, "arrival": 5736, "hired": 5737, "1952": 5738, "clubs": 5739, "billion": 5740, "chapter": 5741, "participated": 5742, "championship": 5743, "editor": 5744, "enjoyed": 5745, "Temple": 5746, "Area": 5747, "paralle": 5748, "Family": 5749, "Production": 5750, "paintings": 5751, "fresh": 5752, "witness": 5753, "accompanied": 5754, "61": 5755, "Rh": 5756, "aer": 5757, "von": 5758, "Bas": 5759, "acu": 5760, "bbe": 5761, "Uly": 5762, "tery": 5763, "agent": 5764, "Ari": 5765, "Ret": 5766, "Bart": 5767, "Five": 5768, "ange": 5769, "Chart": 5770, "wides": 5771, "preci": 5772, "Hell": 5773, "roughly": 5774, "neck": 5775, "stret": 5776, "crop": 5777, "developing": 5778, "heads": 5779, "Maria": 5780, "passeng": 5781, "Chains": 5782, "1936": 5783, "oldest": 5784, "tells": 5785, "thesis": 5786, "senior": 5787, "Development": 5788, "MacLeod": 5789, "Ulysses": 5790, "DS": 5791, "CD": 5792, "s.": 5793, "Ron": 5794, "Band": 5795, "hur": 5796, "Mur": 5797, "iding": 5798, "Fall": 5799, "Blo": 5800, "desc": 5801, "pread": 5802, "crim": 5803, "viewed": 5804, "16th": 5805, "choice": 5806, "1973": 5807, "Board": 5808, "consists": 5809, "Instead": 5810, "holding": 5811, "remix": 5812, "technology": 5813, "combination": 5814, "existence": 5815, "inspir": 5816, "violence": 5817, "accident": 5818, "dominated": 5819, "poetry": 5820, "Admir": 5821, "credited": 5822, "regarding": 5823, "crowd": 5824, "Dougl": 5825, "athletes": 5826, "populations": 5827, "remn": 5828, "saurus": 5829, "Anthony": 5830, "academ": 5831, "Turkish": 5832, "anth": 5833, "eda": 5834, "cit": 5835, "rose": 5836, "iation": 5837, "ager": 5838, "comic": 5839, "Sup": 5840, "acted": 5841, "weet": 5842, "table": 5843, "cance": 5844, "cki": 5845, "advis": 5846, "mble": 5847, "filming": 5848, "dating": 5849, "1967": 5850, "ification": 5851, "trait": 5852, "spons": 5853, "college": 5854, "submar": 5855, "frame": 5856, "Team": 5857, "closely": 5858, "competitions": 5859, "Commit": 5860, "visible": 5861, "existing": 5862, "association": 5863, "AAF": 5864, "committee": 5865, "habitat": 5866, "performing": 5867, "applied": 5868, "Theatre": 5869, "weakened": 5870, "Iguan": 5871, "Iguanodon": 5872, "Mu": 5873, "59": 5874, "Les": 5875, "stro": 5876, "ole": 5877, "Bur": 5878, "rig": 5879, "fare": 5880, "Test": 5881, "acher": 5882, "disc": 5883, "nie": 5884, "110": 5885, "appeal": 5886, "recover": 5887, "transit": 5888, "Marl": 5889, "derived": 5890, "1914": 5891, "priest": 5892, "stones": 5893, "Aston": 5894, "Liber": 5895, "provides": 5896, "greatly": 5897, "neither": 5898, "Mountain": 5899, "session": 5900, "motion": 5901, "learned": 5902, "painting": 5903, "archaeological": 5904, "details": 5905, "Golden": 5906, "reinforce": 5907, "administration": 5908, "1930s": 5909, "pilot": 5910, "opportunity": 5911, "correct": 5912, "ceremony": 5913, "occasionally": 5914, "battalions": 5915, "perhaps": 5916, "Sunday": 5917, "Fer": 5918, "lit": 5919, "roof": 5920, "Gil": 5921, "seat": 5922, "amy": 5923, "Ode": 5924, "ott": 5925, "etic": 5926, "plain": 5927, "ulate": 5928, "exer": 5929, "amber": 5930, "knot": 5931, "Loc": 5932, "spell": 5933, "dance": 5934, "Cari": 5935, "eleven": 5936, "speaking": 5937, "protected": 5938, "towns": 5939, "supposed": 5940, "storyline": 5941, "churches": 5942, "pregn": 5943, "invited": 5944, "bought": 5945, "Dota": 5946, "technique": 5947, "fellow": 5948, "Braz": 5949, "encounter": 5950, "Bishop": 5951, "AML": 5952, "innings": 5953, "vehicles": 5954, "receiving": 5955, "Anonymous": 5956, "dissipated": 5957, "Hornung": 5958, "basket": 5959, "Chelsea": 5960, "bbean": 5961, "Douglas": 5962, "Caribbean": 5963, "ni": 5964, "ki": 5965, "WA": 5966, "Row": 5967, "rian": 5968, "plum": 5969, "lide": 5970, "wish": 5971, "udd": 5972, "rub": 5973, "pty": 5974, "intend": 5975, "ctors": 5976, "dram": 5977, "astron": 5978, "Leon": 5979, "1945": 5980, "1971": 5981, "receive": 5982, "depict": 5983, "ancy": 5984, "trip": 5985, "willing": 5986, "anything": 5987, "Life": 5988, "Perry": 5989, "Georg": 5990, "islands": 5991, "drama": 5992, "typical": 5993, "Ã­a": 5994, "massive": 5995, "About": 5996, "survived": 5997, "accompl": 5998, "stopped": 5999, "Asia": 6000, "ERA": 6001, "chorus": 6002, "Constantine": 6003, "Hibari": 6004, "Cardinal": 6005, "Summer": 6006, "fashion": 6007, "Lieutenant": 6008, "widespread": 6009, "Maeda": 6010, "R.": 6011, "EC": 6012, "DA": 6013, "thor": 6014, "itan": 6015, "Tro": 6016, "why": 6017, "agle": 6018, "acid": 6019, "hall": 6020, "mate": 6021, "poly": 6022, "Will": 6023, "Rod": 6024, "revi": 6025, "twel": 6026, "Age": 6027, "assass": 6028, "page": 6029, "compon": 6030, "fix": 6031, "brary": 6032, "news": 6033, "Rox": 6034, "ampions": 6035, "What": 6036, "capac": 6037, "trave": 6038, "Sound": 6039, "1982": 6040, "Broad": 6041, "trying": 6042, "missing": 6043, "protection": 6044, "authors": 6045, "reput": 6046, "shared": 6047, "Master": 6048, "Romani": 6049, "Simon": 6050, "looked": 6051, "glass": 6052, "glades": 6053, "ruli": 6054, "Sara": 6055, "flights": 6056, "acquired": 6057, "Brook": 6058, "Brien": 6059, "district": 6060, "Georgian": 6061, "digital": 6062, "settlers": 6063, "truth": 6064, "repeated": 6065, "Fantasy": 6066, "convoy": 6067, "converted": 6068, "Qedar": 6069, "safety": 6070, "52": 6071, "66": 6072, "Nat": 6073, "stal": 6074, "iring": 6075, "repl": 6076, "tall": 6077, "aked": 6078, "fee": 6079, "qual": 6080, "uble": 6081, "guard": 6082, "lings": 6083, "rates": 6084, "sens": 6085, "1916": 6086, "locations": 6087, "Moz": 6088, "1980": 6089, "Bond": 6090, "wise": 6091, "atures": 6092, "1976": 6093, "1913": 6094, "Rio": 6095, "univers": 6096, "1956": 6097, "entially": 6098, "Albert": 6099, "expans": 6100, "substant": 6101, "graded": 6102, "routes": 6103, "baseball": 6104, "label": 6105, "funding": 6106, "planning": 6107, "depicted": 6108, "watched": 6109, "issance": 6110, "DNA": 6111, "biography": 6112, "experiment": 6113, "benef": 6114, "Oslo": 6115, "Stadium": 6116, "spacing": 6117, "opinion": 6118, "Haiti": 6119, "Radio": 6120, "succeeded": 6121, "permanent": 6122, "Freder": 6123, "happy": 6124, "Shortly": 6125, "focused": 6126, "atmosphere": 6127, "arranged": 6128, "wedding": 6129, "speech": 6130, "evacu": 6131, "Wi": 6132, "Oh": 6133, "VN": 6134, "Gar": 6135, "aced": 6136, "cher": 6137, "modi": 6138, "Vill": 6139, "tack": 6140, "pha": 6141, "dub": 6142, "forming": 6143, "awn": 6144, "oking": 6145, "nell": 6146, "sions": 6147, "knew": 6148, "Rober": 6149, "dog": 6150, "tty": 6151, "appearing": 6152, "1943": 6153, "steam": 6154, "reality": 6155, "providing": 6156, "decline": 6157, "creator": 6158, "Jones": 6159, "electric": 6160, "fuel": 6161, "defined": 6162, "governor": 6163, "cruiser": 6164, "thetic": 6165, "channel": 6166, "penalty": 6167, "Venus": 6168, "Daniel": 6169, "earthquake": 6170, "Allied": 6171, "Brazil": 6172, "IG": 6173, "NS": 6174, "Lin": 6175, "sta": 6176, "esc": 6177, "ateur": 6178, "sist": 6179, "aste": 6180, "jack": 6181, "evo": 6182, "preced": 6183, "airport": 6184, "charter": 6185, "10th": 6186, "accur": 6187, "wins": 6188, "leads": 6189, "1963": 6190, "250": 6191, "grapher": 6192, "tied": 6193, "getting": 6194, "symp": 6195, "Hindu": 6196, "burg": 6197, "stances": 6198, "sky": 6199, "separated": 6200, "convin": 6201, "renamed": 6202, "Morrison": 6203, "Gully": 6204, "Mr.": 6205, "Dream": 6206, "download": 6207, "delivered": 6208, "thousands": 6209, "Secretary": 6210, "supplies": 6211, "Additionally": 6212, "Phoen": 6213, "Rangers": 6214, "Everglades": 6215, "IGN": 6216, "Å¡": 6217, "BS": 6218, "ont": 6219, "Run": 6220, "Ken": 6221, "beth": 6222, "Jay": 6223, "iday": 6224, "Pet": 6225, "demo": 6226, "wart": 6227, "gment": 6228, "outs": 6229, "iqu": 6230, "avi": 6231, "mine": 6232, "untain": 6233, "Bos": 6234, "march": 6235, "entry": 6236, "kins": 6237, "remainder": 6238, "opposition": 6239, "protect": 6240, "controll": 6241, "rural": 6242, "regime": 6243, "Gram": 6244, "turning": 6245, "commanded": 6246, "Australians": 6247, "Similar": 6248, "introduction": 6249, "constant": 6250, "ruled": 6251, "consisting": 6252, "certified": 6253, "eyes": 6254, "achieve": 6255, "teaching": 6256, "Archae": 6257, "indicate": 6258, "Bradford": 6259, "jump": 6260, "Alexander": 6261, "Office": 6262, "emperor": 6263, "instrument": 6264, "secure": 6265, "Homer": 6266, "Friends": 6267, "UTC": 6268, "Hollywood": 6269, "Columbia": 6270, "Committee": 6271, "oz": 6272, "ued": 6273, "aton": 6274, "inger": 6275, "iro": 6276, "til": 6277, "ads": 6278, "ador": 6279, "irt": 6280, "ried": 6281, "apt": 6282, "Sap": 6283, "iers": 6284, "exact": 6285, "arian": 6286, "Patt": 6287, "quite": 6288, "cks": 6289, "anned": 6290, "Native": 6291, "1978": 6292, "Marine": 6293, "valley": 6294, "affect": 6295, "gÃ©": 6296, "1953": 6297, "turns": 6298, "references": 6299, "occurs": 6300, "technical": 6301, "Holy": 6302, "regularly": 6303, "assistance": 6304, "Maryland": 6305, "franch": 6306, "establishment": 6307, "Montana": 6308, "economy": 6309, "races": 6310, "Croatian": 6311, "powers": 6312, "distinct": 6313, "Critical": 6314, "Director": 6315, "revolution": 6316, "Truj": 6317, "attached": 6318, "noisy": 6319, "Trujillo": 6320, "Sa": 6321, "wr": 6322, "W.": 6323, "â": 6324, "hat": 6325, "Bor": 6326, "Dar": 6327, "oul": 6328, "dim": 6329, "imb": 6330, "mere": 6331, "apers": 6332, "ighter": 6333, "iston": 6334, "bone": 6335, "enge": 6336, "vary": 6337, "Alan": 6338, "cked": 6339, "Bern": 6340, "dry": 6341, "ilton": 6342, "successor": 6343, "ennon": 6344, "11th": 6345, "sequences": 6346, "changing": 6347, "denied": 6348, "studied": 6349, "Charlie": 6350, "producing": 6351, "NBC": 6352, "interior": 6353, "Walter": 6354, "leaves": 6355, "prede": 6356, "Somal": 6357, "forests": 6358, "surviv": 6359, "finishing": 6360, "Missis": 6361, "Chronic": 6362, "sippi": 6363, "scholars": 6364, "adapted": 6365, "methods": 6366, "portrayed": 6367, "shooting": 6368, "distribution": 6369, "Engineer": 6370, "micro": 6371, "Roxas": 6372, "reputation": 6373, "â": 6374, "Mississippi": 6375, "sn": 6376, "85": 6377, "Kr": 6378, "72": 6379, "fal": 6380, "anes": 6381, "acre": 6382, "Kil": 6383, "Low": 6384, "cation": 6385, "uration": 6386, "uct": 6387, "Rel": 6388, "mut": 6389, "sud": 6390, "shop": 6391, "ardo": 6392, "earch": 6393, "abour": 6394, "sight": 6395, "bass": 6396, "worst": 6397, "Sub": 6398, "prey": 6399, "Bell": 6400, "lease": 6401, "gameplay": 6402, "Wind": 6403, "cript": 6404, "112": 6405, "1915": 6406, "suppor": 6407, "Recording": 6408, "crime": 6409, "breaking": 6410, "camps": 6411, "joint": 6412, "offense": 6413, "Within": 6414, "politics": 6415, "entering": 6416, "recru": 6417, "agues": 6418, "Activision": 6419, "honour": 6420, "patron": 6421, "satis": 6422, "Howard": 6423, "immig": 6424, "susp": 6425, "characteristics": 6426, "Samuel": 6427, "dismissed": 6428, "pattern": 6429, "battleship": 6430, "intelligence": 6431, "87": 6432, "81": 6433, "OT": 6434, "Xe": 6435, "Hon": 6436, "Mul": 6437, "rab": 6438, "Gab": 6439, "Pers": 6440, "inity": 6441, "gone": 6442, "noting": 6443, "udes": 6444, "Edu": 6445, "brand": 6446, "phone": 6447, "monarch": 6448, "offman": 6449, "store": 6450, "Marsh": 6451, "Snow": 6452, "replace": 6453, "Plunk": 6454, "classes": 6455, "magn": 6456, "Ridge": 6457, "infr": 6458, "Stefan": 6459, "basin": 6460, "charts": 6461, "novels": 6462, "charges": 6463, "monument": 6464, "interested": 6465, "drug": 6466, "discussed": 6467, "attributed": 6468, "squadron": 6469, "alternative": 6470, "bella": 6471, "Hugh": 6472, "dollars": 6473, "institut": 6474, "Calvert": 6475, "puzz": 6476, "chemical": 6477, "knots": 6478, "capacity": 6479, "Isabella": 6480, "71": 6481, "AD": 6482, "e.": 6483, "Jun": 6484, "Wall": 6485, "cab": 6486, "dies": 6487, "ameter": 6488, "resour": 6489, "bra": 6490, "agents": 6491, "safe": 6492, "offers": 6493, "1917": 6494, "moder": 6495, "1948": 6496, "itsune": 6497, "statement": 6498, "sector": 6499, "generation": 6500, "younger": 6501, "Pope": 6502, "coastal": 6503, "rules": 6504, "inscri": 6505, "accounts": 6506, "angerous": 6507, "correspond": 6508, "baby": 6509, "rupt": 6510, "bringing": 6511, "Jersey": 6512, "divine": 6513, "medieval": 6514, "describing": 6515, "cros": 6516, "Industry": 6517, "Weekly": 6518, "Lisa": 6519, "Danny": 6520, "Saraj": 6521, "predecess": 6522, "Sarajevo": 6523, "gi": 6524, "ba": 6525, "69": 6526, "62": 6527, "Ye": 6528, "Ã¨": 6529, "sun": 6530, "ena": 6531, "Hal": 6532, "rol": 6533, "hem": 6534, "rac": 6535, "vac": 6536, "adj": 6537, "ols": 6538, "Vol": 6539, "Ray": 6540, "isers": 6541, "soil": 6542, "Hard": 6543, "Less": 6544, "zone": 6545, "firing": 6546, "formal": 6547, "attle": 6548, "disci": 6549, "partial": 6550, "isions": 6551, "someone": 6552, "iful": 6553, "itors": 6554, "Real": 6555, "desire": 6556, "retire": 6557, "1979": 6558, "legs": 6559, "solid": 6560, "Yank": 6561, "1951": 6562, "plants": 6563, "expect": 6564, "bels": 6565, "Austri": 6566, "strip": 6567, "everything": 6568, "exception": 6569, "seeing": 6570, "basic": 6571, "minister": 6572, "tribes": 6573, "difficulty": 6574, "recognition": 6575, "learn": 6576, "Strand": 6577, "considerable": 6578, "journey": 6579, "rarely": 6580, "caught": 6581, "Daily": 6582, "discovery": 6583, "Victoria": 6584, "emotional": 6585, "Stephen": 6586, "ninth": 6587, "Destiny": 6588, "article": 6589, "cinem": 6590, "restaurant": 6591, "ardian": 6592, "Frederick": 6593, "Yankovic": 6594, "79": 6595, "orer": 6596, "ining": 6597, "Top": 6598, "Init": 6599, "fear": 6600, "Your": 6601, "owner": 6602, "landed": 6603, "itage": 6604, "'ll": 6605, "oked": 6606, "shel": 6607, "Joe": 6608, "Review": 6609, "rows": 6610, "bond": 6611, "perior": 6612, "1961": 6613, "Press": 6614, "cycle": 6615, "evening": 6616, "1954": 6617, "Around": 6618, "manner": 6619, "facing": 6620, "Miss": 6621, "wooden": 6622, "igades": 6623, "relationships": 6624, "liked": 6625, "Somali": 6626, "kÄ": 6627, "hotel": 6628, "nomination": 6629, "specifically": 6630, "chapel": 6631, "calcul": 6632, "colonial": 6633, "taught": 6634, "involvement": 6635, "rhyth": 6636, "thirty": 6637, "Television": 6638, "opponents": 6639, "Clarkson": 6640, "replacement": 6641, "Rolling": 6642, "Mozamb": 6643, "sudden": 6644, "Research": 6645, "pa": 6646, "oo": 6647, "Ã¶": 6648, "ero": 6649, "fil": 6650, "Dom": 6651, "deed": 6652, "pete": 6653, "Fame": 6654, "Mod": 6655, "ender": 6656, "agree": 6657, "Jif": 6658, "Anton": 6659, "Lee": 6660, "pointed": 6661, "hore": 6662, "ingale": 6663, "warm": 6664, "Wilde": 6665, "dock": 6666, "approved": 6667, "appropri": 6668, "1937": 6669, "vote": 6670, "Order": 6671, "communities": 6672, "idges": 6673, "poems": 6674, "Nether": 6675, "squad": 6676, "Duke": 6677, "intersection": 6678, "error": 6679, "Singles": 6680, "secured": 6681, "Santa": 6682, "picked": 6683, "Colonel": 6684, "Castle": 6685, "believes": 6686, "controversy": 6687, "neighbor": 6688, "recommended": 6689, "Francisco": 6690, "Simpsons": 6691, "sized": 6692, "Bono": 6693, "fungus": 6694, "Skye": 6695, "Jerusal": 6696, "teacher": 6697, "'Brien": 6698, "Roberts": 6699, "Jifna": 6700, "Jerusalem": 6701, "ta": 6702, "89": 6703, "P.": 6704, "AR": 6705, "Ã": 6706, "LI": 6707, "esh": 6708, "Mit": 6709, "oty": 6710, "Pul": 6711, "Tel": 6712, "Net": 6713, "pled": 6714, "trap": 6715, "apart": 6716, "ava": 6717, "eving": 6718, "kings": 6719, "genre": 6720, "whereas": 6721, "itled": 6722, "releg": 6723, "dict": 6724, "ultane": 6725, "signing": 6726, "erald": 6727, "RÃ©": 6728, "standards": 6729, "1955": 6730, "crown": 6731, "drawing": 6732, "Track": 6733, "hope": 6734, "intention": 6735, "concerns": 6736, "Olympics": 6737, "Military": 6738, "leadership": 6739, "principal": 6740, "split": 6741, "specimens": 6742, "incorporated": 6743, "Adams": 6744, "extremely": 6745, "Transport": 6746, "Independent": 6747, "Argentina": 6748, "hydro": 6749, "sufficient": 6750, "Jeff": 6751, "Eliza": 6752, "municip": 6753, "volunte": 6754, "organizations": 6755, "Hamilton": 6756, "Ko": 6757, "98": 6758, "ading": 6759, "bay": 6760, "resent": 6761, "Here": 6762, "1900": 6763, "remo": 6764, "uma": 6765, "none": 6766, "restr": 6767, "wine": 6768, "fine": 6769, "pton": 6770, "ureau": 6771, "poses": 6772, "parties": 6773, "kno": 6774, "Cory": 6775, "colog": 6776, "youth": 6777, "Fire": 6778, "surg": 6779, "showing": 6780, "Beach": 6781, "Forces": 6782, "ceived": 6783, "tries": 6784, "xture": 6785, "1958": 6786, "advoc": 6787, "sequently": 6788, "Prime": 6789, "commod": 6790, "expensive": 6791, "terior": 6792, "existed": 6793, "connection": 6794, "assemb": 6795, "indicated": 6796, "approached": 6797, "teeth": 6798, "threatened": 6799, "distributed": 6800, "treaty": 6801, "surrounded": 6802, "conference": 6803, "partners": 6804, "emerged": 6805, "ranean": 6806, "divisions": 6807, "Writing": 6808, "Banai": 6809, "europium": 6810, "jazz": 6811, "diameter": 6812, "3D": 6813, "ka": 6814, "77": 6815, "ja": 6816, "Wy": 6817, "Yan": 6818, "ene": 6819, "hear": 6820, "pse": 6821, "aded": 6822, "edom": 6823, "irs": 6824, "Jere": 6825, "icate": 6826, "mally": 6827, "tip": 6828, "leep": 6829, "ulture": 6830, "shark": 6831, "fold": 6832, "izes": 6833, "Norman": 6834, "Hung": 6835, "1949": 6836, "1977": 6837, "Person": 6838, "Carl": 6839, "Carter": 6840, "Plot": 6841, "Ã©t": 6842, "wants": 6843, "bats": 6844, "alien": 6845, "historians": 6846, "Point": 6847, "cription": 6848, "railway": 6849, "crossed": 6850, "Roger": 6851, "painted": 6852, "immediate": 6853, "strateg": 6854, "favorite": 6855, "hoped": 6856, "demonstr": 6857, "Spring": 6858, "ratings": 6859, "leuk": 6860, "documentary": 6861, "dialo": 6862, "lbw": 6863, "Depression": 6864, "unusual": 6865, "expedition": 6866, "embark": 6867, "isolated": 6868, "wrong": 6869, "Lennon": 6870, "institutions": 6871, "Modern": 6872, "Sm": 6873, "WW": 6874, "stic": 6875, "ione": 6876, "lig": 6877, "inte": 6878, "atus": 6879, "usad": 6880, "ester": 6881, "ege": 6882, "inland": 6883, "fection": 6884, "incess": 6885, "etts": 6886, "indig": 6887, "Unlike": 6888, "covering": 6889, "concer": 6890, "designation": 6891, "Cru": 6892, "13th": 6893, "veget": 6894, "annivers": 6895, "regional": 6896, "sequel": 6897, "reviewer": 6898, "strongly": 6899, "destroyers": 6900, "treated": 6901, "protests": 6902, "languages": 6903, "motor": 6904, "literary": 6905, "examples": 6906, "admitted": 6907, "demol": 6908, "Human": 6909, "watershed": 6910, "BolÃ­": 6911, "junction": 6912, "message": 6913, "duties": 6914, "Ryan": 6915, "assumed": 6916, "protagonist": 6917, "expansion": 6918, "Janeiro": 6919, "Saprang": 6920, "HergÃ©": 6921, "franchise": 6922, "Kilmer": 6923, "Goffman": 6924, "cruisers": 6925, "anniversary": 6926, "BolÃ­var": 6927, "T.": 6928, "E.": 6929, "Ã¼": 6930, "san": 6931, "Kat": 6932, "theat": 6933, "Dur": 6934, "orter": 6935, "Kel": 6936, "wet": 6937, "imet": 6938, "dess": 6939, "tone": 6940, "distr": 6941, "assess": 6942, "aws": 6943, "Fern": 6944, "Wild": 6945, "tie": 6946, "erog": 6947, "sons": 6948, "ledon": 6949, "Iron": 6950, "plane": 6951, "airline": 6952, "1983": 6953, "placing": 6954, "Tower": 6955, "listen": 6956, "orche": 6957, "defended": 6958, "meets": 6959, "explos": 6960, "winner": 6961, "BCE": 6962, "tailed": 6963, "coup": 6964, "rapped": 6965, "rooms": 6966, "completion": 6967, "sessions": 6968, "employe": 6969, "equival": 6970, "sects": 6971, "detailed": 6972, "Hearts": 6973, "Lawton": 6974, "Chief": 6975, "circum": 6976, "Lords": 6977, "department": 6978, "attracted": 6979, "Sports": 6980, "engineering": 6981, "theatre": 6982, "rescue": 6983, "absor": 6984, "survey": 6985, "stadium": 6986, "wearing": 6987, "specimen": 6988, "Burns": 6989, "eighth": 6990, "eggs": 6991, "easily": 6992, "academic": 6993, "Georgia": 6994, "naissance": 6995, "Wimb": 6996, "Wimbledon": 6997, "Ba": 6998, "ju": 6999, "ez": 7000, "ona": 7001, "gor": 7002, "arg": 7003, "Ele": 7004, "acent": 7005, "teor": 7006, "Det": 7007, "umed": 7008, "Ind": 7009, "plate": 7010, "intr": 7011, "eman": 7012, "pine": 7013, "aud": 7014, "ician": 7015, "poser": 7016, "spit": 7017, "Base": 7018, "istry": 7019, "inning": 7020, "Third": 7021, "elder": 7022, "operate": 7023, "acknow": 7024, "Gerard": 7025, "Rhy": 7026, "reading": 7027, "muscar": 7028, "Color": 7029, "attempting": 7030, "starling": 7031, "faster": 7032, "effectively": 7033, "ockey": 7034, "settled": 7035, "moral": 7036, "terminus": 7037, "resemb": 7038, "assistant": 7039, "surviving": 7040, "traveled": 7041, "practices": 7042, "territories": 7043, "accused": 7044, "Richardson": 7045, "civilian": 7046, "blocks": 7047, "feeling": 7048, "Cambridge": 7049, "Square": 7050, "reserve": 7051, "Territ": 7052, "carbon": 7053, "controversi": 7054, "mobile": 7055, "encouraged": 7056, "Jean": 7057, "Rhodes": 7058, "citiz": 7059, "challenge": 7060, "Somalia": 7061, "leukem": 7062, "adjacent": 7063, "63": 7064, "tz": 7065, "CC": 7066, "ati": 7067, "owed": 7068, "jum": 7069, "loan": 7070, "lose": 7071, "vive": 7072, "Sav": 7073, "formally": 7074, "auto": 7075, "grav": 7076, "partly": 7077, "spur": 7078, "aints": 7079, "1910": 7080, "identity": 7081, "cise": 7082, "recalled": 7083, "decor": 7084, "towers": 7085, "videos": 7086, "crash": 7087, "somewhat": 7088, "stands": 7089, "grey": 7090, "rising": 7091, "generated": 7092, "Mah": 7093, "intense": 7094, "armor": 7095, "classical": 7096, "recovered": 7097, "interchange": 7098, "1909": 7099, "romantic": 7100, "shots": 7101, "Komb": 7102, "scape": 7103, "seemed": 7104, "Attor": 7105, "brothers": 7106, "inhabit": 7107, "memorial": 7108, "ifying": 7109, "possession": 7110, "Commonwealth": 7111, "photograph": 7112, "scientific": 7113, "Formula": 7114, "candidate": 7115, "Journal": 7116, "compounds": 7117, "obtained": 7118, "arrangement": 7119, "Mortal": 7120, "agricultural": 7121, "Jesus": 7122, "inspiration": 7123, "Admiral": 7124, "Keamy": 7125, "Aniston": 7126, "Kombat": 7127, "Attorney": 7128, "57": 7129, "OK": 7130, "anz": 7131, "ented": 7132, "wid": 7133, "ctr": 7134, "idd": 7135, "gall": 7136, "estate": 7137, "fant": 7138, "Pine": 7139, "hits": 7140, "kee": 7141, "Jos": 7142, "fled": 7143, "lake": 7144, "angular": 7145, "vens": 7146, "igins": 7147, "1912": 7148, "passage": 7149, "Marines": 7150, "Power": 7151, "Every": 7152, "Guy": 7153, "Germans": 7154, "Johnston": 7155, "1931": 7156, "1935": 7157, "solution": 7158, "footage": 7159, "Poland": 7160, "forcing": 7161, "equal": 7162, "affair": 7163, "Key": 7164, "Islands": 7165, "hosted": 7166, "reduce": 7167, "express": 7168, "select": 7169, "proceed": 7170, "funds": 7171, "suffering": 7172, "Arabic": 7173, "Islam": 7174, "spaces": 7175, "ocean": 7176, "perspect": 7177, "linked": 7178, "Type": 7179, "Wolf": 7180, "preserved": 7181, "sculpture": 7182, "thosaurus": 7183, "soft": 7184, "implement": 7185, "Fras": 7186, "Op.": 7187, "industrial": 7188, "basketball": 7189, "fixed": 7190, "kÄn": 7191, "normally": 7192, "integr": 7193, "Plunketts": 7194, "Stevens": 7195, "Corythosaurus": 7196, "Fraser": 7197, "93": 7198, "Ã¤": 7199, "Mun": 7200, "ider": 7201, "lik": 7202, "peare": 7203, "wich": 7204, "overw": 7205, "sche": 7206, "serial": 7207, "oba": 7208, "gif": 7209, "ensus": 7210, "abled": 7211, "ificial": 7212, "legend": 7213, "astru": 7214, "income": 7215, "attacking": 7216, "lists": 7217, "continuing": 7218, "grounds": 7219, "attered": 7220, "courts": 7221, "mature": 7222, "Shakes": 7223, "reviewers": 7224, "1932": 7225, "medium": 7226, "Allah": 7227, "contribut": 7228, "summ": 7229, "learning": 7230, "Hotel": 7231, "stayed": 7232, "shoot": 7233, "chronic": 7234, "concerned": 7235, "FIA": 7236, "printed": 7237, "circulation": 7238, "persist": 7239, "equipped": 7240, "debate": 7241, "destruction": 7242, "adults": 7243, "province": 7244, "opposite": 7245, "Peninsula": 7246, "responsibility": 7247, "Marlborough": 7248, "Nintend": 7249, "twelve": 7250, "escort": 7251, "amateur": 7252, "siege": 7253, "erogative": 7254, "composer": 7255, "controversial": 7256, "astruct": 7257, "Shakespeare": 7258, "Nintendo": 7259, "ua": 7260, "SB": 7261, "dal": 7262, "rot": 7263, "Cad": 7264, "agen": 7265, "agas": 7266, "prog": 7267, "mast": 7268, "asser": 7269, "orous": 7270, "lowest": 7271, "aug": 7272, "depos": 7273, "deck": 7274, "Fair": 7275, "trust": 7276, "Bron": 7277, "offs": 7278, "ritual": 7279, "amond": 7280, "horn": 7281, "tribut": 7282, "feather": 7283, "inking": 7284, "Fei": 7285, "Flight": 7286, "1911": 7287, "aska": 7288, "falling": 7289, "1921": 7290, "graphics": 7291, "profit": 7292, "netic": 7293, "1929": 7294, "laws": 7295, "Palmy": 7296, "Palace": 7297, "meetings": 7298, "driving": 7299, "measures": 7300, "voted": 7301, "understanding": 7302, "essential": 7303, "Donald": 7304, "bearing": 7305, "throwing": 7306, "observations": 7307, "Patrick": 7308, "Construction": 7309, "initiative": 7310, "pushed": 7311, "Owen": 7312, "Lawrence": 7313, "Stanley": 7314, "victims": 7315, "promote": 7316, "parallel": 7317, "passengers": 7318, "remnants": 7319, "holiday": 7320, "kitsune": 7321, "crossing": 7322, "rebels": 7323, "Netherlands": 7324, "accommod": 7325, "inaug": 7326, "OC": 7327, "thin": 7328, "ost": 7329, "mad": 7330, "olay": 7331, "arte": 7332, "stap": 7333, "apy": 7334, "Glo": 7335, "exha": 7336, "Ell": 7337, "Story": 7338, "infl": 7339, "flat": 7340, "math": 7341, "lets": 7342, "afts": 7343, "numbered": 7344, "comments": 7345, "raise": 7346, "sung": 7347, "1962": 7348, "storms": 7349, "returns": 7350, "cash": 7351, "absol": 7352, "understand": 7353, "retained": 7354, "1959": 7355, "1938": 7356, "Geoff": 7357, "defences": 7358, "musicians": 7359, "Organ": 7360, "atops": 7361, "unsuccessful": 7362, "involving": 7363, "representing": 7364, "praise": 7365, "villages": 7366, "difficulties": 7367, "Player": 7368, "Queens": 7369, "objects": 7370, "occasions": 7371, "pitcher": 7372, "RNA": 7373, "Hospital": 7374, "Garc": 7375, "Atlanta": 7376, "Stock": 7377, "Emperor": 7378, "carrying": 7379, "Pitman": 7380, "illustr": 7381, "vessels": 7382, "Korean": 7383, "intensified": 7384, "global": 7385, "Cambodia": 7386, "Sweet": 7387, "uscript": 7388, "Stefani": 7389, "Guardian": 7390, "superior": 7391, "Elizabeth": 7392, "batsman": 7393, "goddess": 7394, "equivalent": 7395, "exhaust": 7396, "GarcÃ­a": 7397, "Pi": 7398, "88": 7399, "'d": 7400, "AP": 7401, "Ut": 7402, "CP": 7403, "anda": 7404, "sees": 7405, "sam": 7406, "Our": 7407, "wel": 7408, "moon": 7409, "elli": 7410, "mart": 7411, "expo": 7412, "Tha": 7413, "crest": 7414, "answ": 7415, "stell": 7416, "bright": 7417, "renew": 7418, "angle": 7419, "cry": 7420, "psy": 7421, "Joy": 7422, "online": 7423, "covers": 7424, "helmet": 7425, "clock": 7426, "Canter": 7427, "periods": 7428, "explo": 7429, "accompany": 7430, "factory": 7431, "limit": 7432, "Space": 7433, "Barbar": 7434, "influences": 7435, "streak": 7436, "Design": 7437, "exchange": 7438, "consum": 7439, "needs": 7440, "appointment": 7441, "defeating": 7442, "reveals": 7443, "Mediter": 7444, "prohib": 7445, "committed": 7446, "context": 7447, "Phillies": 7448, "Malay": 7449, "Mega": 7450, "purchase": 7451, "Anti": 7452, "Channel": 7453, "Enterprise": 7454, "rendered": 7455, "camera": 7456, "1920s": 7457, "behaviour": 7458, "Palestine": 7459, "narrative": 7460, "voiced": 7461, "Athletic": 7462, "preferred": 7463, "Aerith": 7464, "survivors": 7465, "resources": 7466, "simultane": 7467, "concerts": 7468, "Canterbury": 7469, "Mediterranean": 7470, "py": 7471, "V.": 7472, "DC": 7473, "U2": 7474, "ths": 7475, "esi": 7476, "enic": 7477, "Wic": 7478, "atom": 7479, "illy": 7480, "ches": 7481, "gby": 7482, "stall": 7483, "gate": 7484, "atech": 7485, "Late": 7486, "exit": 7487, "Pass": 7488, "graf": 7489, "Bark": 7490, "anyon": 7491, "remin": 7492, "cular": 7493, "tick": 7494, "Nick": 7495, "consult": 7496, "followers": 7497, "ropol": 7498, "helic": 7499, "parish": 7500, "operating": 7501, "steel": 7502, "Corn": 7503, "Link": 7504, "considers": 7505, "Stop": 7506, "convent": 7507, "Gray": 7508, "refers": 7509, "annah": 7510, "ridge": 7511, "tests": 7512, "criticised": 7513, "borne": 7514, "doesn": 7515, "elabor": 7516, "Labor": 7517, "onna": 7518, "Rug": 7519, "Championships": 7520, "ography": 7521, "onica": 7522, "provin": 7523, "closer": 7524, "feelings": 7525, "products": 7526, "aggress": 7527, "visitors": 7528, "abilities": 7529, "Furt": 7530, "communication": 7531, "Cathedral": 7532, "Special": 7533, "atoon": 7534, "hundreds": 7535, "absence": 7536, "pupils": 7537, "legislation": 7538, "proposal": 7539, "deployed": 7540, "installed": 7541, "texts": 7542, "arrested": 7543, "thews": 7544, "represents": 7545, "Raffles": 7546, "genetic": 7547, "astronom": 7548, "Grammy": 7549, "municipal": 7550, "dialogue": 7551, "Colorado": 7552, "rugby": 7553, "Markgraf": 7554, "Rugby": 7555, "Furtado": 7556, "va": 7557, "yo": 7558, "F.": 7559, "Tal": 7560, "Mand": 7561, "Mel": 7562, "comed": 7563, "Cop": 7564, "rout": 7565, "lium": 7566, "diag": 7567, "Ash": 7568, "deem": 7569, "card": 7570, "feed": 7571, "bits": 7572, "pure": 7573, "weigh": 7574, "Dark": 7575, "stance": 7576, "cold": 7577, "Along": 7578, "surpr": 7579, "ifications": 7580, "cars": 7581, "listing": 7582, "remark": 7583, "extent": 7584, "trading": 7585, "classic": 7586, "Earl": 7587, "styles": 7588, "ensure": 7589, "Techn": 7590, "reconstruction": 7591, "option": 7592, "brick": 7593, "internal": 7594, "venues": 7595, "ugal": 7596, "Ã¡r": 7597, "ullen": 7598, "researchers": 7599, "amino": 7600, "poorly": 7601, "stationed": 7602, "Prior": 7603, "displays": 7604, "moments": 7605, "joining": 7606, "drums": 7607, "huge": 7608, "NHL": 7609, "convection": 7610, "Satur": 7611, "Dominican": 7612, "Imperial": 7613, "submarine": 7614, "Usta": 7615, "CBS": 7616, "Krak": 7617, "Fernand": 7618, "reconnaissance": 7619, "muscaria": 7620, "prerogative": 7621, "infrastruct": 7622, "Sholay": 7623, "manuscript": 7624, "UstaÅ¡": 7625, "91": 7626, "MO": 7627, "'in": 7628, "Bed": 7629, "sunk": 7630, "ule": 7631, "Tig": 7632, "abund": 7633, "istan": 7634, "aka": 7635, "cement": 7636, "Cha": 7637, "Sher": 7638, "mud": 7639, "uous": 7640, "blow": 7641, "toll": 7642, "Alf": 7643, "owie": 7644, "gie": 7645, "phr": 7646, "Hob": 7647, "product": 7648, "useful": 7649, "Treat": 7650, "15th": 7651, "creek": 7652, "transition": 7653, "memory": 7654, "annually": 7655, "soul": 7656, "ologists": 7657, "1940s": 7658, "fallen": 7659, "charged": 7660, "streets": 7661, "posted": 7662, "burgh": 7663, "telling": 7664, "grown": 7665, "impression": 7666, "saves": 7667, "Cape": 7668, "driven": 7669, "Media": 7670, "influential": 7671, "dynam": 7672, "orbit": 7673, "FIFA": 7674, "extension": 7675, "Mexican": 7676, "injuries": 7677, "withdrew": 7678, "dynasty": 7679, "semble": 7680, "dramatic": 7681, "DAG": 7682, "modified": 7683, "iques": 7684, "entitled": 7685, "purposes": 7686, "overwhel": 7687, "Maggie": 7688, "Å": 7689, "58": 7690, "SS": 7691, "ND": 7692, "ora": 7693, "zen": 7694, "Sand": 7695, "jam": 7696, "ows": 7697, "Now": 7698, "hot": 7699, "sul": 7700, "cler": 7701, "ishment": 7702, "mann": 7703, "chess": 7704, "tight": 7705, "Hud": 7706, "Bass": 7707, "achu": 7708, "ske": 7709, "ivity": 7710, "noon": 7711, "Hok": 7712, "excess": 7713, "writings": 7714, "crake": 7715, "setts": 7716, "saved": 7717, "Fron": 7718, "foss": 7719, "actual": 7720, "Norway": 7721, "originated": 7722, "engines": 7723, "informed": 7724, "readers": 7725, "Jenn": 7726, "flash": 7727, "subspecies": 7728, "trained": 7729, "organised": 7730, "bands": 7731, "ibility": 7732, "Parv": 7733, "restling": 7734, "traits": 7735, "kingdom": 7736, "factors": 7737, "1928": 7738, "suggesting": 7739, "interests": 7740, "ammun": 7741, "burned": 7742, "convers": 7743, "crosses": 7744, "materials": 7745, "shipping": 7746, "altern": 7747, "spoke": 7748, "watching": 7749, "panel": 7750, "howitz": 7751, "Israeli": 7752, "restrict": 7753, "severely": 7754, "apparently": 7755, "chairman": 7756, "column": 7757, "journalist": 7758, "doubt": 7759, "dinosaur": 7760, "happened": 7761, "picture": 7762, "custom": 7763, "onomy": 7764, "otherwise": 7765, "jackrab": 7766, "Education": 7767, "RÃ©union": 7768, "circumstances": 7769, "doctr": 7770, "exposure": 7771, "Barker": 7772, "helicop": 7773, "Massachu": 7774, "Parvati": 7775, "ammunition": 7776, "Massachusetts": 7777, "82": 7778, "74": 7779, "Es": 7780, "IA": 7781, "á»": 7782, "Ton": 7783, "oral": 7784, "acle": 7785, "ilst": 7786, "aga": 7787, "abol": 7788, "cli": 7789, "Gate": 7790, "oured": 7791, "Gary": 7792, "lav": 7793, "elled": 7794, "Hamp": 7795, "mates": 7796, "rets": 7797, "ables": 7798, "Kann": 7799, "Found": 7800, "engage": 7801, "cancer": 7802, "valid": 7803, "140": 7804, "carved": 7805, "latex": 7806, "Wilson": 7807, "Guide": 7808, "raham": 7809, "generals": 7810, "rants": 7811, "partially": 7812, "movements": 7813, "disaster": 7814, "1927": 7815, "convict": 7816, "expression": 7817, "Corpor": 7818, "burning": 7819, "citing": 7820, "impossible": 7821, "victories": 7822, "heera": 7823, "Having": 7824, "causes": 7825, "belt": 7826, "audio": 7827, "Branch": 7828, "transportation": 7829, "departure": 7830, "iggest": 7831, "Federal": 7832, "festival": 7833, "instruments": 7834, "climate": 7835, "shells": 7836, "Richmond": 7837, "Historic": 7838, "Gwen": 7839, "understood": 7840, "Swedish": 7841, "resistance": 7842, "tavÄda": 7843, "overseas": 7844, "radiation": 7845, "RAAF": 7846, "starlings": 7847, "substantial": 7848, "Eaton": 7849, "Patty": 7850, "urricanes": 7851, "mixture": 7852, "Ministry": 7853, "survive": 7854, "Portugal": 7855, "UstaÅ¡e": 7856, "Kannada": 7857, "kÄntavÄda": 7858, "Fa": 7859, "67": 7860, "Vo": 7861, "92": 7862, "CO": 7863, "Ê»": 7864, "ano": 7865, "arp": 7866, "eras": 7867, "Sis": 7868, "zac": 7869, "amin": 7870, "bom": 7871, "wasn": 7872, "rever": 7873, "cot": 7874, "chrom": 7875, "plus": 7876, "nut": 7877, "Ball": 7878, "illi": 7879, "diet": 7880, "Ing": 7881, "aku": 7882, "itated": 7883, "persu": 7884, "spend": 7885, "commem": 7886, "aments": 7887, "elev": 7888, "Pict": 7889, "unlike": 7890, "tale": 7891, "ithic": 7892, "musician": 7893, "USD": 7894, "asks": 7895, "afterwards": 7896, "Khand": 7897, "claiming": 7898, "1933": 7899, "quez": 7900, "marry": 7901, "Midge": 7902, "barr": 7903, "Police": 7904, "looks": 7905, "interesting": 7906, "Yug": 7907, "Elect": 7908, "resigned": 7909, "disturb": 7910, "engineers": 7911, "thinking": 7912, "spores": 7913, "temples": 7914, "establishing": 7915, "instance": 7916, "electronic": 7917, "documents": 7918, "Baker": 7919, "Howe": 7920, "models": 7921, "opportunities": 7922, "struggle": 7923, "nickn": 7924, "windows": 7925, "restored": 7926, "premiered": 7927, "tribute": 7928, "Masters": 7929, "Eagle": 7930, "Stewart": 7931, "supporters": 7932, "dangerous": 7933, "beautiful": 7934, "compete": 7935, "restricted": 7936, "Bureau": 7937, "absolute": 7938, "Veronica": 7939, "MÃ¡r": 7940, "techniques": 7941, "Khandoba": 7942, "Yugos": 7943, "MÃ¡rquez": 7944, "Ga": 7945, "â": 7946, "Jr": 7947, "Hg": 7948, "eat": 7949, "ias": 7950, "Kit": 7951, "roit": 7952, "heat": 7953, "Nad": 7954, "pus": 7955, "util": 7956, "ensu": 7957, "prove": 7958, "sher": 7959, "Last": 7960, "iance": 7961, "Matt": 7962, "kees": 7963, "Then": 7964, "merch": 7965, "scop": 7966, "Bath": 7967, "ryce": 7968, "Josh": 7969, "Who": 7970, "iverse": 7971, "coins": 7972, "grave": 7973, "pale": 7974, "sale": 7975, "offices": 7976, "Lith": 7977, "designs": 7978, "invent": 7979, "venture": 7980, "talk": 7981, "shock": 7982, "difference": 7983, "1957": 7984, "Wright": 7985, "Soon": 7986, "quali": 7987, "21st": 7988, "productions": 7989, "interaction": 7990, "notably": 7991, "experiences": 7992, "Township": 7993, "predomin": 7994, "Blu": 7995, "remember": 7996, "recognised": 7997, "cules": 7998, "impressed": 7999, "situated": 8000, "properties": 8001, "Toronto": 8002, "divor": 8003, "Miller": 8004, "weapon": 8005, "Justice": 8006, "Robin": 8007, "spiritual": 8008, "elsewhere": 8009, "adventure": 8010, "publisher": 8011, "minimum": 8012, "platform": 8013, "distinguished": 8014, "Girls": 8015, "Jurchen": 8016, "FRE": 8017, "omura": 8018, "criminal": 8019, "Phoenix": 8020, "Mulder": 8021, "retirement": 8022, "Mozambique": 8023, "acknowled": 8024, "artificial": 8025, "atechism": 8026, "Saturday": 8027, "LIMO": 8028, "NDH": 8029, "inHg": 8030, "Detroit": 8031, "Lithuan": 8032, "FRELIMO": 8033, "fy": 8034, "Sb": 8035, "Å": 8036, "á": 8037, "Wat": 8038, "vor": 8039, "oux": 8040, "Pur": 8041, "Kim": 8042, "rus": 8043, "gri": 8044, "ette": 8045, "inet": 8046, "utz": 8047, "900": 8048, "Rest": 8049, "vast": 8050, "Jud": 8051, "nav": 8052, "format": 8053, "resign": 8054, "iven": 8055, "Free": 8056, "rank": 8057, "Sans": 8058, "ios": 8059, "Ira": 8060, "Vice": 8061, "wings": 8062, "founder": 8063, "Bang": 8064, "gene": 8065, "pressing": 8066, "Cob": 8067, "instru": 8068, "consci": 8069, "recur": 8070, "barri": 8071, "earning": 8072, "Death": 8073, "retreat": 8074, "170": 8075, "starred": 8076, "westward": 8077, "Moore": 8078, "Season": 8079, "See": 8080, "1850": 8081, "atherine": 8082, "characterized": 8083, "Benn": 8084, "sevent": 8085, "counties": 8086, "Christop": 8087, "approval": 8088, "formerly": 8089, "depending": 8090, "Celt": 8091, "cleared": 8092, "Barry": 8093, "frig": 8094, "Perfect": 8095, "Minor": 8096, "programme": 8097, "networks": 8098, "burial": 8099, "Off": 8100, "copy": 8101, "costs": 8102, "measured": 8103, "remarked": 8104, "objective": 8105, "Russia": 8106, "Scully": 8107, "statistics": 8108, "locks": 8109, "suitable": 8110, "depicts": 8111, "vehicle": 8112, "communications": 8113, "excavation": 8114, "Bulls": 8115, "delayed": 8116, "ordinary": 8117, "Journey": 8118, "tanks": 8119, "Albums": 8120, "Management": 8121, "selection": 8122, "Coleman": 8123, "Kansas": 8124, "Kevin": 8125, "Gilbert": 8126, "convinced": 8127, "fountain": 8128, "giant": 8129, "appropriate": 8130, "infrastructure": 8131, "niowie": 8132, "Hudson": 8133, "Front": 8134, "biggest": 8135, "WiÅ": 8136, "niowiecki": 8137, "WiÅniowiecki": 8138, "hl": 8139, "Ä": 8140, "Rand": 8141, "thic": 8142, "Jac": 8143, "iland": 8144, "mam": 8145, "ingly": 8146, "heim": 8147, "Sid": 8148, "otal": 8149, "Rap": 8150, "stab": 8151, "sters": 8152, "enters": 8153, "pist": 8154, "gard": 8155, "los": 8156, "Avi": 8157, "inher": 8158, "rific": 8159, "usage": 8160, "compos": 8161, "uable": 8162, "amps": 8163, "regist": 8164, "stick": 8165, "describe": 8166, "Warren": 8167, "displayed": 8168, "chell": 8169, "Canal": 8170, "rounds": 8171, "falls": 8172, "dense": 8173, "collect": 8174, "differences": 8175, "1926": 8176, "striking": 8177, "Imag": 8178, "clearly": 8179, "afford": 8180, "closest": 8181, "decides": 8182, "residence": 8183, "Stories": 8184, "akota": 8185, "determ": 8186, "audiences": 8187, "predators": 8188, "housing": 8189, "altered": 8190, "ranging": 8191, "scriptions": 8192, "Republican": 8193, "closure": 8194, "compound": 8195, "Arsen": 8196, "avalry": 8197, "itzer": 8198, "reservo": 8199, "biograph": 8200, "Trek": 8201, "Memorial": 8202, "opponent": 8203, "restoration": 8204, "slip": 8205, "graduate": 8206, "Confess": 8207, "ribute": 8208, "Silver": 8209, "conservation": 8210, "Originally": 8211, "Nevertheless": 8212, "skills": 8213, "hunting": 8214, "Oscar": 8215, "crops": 8216, "reinforcements": 8217, "benefit": 8218, "assador": 8219, "Persian": 8220, "inscription": 8221, "predecessor": 8222, "Initially": 8223, "rhythm": 8224, "Territory": 8225, "Magdal": 8226, "feathers": 8227, "Organization": 8228, "Hokies": 8229, "Anzac": 8230, "determine": 8231, "Arsenal": 8232, "99": 8233, "07": 8234, "hun": 8235, "pes": 8236, "unes": 8237, "ito": 8238, "onic": 8239, "adm": 8240, "oming": 8241, "hid": 8242, "otic": 8243, "Rain": 8244, "plom": 8245, "onia": 8246, "guil": 8247, "grade": 8248, "artwork": 8249, "anyone": 8250, "anges": 8251, "thereafter": 8252, "arrive": 8253, "Cook": 8254, "creative": 8255, "choir": 8256, "buoy": 8257, "Plan": 8258, "promised": 8259, "attained": 8260, "degre": 8261, "commandment": 8262, "ranking": 8263, "defending": 8264, "regiment": 8265, "elections": 8266, "representative": 8267, "Witch": 8268, "1905": 8269, "ranges": 8270, "ruling": 8271, "Express": 8272, "Abby": 8273, "ucky": 8274, "respective": 8275, "Rocky": 8276, "argues": 8277, "violent": 8278, "preparation": 8279, "occupation": 8280, "Valky": 8281, "nationally": 8282, "favorable": 8283, "'Mal": 8284, "Turks": 8285, "imprison": 8286, "badly": 8287, "Victorian": 8288, "scientists": 8289, "childhood": 8290, "Protestant": 8291, "Legacy": 8292, "adaptation": 8293, "Communist": 8294, "behavior": 8295, "Confeder": 8296, "Chapel": 8297, "alleged": 8298, "tunnel": 8299, "prompted": 8300, "Jonathan": 8301, "throne": 8302, "organisation": 8303, "Category": 8304, "exclusively": 8305, "Leslie": 8306, "slide": 8307, "Until": 8308, "false": 8309, "magnitude": 8310, "moderate": 8311, "Kelly": 8312, "perspective": 8313, "ISB": 8314, "Chagas": 8315, "Mathews": 8316, "diplom": 8317, "degrees": 8318, "Valkyria": 8319, "'Malley": 8320, "ISBN": 8321, "Yo": 8322, "84": 8323, "UE": 8324, "Gun": 8325, "Las": 8326, "lad": 8327, "Nam": 8328, "Rom": 8329, "bear": 8330, "forth": 8331, "Cur": 8332, "inct": 8333, "sid": 8334, "Vul": 8335, "â": 8336, "akum": 8337, "dish": 8338, "liber": 8339, "deity": 8340, "ofess": 8341, "earn": 8342, "twin": 8343, "eline": 8344, "Lover": 8345, "theater": 8346, "rell": 8347, "Lev": 8348, "icia": 8349, "Roc": 8350, "nations": 8351, "erected": 8352, "gates": 8353, "anthem": 8354, "consol": 8355, "arious": 8356, "Dave": 8357, "icide": 8358, "lanes": 8359, "decay": 8360, "dwar": 8361, "labe": 8362, "Show": 8363, "deleg": 8364, "Bio": 8365, "northward": 8366, "Event": 8367, "exists": 8368, "prime": 8369, "handled": 8370, "Allen": 8371, "explains": 8372, "everyone": 8373, "rator": 8374, "rifle": 8375, "bones": 8376, "Hope": 8377, "Magad": 8378, "Nebr": 8379, "caves": 8380, "poison": 8381, "Paraly": 8382, "outbreak": 8383, "crews": 8384, "engineer": 8385, "amounts": 8386, "injured": 8387, "boundary": 8388, "bowl": 8389, "Glad": 8390, "easy": 8391, "manga": 8392, "colonies": 8393, "Carmel": 8394, "rupted": 8395, "celebrated": 8396, "powered": 8397, "beaten": 8398, "Cheval": 8399, "Waterfall": 8400, "Outstanding": 8401, "institution": 8402, "corner": 8403, "architecture": 8404, "advertising": 8405, "desert": 8406, "ethnic": 8407, "bulk": 8408, "strengthened": 8409, "Bertin": 8410, "nurse": 8411, "Democratic": 8412, "Brooks": 8413, "sisters": 8414, "resumed": 8415, "inhabitants": 8416, "deemed": 8417, "Treaty": 8418, "qualified": 8419, "Iraq": 8420, "UEFA": 8421, "Profess": 8422, "dwarf": 8423, "Magadheera": 8424, "Nebraska": 8425, "Paralymp": 8426, "Da": 8427, "ji": 8428, "Nar": 8429, "bee": 8430, "isation": 8431, "eration": 8432, "Mot": 8433, "Ful": 8434, "gap": 8435, "impl": 8436, "neth": 8437, "fate": 8438, "Rem": 8439, "mental": 8440, "uge": 8441, "uding": 8442, "Stand": 8443, "prep": 8444, "Thus": 8445, "landings": 8446, "concess": 8447, "gov": 8448, "bind": 8449, "Ark": 8450, "recordings": 8451, "Asom": 8452, "inje": 8453, "Voy": 8454, "Such": 8455, "Much": 8456, "Beet": 8457, "wives": 8458, "warning": 8459, "steep": 8460, "designer": 8461, "113": 8462, "Kenn": 8463, "Nash": 8464, "1925": 8465, "casting": 8466, "breed": 8467, "relie": 8468, "exposed": 8469, "partner": 8470, "1924": 8471, "Herze": 8472, "profile": 8473, "elsen": 8474, "driver": 8475, "Davis": 8476, "Harold": 8477, "1890": 8478, "visiting": 8479, "consistent": 8480, "inhab": 8481, "electron": 8482, "avier": 8483, "fundament": 8484, "uncertain": 8485, "turb": 8486, "Business": 8487, "Madrid": 8488, "fusion": 8489, "Emmy": 8490, "executed": 8491, "prevented": 8492, "Heaven": 8493, "monuments": 8494, "application": 8495, "garrison": 8496, "substitute": 8497, "settlements": 8498, "Rifles": 8499, "Djok": 8500, "condem": 8501, "iggs": 8502, "judge": 8503, "demands": 8504, "fitted": 8505, "walk": 8506, "distinctive": 8507, "Langu": 8508, "demonstrated": 8509, "excavations": 8510, "Build": 8511, "pursue": 8512, "tactics": 8513, "dominant": 8514, "strategy": 8515, "Railway": 8516, "WASP": 8517, "Budd": 8518, "tavruli": 8519, "banned": 8520, "teorological": 8521, "scattered": 8522, "turrets": 8523, "Yankees": 8524, "Pryce": 8525, "Catechism": 8526, "inscriptions": 8527, "govina": 8528, "Nielsen": 8529, "Djokovic": 8530, "Asomtavruli": 8531, "Herzegovina": 8532, "ov": 8533, "05": 8534, "MI": 8535, "zes": 8536, "sic": 8537, "tle": 8538, "lev": 8539, "Hou": 8540, "mac": 8541, "beam": 8542, "chi": 8543, "ilation": 8544, "ctic": 8545, "Nel": 8546, "proto": 8547, "ongo": 8548, "coin": 8549, "antly": 8550, "Shad": 8551, "reci": 8552, "pray": 8553, "ignment": 8554, "aust": 8555, "intent": 8556, "grid": 8557, "gry": 8558, "centers": 8559, "charity": 8560, "drain": 8561, "forty": 8562, "Those": 8563, "Shel": 8564, "arrior": 8565, "Dean": 8566, "patch": 8567, "dams": 8568, "triple": 8569, "hypo": 8570, "Lower": 8571, "cargo": 8572, "azines": 8573, "mbar": 8574, "downtown": 8575, "1934": 8576, "Peters": 8577, "amongst": 8578, "household": 8579, "feels": 8580, "essee": 8581, "Women": 8582, "sounds": 8583, "edges": 8584, "Bible": 8585, "raising": 8586, "Anglo": 8587, "residential": 8588, "succeed": 8589, "assisted": 8590, "Jews": 8591, "Madison": 8592, "discuss": 8593, "liner": 8594, "Congo": 8595, "considering": 8596, "satell": 8597, "keeping": 8598, "subjects": 8599, "boxing": 8600, "indicating": 8601, "releases": 8602, "Overall": 8603, "constitution": 8604, "initiated": 8605, "defenders": 8606, "translation": 8607, "Independence": 8608, "sacred": 8609, "duty": 8610, "premiere": 8611, "emergency": 8612, "collaboration": 8613, "Gallery": 8614, "congreg": 8615, "Original": 8616, "archaeologist": 8617, "philosophy": 8618, "smooth": 8619, "continental": 8620, "Murray": 8621, "portrait": 8622, "suspended": 8623, "scheme": 8624, "martial": 8625, "Alfred": 8626, "afternoon": 8627, "Corporation": 8628, "commemor": 8629, "tournaments": 8630, "Celtic": 8631, "Houston": 8632, "magazines": 8633, "Tennessee": 8634, "gs": 8635, "86": 8636, "08": 8637, "Ur": 8638, "Wu": 8639, "wan": 8640, "isis": 8641, "igation": 8642, "Wag": 8643, "Rul": 8644, "opt": 8645, "kne": 8646, "rene": 8647, "Esh": 8648, "ills": 8649, "Aman": 8650, "enden": 8651, "cous": 8652, "Mach": 8653, "punt": 8654, "tub": 8655, "inno": 8656, "spin": 8657, "Ant": 8658, "ceased": 8659, "neath": 8660, "portions": 8661, "ressing": 8662, "Ont": 8663, "1000": 8664, "ologies": 8665, "poll": 8666, "Shef": 8667, "bla": 8668, "servative": 8669, "toured": 8670, "Denn": 8671, "variation": 8672, "disband": 8673, "Grade": 8674, "ordering": 8675, "rebuilt": 8676, "Next": 8677, "realized": 8678, "talking": 8679, "Romanian": 8680, "Twent": 8681, "tested": 8682, "testing": 8683, "bases": 8684, "1908": 8685, "encing": 8686, "roots": 8687, "receives": 8688, "Mountains": 8689, "reducing": 8690, "fifty": 8691, "analy": 8692, "Finals": 8693, "employment": 8694, "SAS": 8695, "reveal": 8696, "quarterback": 8697, "Priest": 8698, "deliber": 8699, "delivery": 8700, "definition": 8701, "conclusion": 8702, "Kurt": 8703, "frequent": 8704, "Naval": 8705, "Swiss": 8706, "Xenon": 8707, "Belg": 8708, "northeastern": 8709, "requested": 8710, "bombard": 8711, "Giants": 8712, "Again": 8713, "Hawaii": 8714, "manufactur": 8715, "Mariana": 8716, "Conservation": 8717, "eliminated": 8718, "fatal": 8719, "Cubs": 8720, "chamber": 8721, "Village": 8722, "biographer": 8723, "Release": 8724, "colleagues": 8725, "scorer": 8726, "Network": 8727, "stellar": 8728, "simultaneously": 8729, "Wicca": 8730, "schedule": 8731, "Imagine": 8732, "guilty": 8733, "Chevaliers": 8734, "crisis": 8735, "Wagner": 8736, "Eshmun": 8737, "Ontario": 8738, "Sheffield": 8739, "AT": 8740, "g.": 8741, "Ã§": 8742, "PC": 8743, "thy": 8744, "Vis": 8745, "Wis": 8746, "icit": 8747, "sad": 8748, "Dig": 8749, "Ace": 8750, "vul": 8751, "ulu": 8752, "Fel": 8753, "iet": 8754, "emp": 8755, "fest": 8756, "loved": 8757, "Stav": 8758, "Dev": 8759, "Div": 8760, "Anne": 8761, "ension": 8762, "vals": 8763, "Oreg": 8764, "oples": 8765, "Dog": 8766, "trick": 8767, "relations": 8768, "Amy": 8769, "Leigh": 8770, "mathem": 8771, "insist": 8772, "VII": 8773, "guide": 8774, "operates": 8775, "peaking": 8776, "metre": 8777, "Carre": 8778, "Peach": 8779, "gets": 8780, "aski": 8781, "Christine": 8782, "obvious": 8783, "Clint": 8784, "sentences": 8785, "1923": 8786, "Omar": 8787, "gars": 8788, "shoulder": 8789, "tooth": 8790, "ABC": 8791, "Ida": 8792, "spots": 8793, "Tracy": 8794, "Ghost": 8795, "Ancient": 8796, "fifteen": 8797, "skull": 8798, "Evans": 8799, "adier": 8800, "intel": 8801, "culmin": 8802, "Hills": 8803, "Benj": 8804, "yield": 8805, "Harrison": 8806, "runners": 8807, "Asian": 8808, "jobs": 8809, "kilome": 8810, "Caes": 8811, "withdrawal": 8812, "constitut": 8813, "Hawaiian": 8814, "rhyme": 8815, "mechanical": 8816, "terror": 8817, "collapsed": 8818, "assassination": 8819, "components": 8820, "potentially": 8821, "accurate": 8822, "newspapers": 8823, "Labour": 8824, "assembled": 8825, "employees": 8826, "Rhys": 8827, "citizens": 8828, "Queensland": 8829, "aganda": 8830, "elaborate": 8831, "helium": 8832, "phrase": 8833, "skele": 8834, "molecules": 8835, "Dakota": 8836, "Eventually": 8837, "refuge": 8838, "Oregon": 8839, "Pulaski": 8840, "intellect": 8841, "Benjamin": 8842, "68": 8843, "AC": 8844, "Å": 8845, "WC": 8846, "sin": 8847, "uer": 8848, "lon": 8849, "Jen": 8850, "iso": 8851, "Wing": 8852, "uit": 8853, "isle": 8854, "bac": 8855, "iling": 8856, "det": 8857, "Pow": 8858, "ride": 8859, "uty": 8860, "gers": 8861, "umin": 8862, "tran": 8863, "emit": 8864, "eties": 8865, "agod": 8866, "essay": 8867, "acked": 8868, "ights": 8869, "avo": 8870, "inian": 8871, "adequ": 8872, "Race": 8873, "raia": 8874, "Eric": 8875, "rice": 8876, "embr": 8877, "ernon": 8878, "mines": 8879, "izon": 8880, "Case": 8881, "sang": 8882, "coln": 8883, "colum": 8884, "iff": 8885, "effic": 8886, "angered": 8887, "clust": 8888, "aire": 8889, "osex": 8890, "paras": 8891, "1830": 8892, "cribed": 8893, "apore": 8894, "Marg": 8895, "Section": 8896, "14th": 8897, "ibis": 8898, "Prest": 8899, "parody": 8900, "asking": 8901, "Guard": 8902, "atropical": 8903, "remove": 8904, "putting": 8905, "Trust": 8906, "structural": 8907, "sentiment": 8908, "laugh": 8909, "directors": 8910, "youngest": 8911, "posts": 8912, "Program": 8913, "referring": 8914, "personality": 8915, "slop": 8916, "compliment": 8917, "Valve": 8918, "suburb": 8919, "atinum": 8920, "machines": 8921, "acids": 8922, "boundaries": 8923, "orient": 8924, "artistic": 8925, "spacecraft": 8926, "Charts": 8927, "Woodhouse": 8928, "bene": 8929, "Commons": 8930, "documented": 8931, "steps": 8932, "advancing": 8933, "contribution": 8934, "neighbour": 8935, "translated": 8936, "stores": 8937, "seeking": 8938, "drove": 8939, "Korea": 8940, "environmental": 8941, "Children": 8942, "comparison": 8943, "Africaine": 8944, "dispute": 8945, "surrender": 8946, "classification": 8947, "descend": 8948, "Supreme": 8949, "trouble": 8950, "Similarly": 8951, "Ã¶n": 8952, "Terror": 8953, "surgery": 8954, "theatrical": 8955, "imetres": 8956, "Islamic": 8957, "Canyon": 8958, "diagno": 8959, "Foundation": 8960, "Sisler": 8961, "Christopher": 8962, "Sorraia": 8963, "Lincoln": 8964, "columns": 8965, "Singapore": 8966, "extratropical": 8967, "yl": 8968, "zo": 8969, "Av": 8970, "83": 8971, "09": 8972, "EA": 8973, "WN": 8974, "Ã¸": 8975, "thes": 8976, "Dor": 8977, "lee": 8978, "Bad": 8979, "unch": 8980, "oli": 8981, "ola": 8982, "stim": 8983, "eter": 8984, "sect": 8985, "Grom": 8986, "dith": 8987, "Jard": 8988, "sper": 8989, "ears": 8990, "coord": 8991, "krit": 8992, "string": 8993, "Lud": 8994, "iped": 8995, "worn": 8996, "gray": 8997, "prev": 8998, "Hans": 8999, "Face": 9000, "Jason": 9001, "Cred": 9002, "notice": 9003, "mont": 9004, "Publ": 9005, "Die": 9006, "inals": 9007, "produces": 9008, "Where": 9009, "cave": 9010, "memb": 9011, "Cress": 9012, "Ship": 9013, "Wars": 9014, "Know": 9015, "acru": 9016, "trials": 9017, "miss": 9018, "Gib": 9019, "lights": 9020, "topped": 9021, "solar": 9022, "reaches": 9023, "etime": 9024, "Amb": 9025, "personally": 9026, "explain": 9027, "completing": 9028, "Farm": 9029, "ennium": 9030, "spending": 9031, "bears": 9032, "merged": 9033, "tours": 9034, "representation": 9035, "dney": 9036, "1907": 9037, "Edge": 9038, "Together": 9039, "excell": 9040, "sample": 9041, "Neil": 9042, "vertical": 9043, "circle": 9044, "acceptable": 9045, "professor": 9046, "armament": 9047, "switch": 9048, "swim": 9049, "conduct": 9050, "Lost": 9051, "fishing": 9052, "questions": 9053, "Prix": 9054, "Prize": 9055, "programming": 9056, "rays": 9057, "definite": 9058, "reflected": 9059, "inclusion": 9060, "archaeology": 9061, "temporarily": 9062, "birthday": 9063, "flies": 9064, "balance": 9065, "submitted": 9066, "Girl": 9067, "expert": 9068, "enzy": 9069, "Nett": 9070, "766th": 9071, "revised": 9072, "sculptures": 9073, "detected": 9074, "Species": 9075, "Louisiana": 9076, "Furthermore": 9077, "Obser": 9078, "collapse": 9079, "encountered": 9080, "library": 9081, "Champions": 9082, "Natural": 9083, "segment": 9084, "Chronicles": 9085, "battleships": 9086, "discipl": 9087, "bridges": 9088, "Telugu": 9089, "removal": 9090, "Bidd": 9091, "Cullen": 9092, "anekÄntavÄda": 9093, "Ingres": 9094, "prepare": 9095, "Briggs": 9096, "satellite": 9097, "Belgium": 9098, "Jardine": 9099, "Sanskrit": 9100, "Cresswell": 9101, "Veracru": 9102, "Nettles": 9103, "Biddenden": 9104, "Veracruz": 9105, "ux": 9106, "zi": 9107, "06": 9108, "Sk": 9109, "Win": 9110, "rep": 9111, "Hun": 9112, "uni": 9113, "Por": 9114, "Ten": 9115, "tox": 9116, "phe": 9117, "Mir": 9118, "olen": 9119, "amid": 9120, "consu": 9121, "â": 9122, "Ders": 9123, "clin": 9124, "sco": 9125, "urally": 9126, "Dud": 9127, "spr": 9128, "ported": 9129, "eign": 9130, "Tok": 9131, "ifer": 9132, "mainland": 9133, "cock": 9134, "ieth": 9135, "irates": 9136, "canal": 9137, "Youth": 9138, "enses": 9139, "Chron": 9140, "meters": 9141, "surve": 9142, "surge": 9143, "arriving": 9144, "Lane": 9145, "choose": 9146, "evident": 9147, "ewise": 9148, "smen": 9149, "prefect": 9150, "ansfield": 9151, "weekly": 9152, "orious": 9153, "caster": 9154, "justice": 9155, "Sony": 9156, "boys": 9157, "Westmin": 9158, "genera": 9159, "armored": 9160, "traded": 9161, "Social": 9162, "1922": 9163, "underwent": 9164, "itively": 9165, "charted": 9166, "highways": 9167, "Register": 9168, "scope": 9169, "acycl": 9170, "predict": 9171, "nominations": 9172, "publishing": 9173, "discussion": 9174, "closing": 9175, "fault": 9176, "objectives": 9177, "phoon": 9178, "asteroid": 9179, "Campbell": 9180, "credit": 9181, "oxide": 9182, "biological": 9183, "illegal": 9184, "updated": 9185, "agogue": 9186, "investigation": 9187, "harbour": 9188, "Neves": 9189, "struggled": 9190, "sailed": 9191, "pulled": 9192, "junior": 9193, "Ernest": 9194, "convention": 9195, "emphasis": 9196, "shares": 9197, "neutral": 9198, "elimin": 9199, "beliefs": 9200, "pleasure": 9201, "Michel": 9202, "wishes": 9203, "accomplish": 9204, "upgraded": 9205, "pretty": 9206, "shirt": 9207, "indeed": 9208, "ARVN": 9209, "embarked": 9210, "demolished": 9211, "origins": 9212, "Pattycake": 9213, "Sioux": 9214, "Bennett": 9215, "Jacob": 9216, "hidden": 9217, "Amanita": 9218, "Digital": 9219, "empire": 9220, "Clinton": 9221, "Dershowitz": 9222, "Dudley": 9223, "Chrono": 9224, "Westminster": 9225, "Nevesinje": 9226, "02": 9227, "Ey": 9228, "Ian": 9229, "tot": 9230, "Vic": 9231, "Nic": 9232, "dean": 9233, "Let": 9234, "ware": 9235, "bare": 9236, "users": 9237, "pest": 9238, "clay": 9239, "squ": 9240, "quant": 9241, "jew": 9242, "Cater": 9243, "Bren": 9244, "inations": 9245, "pace": 9246, "beings": 9247, "acles": 9248, "upset": 9249, "loose": 9250, "finale": 9251, "starter": 9252, "presentation": 9253, "Plate": 9254, "Colum": 9255, "USS": 9256, "publications": 9257, "lined": 9258, "pages": 9259, "Tony": 9260, "unnamed": 9261, "eventual": 9262, "advice": 9263, "facts": 9264, "facility": 9265, "Weir": 9266, "constit": 9267, "margin": 9268, "brush": 9269, "Without": 9270, "comfort": 9271, "nels": 9272, "Parks": 9273, "tourist": 9274, "Compan": 9275, "Jackets": 9276, "22nd": 9277, "Keith": 9278, "360": 9279, "Magic": 9280, "threw": 9281, "starring": 9282, "reduction": 9283, "carries": 9284, "reforms": 9285, "certainly": 9286, "Trail": 9287, "railroad": 9288, "Country": 9289, "1861": 9290, "unlikely": 9291, "enthus": 9292, "daughters": 9293, "Charlot": 9294, "categ": 9295, "Wander": 9296, "percentage": 9297, "feeding": 9298, "oxy": 9299, "petition": 9300, "assembly": 9301, "Abbey": 9302, "architectural": 9303, "rotation": 9304, "wait": 9305, "southeastern": 9306, "advertis": 9307, "measurements": 9308, "illustrated": 9309, "Argentine": 9310, "Defense": 9311, "resolution": 9312, "aggreg": 9313, "administrative": 9314, "shift": 9315, "Sweden": 9316, "130th": 9317, "dispatch": 9318, "Kirk": 9319, "negotiations": 9320, "recovery": 9321, "alpha": 9322, "controller": 9323, "merely": 9324, "cinema": 9325, "WWF": 9326, "pione": 9327, "shorter": 9328, "Indones": 9329, "Zanz": 9330, "ropolitan": 9331, "punishment": 9332, "conversation": 9333, "whilst": 9334, "olithic": 9335, "â¹": 9336, "Usher": 9337, "Pohl": 9338, "Mitchell": 9339, "Switzer": 9340, "Building": 9341, "e.g.": 9342, "peoples": 9343, "Idaho": 9344, "Caesar": 9345, "Preston": 9346, "Columbus": 9347, "Charlotte": 9348, "Wanderers": 9349, "Zanzib": 9350, "Switzerland": 9351, "sq": 9352, "73": 9353, "K.": 9354, "Ky": 9355, "ori": 9356, "stin": 9357, "arro": 9358, "aming": 9359, "lyn": 9360, "owa": 9361, "chain": 9362, "Main": 9363, "plas": 9364, "iders": 9365, "shut": 9366, "uart": 9367, "enem": 9368, "Kong": 9369, "Pak": 9370, "lover": 9371, "odrom": 9372, "rant": 9373, "lord": 9374, "Dover": 9375, "Sign": 9376, "iao": 9377, "spel": 9378, "guy": 9379, "scr": 9380, "brain": 9381, "themed": 9382, "buy": 9383, "queen": 9384, "gross": 9385, "Bird": 9386, "wider": 9387, "aley": 9388, "signs": 9389, "balls": 9390, "Comple": 9391, "350": 9392, "reader": 9393, "Feel": 9394, "Tales": 9395, "onwards": 9396, "anime": 9397, "construct": 9398, "acute": 9399, "inery": 9400, "contrad": 9401, "facil": 9402, "atically": 9403, "controls": 9404, "Christians": 9405, "Dah": 9406, "authorized": 9407, "ishops": 9408, "illness": 9409, "historically": 9410, "significance": 9411, "artney": 9412, "Interchange": 9413, "mediate": 9414, "confront": 9415, "Health": 9416, "Hoover": 9417, "offering": 9418, "Works": 9419, "helping": 9420, "inÃ¡": 9421, "profession": 9422, "Yellow": 9423, "Paramount": 9424, "ffs": 9425, "synthe": 9426, "speaker": 9427, "Belgian": 9428, "batteries": 9429, "ultimate": 9430, "devast": 9431, "Shaw": 9432, "Everton": 9433, "Delaware": 9434, "Upper": 9435, "elevation": 9436, "waiting": 9437, "Walker": 9438, "patterns": 9439, "Province": 9440, "supplement": 9441, "YouTu": 9442, "Nazi": 9443, "bbie": 9444, "Gardner": 9445, "chicks": 9446, "depicting": 9447, "pregnancy": 9448, "travelled": 9449, "travell": 9450, "Alberta": 9451, "duration": 9452, "Lessing": 9453, "decisions": 9454, "Heritage": 9455, "brigades": 9456, "Madero": 9457, "Herald": 9458, "gravity": 9459, "magnetic": 9460, "accompanying": 9461, "Isesi": 9462, "aggressive": 9463, "cotton": 9464, "Nadal": 9465, "suicide": 9466, "ongoing": 9467, "Twenty": 9468, "osexual": 9469, "Credits": 9470, "Stuart": 9471, "enemies": 9472, "McCartney": 9473, "ToninÃ¡": 9474, "YouTube": 9475, "oh": 9476, "Ep": 9477, "Mk": 9478, "pin": 9479, "reh": 9480, "una": 9481, "ois": 9482, "tent": 9483, "Ade": 9484, "Mol": 9485, "tern": 9486, "uation": 9487, "Cab": 9488, "Kate": 9489, "Fem": 9490, "exem": 9491, "Flo": 9492, "code": 9493, "dod": 9494, "liqu": 9495, "overs": 9496, "timate": 9497, "olia": 9498, "Heart": 9499, "tations": 9500, "shear": 9501, "Allo": 9502, "tenth": 9503, "bie": 9504, "regul": 9505, "dles": 9506, "retre": 9507, "Fif": 9508, "doors": 9509, "jury": 9510, "myst": 9511, "signal": 9512, "laide": 9513, "Work": 9514, "passion": 9515, "aimed": 9516, "chest": 9517, "imeter": 9518, "conversion": 9519, "Andre": 9520, "commands": 9521, "commanders": 9522, "harm": 9523, "Mix": 9524, "iently": 9525, "similarly": 9526, "itarian": 9527, "permission": 9528, "searching": 9529, "penter": 9530, "umps": 9531, "Tax": 9532, "1902": 9533, "scrap": 9534, "destroyer": 9535, "1895": 9536, "rocks": 9537, "Corbet": 9538, "values": 9539, "terrain": 9540, "pairs": 9541, "donated": 9542, "truck": 9543, "Centre": 9544, "riding": 9545, "preparing": 9546, "execution": 9547, "Vander": 9548, "indicates": 9549, "Khan": 9550, "proportion": 9551, "policies": 9552, "connecting": 9553, "Critics": 9554, "conflicts": 9555, "concentrated": 9556, "farmers": 9557, "phenomen": 9558, "loud": 9559, "requires": 9560, "Headquarters": 9561, "girls": 9562, "category": 9563, "cancelled": 9564, "Leonard": 9565, "universities": 9566, "dubbed": 9567, "exactly": 9568, "Seattle": 9569, "trapped": 9570, "hydrogen": 9571, "partnership": 9572, "freedom": 9573, "usaders": 9574, "hospit": 9575, "decorated": 9576, "conventional": 9577, "Madonna": 9578, "platoon": 9579, "doctrine": 9580, "Arkansas": 9581, "fundamental": 9582, "Stavanger": 9583, "Sydney": 9584, "acyclic": 9585, "compreh": 9586, "Allosaurus": 9587, "Adelaide": 9588, "Kn": 9589, "Ec": 9590, "MV": 9591, "c.": 9592, "Ã£": 9593, "hen": 9594, "ille": 9595, "nom": 9596, "byter": 9597, "Dum": 9598, "dium": 9599, "atever": 9600, "vies": 9601, "List": 9602, "illing": 9603, "chord": 9604, "Nine": 9605, "herd": 9606, "Chen": 9607, "inary": 9608, "Nav": 9609, "iang": 9610, "touring": 9611, "alloc": 9612, "infer": 9613, "rations": 9614, "ffl": 9615, "tenure": 9616, "ients": 9617, "otions": 9618, "afted": 9619, "Rick": 9620, "rowed": 9621, "beating": 9622, "backing": 9623, "intercept": 9624, "nave": 9625, "operas": 9626, "ballad": 9627, "Beau": 9628, "abroad": 9629, "reject": 9630, "wore": 9631, "Mars": 9632, "Food": 9633, "ctoral": 9634, "Christi": 9635, "Morgan": 9636, "priv": 9637, "Maur": 9638, "penet": 9639, "beats": 9640, "seats": 9641, "factor": 9642, "disput": 9643, "fewer": 9644, "strongest": 9645, "Charac": 9646, "transmission": 9647, "friendly": 9648, "unclear": 9649, "failing": 9650, "Polit": 9651, "Internet": 9652, "sket": 9653, "Harry": 9654, "functions": 9655, "mountains": 9656, "ranks": 9657, "animated": 9658, "hPa": 9659, "verses": 9660, "tissue": 9661, "harmon": 9662, "maintaining": 9663, "civilians": 9664, "interactions": 9665, "Bald": 9666, "Berlin": 9667, "supervis": 9668, "characteristic": 9669, "compositions": 9670, "spoken": 9671, "Angelou": 9672, "evolved": 9673, "roller": 9674, "credits": 9675, "melody": 9676, "prosecut": 9677, "flesh": 9678, "prisoners": 9679, "danger": 9680, "withdrawn": 9681, "Serbs": 9682, "HNC": 9683, "pursuit": 9684, "Boys": 9685, "pilots": 9686, "Survey": 9687, "affili": 9688, "solely": 9689, "wealthy": 9690, "logic": 9691, "recommend": 9692, "Books": 9693, "Bulgar": 9694, "Canning": 9695, "rushing": 9696, "wickets": 9697, "Leeds": 9698, "vertex": 9699, "loyd": 9700, "Dynasty": 9701, "Panzer": 9702, "Daydream": 9703, "appreci": 9704, "Falls": 9705, "Blood": 9706, "Broadway": 9707, "temperatures": 9708, "aptist": 9709, "ashore": 9710, "Nightingale": 9711, "Jeremy": 9712, "sleep": 9713, "Hungarian": 9714, "Description": 9715, "vegetation": 9716, "leukemia": 9717, "gift": 9718, "molecular": 9719, "Fernandez": 9720, "Tigers": 9721, "HawaiÊ»": 9722, "illiant": 9723, "Corpus": 9724, "Watson": 9725, "seventeen": 9726, "sacrific": 9727, "Wyoming": 9728, "cousin": 9729, "positively": 9730, "Eccle": 9731, "Derffl": 9732, "HawaiÊ»i": 9733, "Derfflinger": 9734, "Az": 9735, "UC": 9736, "78": 9737, "ES": 9738, "Din": 9739, "stan": 9740, "aran": 9741, "cof": 9742, "olis": 9743, "itim": 9744, "cel": 9745, "Sel": 9746, ".com": 9747, "Hop": 9748, "eries": 9749, "Vish": 9750, "icity": 9751, "endar": 9752, "Astr": 9753, "deci": 9754, "gud": 9755, "dual": 9756, "Stud": 9757, "achi": 9758, "ultan": 9759, "Antim": 9760, "united": 9761, "Almost": 9762, "tenance": 9763, "ogy": 9764, "obst": 9765, "ifies": 9766, "compens": 9767, "insur": 9768, "hoo": 9769, "oyle": 9770, "coverage": 9771, "ideal": 9772, "memor": 9773, "stress": 9774, "succession": 9775, "successive": 9776, "Maya": 9777, "toms": 9778, "cyto": 9779, "restore": 9780, "amaz": 9781, "Kody": 9782, "Actor": 9783, "Batter": 9784, "Guin": 9785, "handed": 9786, "reviewed": 9787, "Heavy": 9788, "True": 9789, "Bush": 9790, "gaining": 9791, "troubl": 9792, "Romania": 9793, "Poly": 9794, "nights": 9795, "goods": 9796, "1903": 9797, "anticip": 9798, "assum": 9799, "occurring": 9800, "animation": 9801, "Gael": 9802, "1889": 9803, "measuring": 9804, "XIII": 9805, "Administ": 9806, "Arabs": 9807, "bowling": 9808, "Years": 9809, "permitted": 9810, "reinforced": 9811, "autom": 9812, "increases": 9813, "seriously": 9814, "Trees": 9815, "targets": 9816, "walking": 9817, "observation": 9818, "famili": 9819, "Cricket": 9820, "grandfather": 9821, "surprise": 9822, "Living": 9823, "ramid": 9824, "Bradstreet": 9825, "interpreted": 9826, "estyle": 9827, "parliamentary": 9828, "Sora": 9829, "identify": 9830, "beauty": 9831, "virtually": 9832, "ownership": 9833, "Wellington": 9834, "Jurchens": 9835, "aboard": 9836, "khur": 9837, "pregnant": 9838, "Author": 9839, "revival": 9840, "Library": 9841, "champions": 9842, "Zoo": 9843, "relegated": 9844, "Transportation": 9845, "Baseball": 9846, "photographs": 9847, "Utah": 9848, "Roths": 9849, "Bedell": 9850, "Hampshire": 9851, "Cyrus": 9852, "conscious": 9853, "heavier": 9854, "cougars": 9855, "platinum": 9856, "clothes": 9857, "lifetime": 9858, "oxygen": 9859, "Pakistan": 9860, "legitim": 9861, "Antimony": 9862, "Gaelic": 9863, "familiar": 9864, "Rothschild": 9865, "ym": 9866, "yd": 9867, "03": 9868, "Son": 9869, "Cas": 9870, "acou": 9871, "urs": 9872, "Kur": 9873, "anag": 9874, "agar": 9875, "Dot": 9876, "tap": 9877, "jet": 9878, "Oak": 9879, "fame": 9880, "Near": 9881, "udo": 9882, "manip": 9883, "enous": 9884, "Kau": 9885, "itia": 9886, "Sue": 9887, "sings": 9888, "pounder": 9889, "Room": 9890, "ptions": 9891, "relev": 9892, "incur": 9893, "backed": 9894, "hook": 9895, "230": 9896, "runway": 9897, "naming": 9898, "Trist": 9899, "seized": 9900, "continuous": 9901, "Europ": 9902, "varied": 9903, "hamper": 9904, "rains": 9905, "Grace": 9906, "armies": 9907, "bodyline": 9908, "displaced": 9909, "toler": 9910, "capturing": 9911, "helps": 9912, "guides": 9913, "sixteen": 9914, "commenting": 9915, "sporting": 9916, "Äd": 9917, "hull": 9918, "motiv": 9919, "divers": 9920, "Christianity": 9921, "Econom": 9922, "Data": 9923, "golden": 9924, "housed": 9925, "flooded": 9926, "vault": 9927, "Manuel": 9928, "reactions": 9929, "blocked": 9930, "clothing": 9931, "tasked": 9932, "participate": 9933, "habitats": 9934, "Reser": 9935, "Collection": 9936, "pitching": 9937, "championships": 9938, "MLB": 9939, "Trib": 9940, "departed": 9941, "heroes": 9942, "downstream": 9943, "1849": 9944, "Studies": 9945, "agency": 9946, "Import": 9947, "sitting": 9948, "Halo": 9949, "attitude": 9950, "banks": 9951, "secretary": 9952, "questioned": 9953, "entertainment": 9954, "depiction": 9955, "promotional": 9956, "representatives": 9957, "hills": 9958, "engagement": 9959, "votes": 9960, "philosoph": 9961, "Coldrum": 9962, "sponsor": 9963, "revived": 9964, "Ohio": 9965, "Looking": 9966, "Etty": 9967, "puzzles": 9968, "suddenly": 9969, "believing": 9970, "perceived": 9971, "infection": 9972, "audition": 9973, "Rhodesian": 9974, "IOC": 9975, "Joyful": 9976, "manuscripts": 9977, "announcement": 9978, "resemble": 9979, "KÅ": 9980, "registered": 9981, "subsid": 9982, "explicit": 9983, "kilometers": 9984, "Palestinian": 9985, "Margaret": 9986, "synagogue": 9987, "constitu": 9988, "hospitals": 9989, "Tristan": 9990, "VI": 9991, "ko": 9992, "Ts": 9993, "RI": 9994, "OM": 9995, "BÃ": 9996, "wre": 9997, "orb": 9998, "Ple": 9999, "sew": 10000, "dad": 10001, "dee": 10002, "veter": 10003, "Say": 10004, "Jag": 10005, "verte": 10006, "rial": 10007, "Prom": 10008, "iate": 10009, "ighth": 10010, "lob": 10011, "Cant": 10012, "epic": 10013, "Flow": 10014, "comprom": 10015, "Come": 10016, "span": 10017, "deser": 10018, "refin": 10019, "supre": 10020, "swe": 10021, "thren": 10022, "edited": 10023, "brace": 10024, "athle": 10025, "phant": 10026, "kner": 10027, "noble": 10028, "Dick": 10029, "Tron": 10030, "arius": 10031, "Coach": 10032, "Deep": 10033, "echo": 10034, "noise": 10035, "lacking": 10036, "Shell": 10037, "isms": 10038, "metall": 10039, "ashi": 10040, "topes": 10041, "Seven": 10042, "acclaim": 10043, "extend": 10044, "McCar": 10045, "prize": 10046, "celer": 10047, "Contro": 10048, "Interstate": 10049, "Performan": 10050, "dependent": 10051, "distances": 10052, "flew": 10053, "Monkey": 10054, "undertaken": 10055, "ruler": 10056, "zomb": 10057, "memories": 10058, "Abd": 10059, "Morning": 10060, "Buck": 10061, "approaches": 10062, "Pier": 10063, "Crim": 10064, "accum": 10065, "ikk": 10066, "Wik": 10067, "mingham": 10068, "bellion": 10069, "realistic": 10070, "coaching": 10071, "teachers": 10072, "confess": 10073, "Campaign": 10074, "mainstream": 10075, "Foreign": 10076, "NCAA": 10077, "wolf": 10078, "touchdowns": 10079, "fastest": 10080, "Haitian": 10081, "candidates": 10082, "shrine": 10083, "cloud": 10084, "neutron": 10085, "archbishop": 10086, "arrangements": 10087, "Vegas": 10088, "industries": 10089, "Gregory": 10090, "distinguish": 10091, "Slayer": 10092, "comprised": 10093, "vs.": 10094, "component": 10095, "replied": 10096, "rescued": 10097, "Honor": 10098, "vicinity": 10099, "strategic": 10100, "districts": 10101, "Wrapped": 10102, "absorbed": 10103, "affairs": 10104, "RÃ¤": 10105, "tickets": 10106, "Hannah": 10107, "Wrestling": 10108, "restrictions": 10109, "disturbance": 10110, "Creutz": 10111, "dheim": 10112, "pistol": 10113, "compilation": 10114, "Palmyrene": 10115, "Hellbla": 10116, "Dennis": 10117, "mathemat": 10118, "Ã¶nen": 10119, "Skinner": 10120, "Tokyo": 10121, "Zanzibar": 10122, "Iowa": 10123, "aerodrom": 10124, "Staley": 10125, "mystery": 10126, "Ecclestone": 10127, "Birmingham": 10128, "RÃ¤ikk": 10129, "Trondheim": 10130, "Hellblazer": 10131, "RÃ¤ikkÃ¶nen": 10132, "Ta": 10133, "Âµ": 10134, "Ah": 10135, "DD": 10136, "DE": 10137, "Æ°": 10138, "Bat": 10139, "Cit": 10140, "Pic": 10141, "Pam": 10142, "amil": 10143, "som": 10144, "jur": 10145, "uras": 10146, "Eve": 10147, "imer": 10148, "tig": 10149, "icul": 10150, "Nap": 10151, "romet": 10152, "sop": 10153, "arest": 10154, "yers": 10155, "ulli": 10156, "Dod": 10157, "conqu": 10158, "eless": 10159, "Mack": 10160, "estone": 10161, "oftw": 10162, "uine": 10163, "iney": 10164, "Chan": 10165, "Cho": 10166, "bore": 10167, "veland": 10168, "Aub": 10169, "1819": 10170, "gras": 10171, "Tree": 10172, "Thak": 10173, "trough": 10174, "Shim": 10175, "redes": 10176, "Alb": 10177, "brut": 10178, "cking": 10179, "miners": 10180, "gang": 10181, "ilda": 10182, "Hair": 10183, "Rob": 10184, "alsa": 10185, "genes": 10186, "icken": 10187, "nered": 10188, "consent": 10189, "medal": 10190, "curved": 10191, "locally": 10192, "venge": 10193, "Norwe": 10194, "Moon": 10195, "Bright": 10196, "cosm": 10197, "Marie": 10198, "repor": 10199, "metric": 10200, "Born": 10201, "Father": 10202, "Isle": 10203, "talent": 10204, "cards": 10205, "achute": 10206, "poets": 10207, "vital": 10208, "cats": 10209, "cutting": 10210, "Steven": 10211, "myster": 10212, "fluence": 10213, "iscus": 10214, "240": 10215, "behalf": 10216, "extending": 10217, "sending": 10218, "Liter": 10219, "Pole": 10220, "denomin": 10221, "1906": 10222, "1901": 10223, "Ages": 10224, "Zagre": 10225, "fourteen": 10226, "Highland": 10227, "crick": 10228, "Federation": 10229, "praising": 10230, "pressive": 10231, "consistently": 10232, "conclus": 10233, "traveling": 10234, "arguing": 10235, "businesses": 10236, "Places": 10237, "chapters": 10238, "Singh": 10239, "hearing": 10240, "printing": 10241, "Tommy": 10242, "territorial": 10243, "marketing": 10244, "admir": 10245, "concepts": 10246, "bombing": 10247, "escaped": 10248, "hitting": 10249, "observatory": 10250, "matters": 10251, "trend": 10252, "extensively": 10253, "¬nh": 10254, "exhibition": 10255, "requirements": 10256, "relatives": 10257, "Senator": 10258, "fragment": 10259, "Observ": 10260, "Reagan": 10261, "opposing": 10262, "pictures": 10263, "laboratory": 10264, "Cambodian": 10265, "ceratop": 10266, "Matthew": 10267, "exclusive": 10268, "Bruce": 10269, "aerial": 10270, "Ariz": 10271, "Return": 10272, "rubber": 10273, "Archaeological": 10274, "Hughes": 10275, "agriculture": 10276, "conjunction": 10277, "juven": 10278, "diamond": 10279, "drinking": 10280, "Hobbs": 10281, "archaeologists": 10282, "universe": 10283, "recurring": 10284, "extinct": 10285, "Professor": 10286, "concession": 10287, "Beeton": 10288, "Kennedy": 10289, "Meteorological": 10290, "tubes": 10291, "adequate": 10292, "complimented": 10293, "membrane": 10294, "batsmen": 10295, "machinery": 10296, "maintenance": 10297, "Guinness": 10298, "oftware": 10299, "Quiney": 10300, "Cleveland": 10301, "Norwegian": 10302, "Zagreb": 10303, "crickets": 10304, "Arizona": 10305, "ng": 10306, "tu": 10307, "BM": 10308, "sor": 10309, "rob": 10310, "Lam": 10311, "deer": 10312, "olin": 10313, "Ice": 10314, "tees": 10315, "Dri": 10316, "Fut": 10317, "thers": 10318, "cles": 10319, "outr": 10320, "Hong": 10321, "exter": 10322, "reper": 10323, "alive": 10324, "220": 10325, "inaw": 10326, "Uran": 10327, "gren": 10328, "osity": 10329, "aceous": 10330, "Dance": 10331, "sheep": 10332, "Alg": 10333, "chase": 10334, "deals": 10335, "Hind": 10336, "canon": 10337, "rett": 10338, "Joint": 10339, "ensis": 10340, "Assy": 10341, "101": 10342, "abuse": 10343, "recept": 10344, "covery": 10345, "lacked": 10346, "Cooper": 10347, "operational": 10348, "couldn": 10349, "myself": 10350, "Marge": 10351, "Reines": 10352, "gged": 10353, "statements": 10354, "114": 10355, "solved": 10356, "tracked": 10357, "weekend": 10358, "Guine": 10359, "trains": 10360, "explore": 10361, "Sox": 10362, "Web": 10363, "261": 10364, "attribut": 10365, "Stars": 10366, "steadily": 10367, "Serb": 10368, "apply": 10369, "activated": 10370, "sugar": 10371, "funeral": 10372, "1897": 10373, "legacy": 10374, "hostile": 10375, "commenced": 10376, "Ã¡n": 10377, "Finally": 10378, "1880": 10379, "Flower": 10380, "motif": 10381, "rolled": 10382, "exceed": 10383, "Partington": 10384, "investment": 10385, "device": 10386, "transported": 10387, "Egyptians": 10388, "Contemporary": 10389, "1878": 10390, "ingray": 10391, "predicted": 10392, "Lucas": 10393, "presidential": 10394, "Holoc": 10395, "Johnny": 10396, "NASA": 10397, "examination": 10398, "parent": 10399, "Comedy": 10400, "Operations": 10401, "Opera": 10402, "enorm": 10403, "courses": 10404, "revenue": 10405, "Justin": 10406, "Sixth": 10407, "Humph": 10408, "racing": 10409, "advised": 10410, "pushing": 10411, "chemist": 10412, "Community": 10413, "neutr": 10414, "households": 10415, "Popular": 10416, "tombs": 10417, "Pagan": 10418, "trails": 10419, "Kyle": 10420, "rieved": 10421, "Files": 10422, "Contin": 10423, "exploration": 10424, "governments": 10425, "peninsula": 10426, "innov": 10427, "Local": 10428, "taste": 10429, "Archaeology": 10430, "immigration": 10431, "shelter": 10432, "AtlÃ©t": 10433, "JosÃ©": 10434, "Globe": 10435, "renewed": 10436, "psych": 10437, "provincial": 10438, "remarkable": 10439, "Hurricanes": 10440, "Vulcan": 10441, "consolid": 10442, "Kenneth": 10443, "propaganda": 10444, "intellectual": 10445, "agoda": 10446, "centimetres": 10447, "twentieth": 10448, "Brenda": 10449, "Plateau": 10450, "Kyra": 10451, "Liao": 10452, "Carpenter": 10453, "allocated": 10454, "Doyle": 10455, "pyramid": 10456, "indigenous": 10457, "Europa": 10458, "Urania": 10459, "Holocaust": 10460, "Humphrey": 10461, "AtlÃ©tico": 10462, "Ce": 10463, "m.": 10464, "NZ": 10465, "ï»": 10466, "Gan": 10467, "jan": 10468, "het": 10469, "stig": 10470, "Hay": 10471, "aration": 10472, "kid": 10473, "Num": 10474, "sha": 10475, "Cart": 10476, "Mong": 10477, "iller": 10478, "lore": 10479, "None": 10480, "Eight": 10481, "Cass": 10482, "Hip": 10483, "Mother": 10484, "inser": 10485, "reform": 10486, "jaw": 10487, "1800": 10488, "noot": 10489, "cook": 10490, "ook": 10491, "ceme": 10492, "fires": 10493, "andra": 10494, "tempo": 10495, "visits": 10496, "irts": 10497, "utions": 10498, "riarch": 10499, "reward": 10500, "canals": 10501, "retain": 10502, "singers": 10503, "colors": 10504, "creational": 10505, "cens": 10506, "eating": 10507, "ighters": 10508, "uters": 10509, "ifeng": 10510, "developers": 10511, "Brack": 10512, "continent": 10513, "complement": 10514, "Glan": 10515, "mayor": 10516, "Composition": 10517, "snow": 10518, "trium": 10519, "trio": 10520, "Box": 10521, "distant": 10522, "marking": 10523, "Guild": 10524, "Hebre": 10525, "imposed": 10526, "ignored": 10527, "persons": 10528, "speculation": 10529, "thrown": 10530, "Charm": 10531, "magical": 10532, "crush": 10533, "enforce": 10534, "reportedly": 10535, "voices": 10536, "witch": 10537, "warned": 10538, "Mantell": 10539, "saint": 10540, "1860": 10541, "talks": 10542, "storylines": 10543, "connections": 10544, "studying": 10545, "rÃ­": 10546, "breaks": 10547, "approaching": 10548, "funded": 10549, "Players": 10550, "quoted": 10551, "frey": 10552, "Crash": 10553, "threats": 10554, "uff": 10555, "minority": 10556, "pani": 10557, "Superman": 10558, "Russell": 10559, "accessible": 10560, "awny": 10561, "dispers": 10562, "Franklin": 10563, "Computer": 10564, "celebrate": 10565, "airports": 10566, "Movie": 10567, "Alfa": 10568, "kickoff": 10569, "populated": 10570, "density": 10571, "sexuality": 10572, "Industri": 10573, "concentration": 10574, "proceeded": 10575, "autumn": 10576, "offshore": 10577, "rinth": 10578, "Banksia": 10579, "Agency": 10580, "intelligent": 10581, "repairs": 10582, "lumber": 10583, "volumes": 10584, "challenging": 10585, "flagship": 10586, "sponsored": 10587, "priests": 10588, "Trophy": 10589, "hedruli": 10590, "Villaret": 10591, "constantly": 10592, "patrol": 10593, "Austrian": 10594, "calculated": 10595, "Princess": 10596, "LÃ¼": 10597, "insects": 10598, "argument": 10599, "Hockey": 10600, "tributaries": 10601, "inaugural": 10602, "exhausted": 10603, "Thai": 10604, "Graham": 10605, "valuable": 10606, "condemned": 10607, "lumin": 10608, "slopes": 10609, "Pirates": 10610, "Lancaster": 10611, "Companies": 10612, "homosexual": 10613, "Navarro": 10614, "Lloyd": 10615, "Baptist": 10616, "Cantrell": 10617, "bracelet": 10618, "acceler": 10619, "Cecil": 10620, "ï»¿": 10621, "Vandernoot": 10622, "cemetery": 10623, "Kaifeng": 10624, "Glanville": 10625, "Hebrew": 10626, "Mkhedruli": 10627, "Charmbracelet": 10628, "pm": 10629, "ii": 10630, "rh": 10631, "Lt": 10632, "AL": 10633, "Bon": 10634, "nas": 10635, "edit": 10636, "Cir": 10637, "bol": 10638, "pig": 10639, "itter": 10640, "Nus": 10641, "Got": 10642, "rik": 10643, "resid": 10644, "Set": 10645, "nall": 10646, "atum": 10647, "trunk": 10648, "sover": 10649, "Tong": 10650, "moist": 10651, "htw": 10652, "ours": 10653, "Pup": 10654, "duo": 10655, "Still": 10656, "manage": 10657, "timber": 10658, "ubb": 10659, "attor": 10660, "aria": 10661, "spar": 10662, "edoc": 10663, "finest": 10664, "fier": 10665, "grace": 10666, "spark": 10667, "anya": 10668, "nice": 10669, "mini": 10670, "monit": 10671, "chie": 10672, "Arn": 10673, "rible": 10674, "Scr": 10675, "centered": 10676, "Leic": 10677, "olics": 10678, "onder": 10679, "shipments": 10680, "aside": 10681, "Tide": 10682, "beds": 10683, "roadway": 10684, "Dress": 10685, "torn": 10686, "pink": 10687, "Brist": 10688, "ibi": 10689, "Isles": 10690, "unless": 10691, "Rivers": 10692, "lasting": 10693, "variations": 10694, "passages": 10695, "hamlet": 10696, "Sina": 10697, "humor": 10698, "icians": 10699, "Adult": 10700, "similarities": 10701, "stronger": 10702, "urged": 10703, "Imm": 10704, "Mission": 10705, "entertain": 10706, "corps": 10707, "collections": 10708, "1904": 10709, "traditions": 10710, "grows": 10711, "Lamb": 10712, "vertices": 10713, "waves": 10714, "Raid": 10715, "Blues": 10716, "Elgin": 10717, "travels": 10718, "Commandos": 10719, "screens": 10720, "spore": 10721, "scripts": 10722, "occasional": 10723, "Bhair": 10724, "shield": 10725, "dying": 10726, "physics": 10727, "soldier": 10728, "nyi": 10729, "salary": 10730, "cooperation": 10731, "hoping": 10732, "flowers": 10733, "flows": 10734, "kefell": 10735, "clergy": 10736, "rolling": 10737, "improvement": 10738, "devoted": 10739, "Giel": 10740, "lyrical": 10741, "progressed": 10742, "Yorkshire": 10743, "preserve": 10744, "colours": 10745, "truly": 10746, "permanently": 10747, "Larry": 10748, "wicket": 10749, "belonging": 10750, "fragments": 10751, "smoke": 10752, "imagery": 10753, "gathered": 10754, "tasks": 10755, "reflecting": 10756, "fasc": 10757, "Ulster": 10758, "drivers": 10759, "stretch": 10760, "stretched": 10761, "Austro": 10762, "teammate": 10763, "repeatedly": 10764, "Qedarites": 10765, "essentially": 10766, "experimental": 10767, "Fried": 10768, "aduct": 10769, "puzzle": 10770, "Austria": 10771, "knocked": 10772, "deterior": 10773, "Small": 10774, "indigo": 10775, "sanct": 10776, "replacing": 10777, "intersects": 10778, "consumption": 10779, "surrendered": 10780, "Billy": 10781, "dynamic": 10782, "dozen": 10783, "jackrabbit": 10784, "divorce": 10785, "Clocks": 10786, "Aviation": 10787, "Ganges": 10788, "buoys": 10789, "diplomatic": 10790, "Freakum": 10791, "Loverboy": 10792, "inhabited": 10793, "Nelson": 10794, "Ruler": 10795, "Machine": 10796, "rivals": 10797, "circuit": 10798, "WNO": 10799, "MVP": 10800, "emotions": 10801, "decide": 10802, "Sultan": 10803, "memorable": 10804, "Performance": 10805, "Auburn": 10806, "mysterious": 10807, "Berhtw": 10808, "Languedoc": 10809, "Leicester": 10810, "Catholics": 10811, "Bristol": 10812, "Sinai": 10813, "politicians": 10814, "Rockefell": 10815, "Gielgud": 10816, "Berhtwald": 10817, "Rockefeller": 10818, "zu": 10819, "Ã": 10820, "04": 10821, "Sl": 10822, "i.": 10823, "Sn": 10824, "Uk": 10825, "Od": 10826, "â": 10827, "NM": 10828, "ini": 10829, "thed": 10830, "enh": 10831, "Tar": 10832, "Mes": 10833, "Fro": 10834, "Kle": 10835, "Hur": 10836, "iga": 10837, "Pay": 10838, "agu": 10839, "elig": 10840, "â¦": 10841, "Sab": 10842, "pover": 10843, "eme": 10844, "akim": 10845, "Fast": 10846, "loop": 10847, "alco": 10848, "thod": 10849, "iod": 10850, "Want": 10851, "outing": 10852, "Gack": 10853, "vian": 10854, "duet": 10855, "lical": 10856, "gau": 10857, "Nev": 10858, "posing": 10859, "grain": 10860, "gans": 10861, "ficial": 10862, "rede": 10863, "price": 10864, "stern": 10865, "Kings": 10866, "phic": 10867, "Lind": 10868, "Cret": 10869, "Joh": 10870, "irty": 10871, "dore": 10872, "hire": 10873, "175": 10874, "Loy": 10875, "mmet": 10876, "solve": 10877, "anka": 10878, "shallow": 10879, "publicly": 10880, "2000s": 10881, "mask": 10882, "opined": 10883, "wonder": 10884, "pense": 10885, "navy": 10886, "Weather": 10887, "limits": 10888, "magic": 10889, "draws": 10890, "Bah": 10891, "enlarg": 10892, "Happ": 10893, "directing": 10894, "involves": 10895, "planes": 10896, "planets": 10897, "hoods": 10898, "sibl": 10899, "Scots": 10900, "Proto": 10901, "summon": 10902, "disappeared": 10903, "Montreal": 10904, "destination": 10905, "battlefield": 10906, "processing": 10907, "tape": 10908, "stability": 10909, "songwriter": 10910, "zinc": 10911, "lavia": 10912, "survival": 10913, "Actress": 10914, "complicated": 10915, "wheel": 10916, "1857": 10917, "Crab": 10918, "dealing": 10919, "Loose": 10920, "tonnes": 10921, "circul": 10922, "violation": 10923, "screened": 10924, "amphib": 10925, "educational": 10926, "Ferr": 10927, "pitation": 10928, "dedication": 10929, "funny": 10930, "confusion": 10931, "taker": 10932, "links": 10933, "Bradman": 10934, "Studio": 10935, "bombs": 10936, "devotion": 10937, "kicked": 10938, "boyfriend": 10939, "opinions": 10940, "Metro": 10941, "Jimmy": 10942, "Trans": 10943, "punct": 10944, "Formation": 10945, "functional": 10946, "manufacturing": 10947, "Telegraph": 10948, "dressed": 10949, "shrub": 10950, "Leban": 10951, "Cultural": 10952, "horror": 10953, "shifted": 10954, "perfectly": 10955, "Style": 10956, "loyal": 10957, "minimal": 10958, "Railroad": 10959, "Devin": 10960, "mythology": 10961, "imperial": 10962, "naked": 10963, "evacuated": 10964, "Attack": 10965, "aviation": 10966, "Bernard": 10967, "tools": 10968, "Antonio": 10969, "nightingale": 10970, "relegation": 10971, "precise": 10972, "rectangular": 10973, "accommodate": 10974, "CPS": 10975, "Barbarian": 10976, "prohibited": 10977, "substance": 10978, "Faul": 10979, "sharp": 10980, "Robinson": 10981, "barrier": 10982, "seemingly": 10983, "ambassador": 10984, "narrator": 10985, "Remix": 10986, "predominantly": 10987, "drainage": 10988, "bombardment": 10989, "igadier": 10990, "sacked": 10991, "avoided": 10992, "prevail": 10993, "Millennium": 10994, "uniform": 10995, "tunnels": 10996, "Neolithic": 10997, "contradict": 10998, "sufficiently": 10999, "Maurice": 11000, "guaran": 11001, "symptoms": 11002, "relevant": 11003, "athlete": 11004, "isotopes": 11005, "McCarthy": 11006, "genuine": 11007, "Shimomura": 11008, "garnered": 11009, "enormous": 11010, "i.e.": 11011, "Ukrain": 11012, "â": 11013, "Gacko": 11014, "iblical": 11015, "Nevada": 11016, "Cretaceous": 11017, "siblings": 11018, "Yugoslavia": 11019, "Faulkner": 11020, "ya": 11021, "Ak": 11022, "EP": 11023, "mg": 11024, "à¸": 11025, "m3": 11026, "Dw": 11027, "Uy": 11028, "NF": 11029, "CG": 11030, "Æ¡": 11031, "'an": 11032, "enti": 11033, "anch": 11034, "pir": 11035, "ims": 11036, "Tow": 11037, "vig": 11038, "Rag": 11039, "Hus": 11040, "Ori": 11041, "riel": 11042, "resur": 11043, "plag": 11044, "Call": 11045, "hate": 11046, "item": 11047, "Vist": 11048, "illes": 11049, "illas": 11050, "lone": 11051, "Ford": 11052, "Bour": 11053, "leaf": 11054, "dust": 11055, "Sport": 11056, "achment": 11057, "sery": 11058, "Dub": 11059, "nove": 11060, "oko": 11061, "Mile": 11062, "ocy": 11063, "discre": 11064, "bath": 11065, "Yang": 11066, "retail": 11067, "erry": 11068, "emble": 11069, "Commer": 11070, "consin": 11071, "Mole": 11072, "Sho": 11073, "Cond": 11074, "Conne": 11075, "warn": 11076, "pines": 11077, "simpl": 11078, "wrest": 11079, "Univers": 11080, "aiman": 11081, "staged": 11082, "variable": 11083, "Imb": 11084, "Ã©d": 11085, "ginning": 11086, "pets": 11087, "Ground": 11088, "halted": 11089, "realm": 11090, "realised": 11091, "accus": 11092, "cali": 11093, "Advent": 11094, "aeus": 11095, "feared": 11096, "Pete": 11097, "arsen": 11098, "Tai": 11099, "inducted": 11100, "vices": 11101, "Aircraft": 11102, "advances": 11103, "ski": 11104, "competitive": 11105, "cope": 11106, "Montfort": 11107, "morph": 11108, "offerings": 11109, "Colomb": 11110, "releasing": 11111, "extends": 11112, "rebel": 11113, "conspir": 11114, "Medal": 11115, "1856": 11116, "1854": 11117, "cyclones": 11118, "varies": 11119, "Appe": 11120, "linear": 11121, "participants": 11122, "Earnest": 11123, "Curt": 11124, "Filming": 11125, "Luci": 11126, "Xbox": 11127, "1848": 11128, "Napo": 11129, "learns": 11130, "experts": 11131, "suspect": 11132, "limbs": 11133, "demanded": 11134, "electrical": 11135, "walks": 11136, "Official": 11137, "weakening": 11138, "defender": 11139, "Julian": 11140, "decommissioned": 11141, "Combat": 11142, "grasses": 11143, "rushed": 11144, "Senate": 11145, "spotted": 11146, "Destroy": 11147, "Defence": 11148, "collaborated": 11149, "highlighted": 11150, "governed": 11151, "improvements": 11152, "Nicholas": 11153, "Garden": 11154, "challenges": 11155, "warfare": 11156, "Liberal": 11157, "sensitive": 11158, "universal": 11159, "heritage": 11160, "Brigades": 11161, "gender": 11162, "dictator": 11163, "Represent": 11164, "Pfaster": 11165, "landscape": 11166, "therapy": 11167, "surprised": 11168, "Technology": 11169, "alternate": 11170, "helicopter": 11171, "immigrants": 11172, "saku": 11173, "microscop": 11174, "cabinet": 11175, "iveness": 11176, "cavalry": 11177, "Witchcraft": 11178, "Gladstone": 11179, "relieved": 11180, "options": 11181, "disbanded": 11182, "deliberately": 11183, "ATP": 11184, "vulner": 11185, "nephe": 11186, "movies": 11187, "acoustic": 11188, "supreme": 11189, "limestone": 11190, "BÃ¬nh": 11191, "Xook": 11192, "computers": 11193, "Dwight": 11194, "Uygh": 11195, "Æ°Æ¡": 11196, "Gabriel": 11197, "Wisconsin": 11198, "Imbudo": 11199, "Beginning": 11200, "caliber": 11201, "Napole": 11202, "KÅsaku": 11203, "nephew": 11204, "Æ°Æ¡ng": 11205, "01": 11206, "Us": 11207, "Ã±": 11208, "Gw": 11209, "Ã": 11210, "Mh": 11211, "thi": 11212, "las": 11213, "Pas": 11214, "isn": 11215, "Tit": 11216, "Ric": 11217, "Sle": 11218, "gom": 11219, "conver": 11220, "ags": 11221, "agers": 11222, "ouli": 11223, "astro": 11224, "eco": 11225, "urity": 11226, "Chi": 11227, "diary": 11228, "feud": 11229, "boil": 11230, "lando": 11231, "vous": 11232, "Action": 11233, "Lau": 11234, "compass": 11235, "intact": 11236, "beria": 11237, "Hein": 11238, "Apart": 11239, "guid": 11240, "okes": 11241, "descent": 11242, "disgu": 11243, "Site": 11244, "leans": 11245, "Tell": 11246, "atra": 11247, "ricus": 11248, "itable": 11249, "playable": 11250, "unced": 11251, "leased": 11252, "bron": 11253, "bris": 11254, "mail": 11255, "mentions": 11256, "ssing": 11257, "obsc": 11258, "ifest": 11259, "Andr": 11260, "Kick": 11261, "Level": 11262, "backs": 11263, "Note": 11264, "Dead": 11265, "Wave": 11266, "Rho": 11267, "dale": 11268, "Hoy": 11269, "ocese": 11270, "Brun": 11271, "uncle": 11272, "arrives": 11273, "heading": 11274, "wars": 11275, "Cla": 11276, "gusts": 11277, "valent": 11278, "transformed": 11279, "hyg": 11280, "unrest": 11281, "check": 11282, "promise": 11283, "Ã©e": 11284, "Stakes": 11285, "casem": 11286, "extant": 11287, "faction": 11288, "aliation": 11289, "attending": 11290, "Belt": 11291, "communist": 11292, "fortun": 11293, "subtropical": 11294, "Poet": 11295, "perception": 11296, "competed": 11297, "floods": 11298, "rape": 11299, "Blackie": 11300, "Harris": 11301, "Keys": 11302, "1894": 11303, "1898": 11304, "Bergen": 11305, "commentary": 11306, "Invest": 11307, "gotten": 11308, "estimate": 11309, "McEl": 11310, "Moro": 11311, "1881": 11312, "1880s": 11313, "tends": 11314, "outstanding": 11315, "antiqu": 11316, "1851": 11317, "dealt": 11318, "guerr": 11319, "connects": 11320, "lawyer": 11321, "declaring": 11322, "concerning": 11323, "paying": 11324, "rituals": 11325, "examined": 11326, "recognize": 11327, "Greatest": 11328, "pires": 11329, "apartment": 11330, "Energy": 11331, "diverse": 11332, "737": 11333, "divines": 11334, "portrayal": 11335, "Terry": 11336, "1832": 11337, "powder": 11338, "speculated": 11339, "Vargas": 11340, "Survi": 11341, "SMS": 11342, "crowds": 11343, "Colonies": 11344, "Members": 11345, "Todd": 11346, "thirteen": 11347, "exhibited": 11348, "dissipating": 11349, "Cloud": 11350, "Derby": 11351, "adventures": 11352, "resolved": 11353, "interpretation": 11354, "addressed": 11355, "Reviews": 11356, "altarpiece": 11357, "Strapping": 11358, "vÄda": 11359, "dancing": 11360, "comprising": 11361, "Ronald": 11362, "Paranth": 11363, "exerc": 11364, "Humpty": 11365, "PAVN": 11366, "athetic": 11367, "Brazilian": 11368, "preceding": 11369, "finger": 11370, "Darwin": 11371, "labour": 11372, "Gabbar": 11373, "Trinity": 11374, "Wallace": 11375, "cattle": 11376, "volunteers": 11377, "ecolog": 11378, "invaded": 11379, "Personal": 11380, "Katia": 11381, "Mahesh": 11382, "qualifying": 11383, "enabled": 11384, "aftermath": 11385, "Lancash": 11386, "ganelli": 11387, "abundance": 11388, "overwhelming": 11389, "Rajam": 11390, "Katherine": 11391, "Sidon": 11392, "Total": 11393, "reservoirs": 11394, "internationally": 11395, "knee": 11396, "quiet": 11397, "Puer": 11398, "Nazaire": 11399, "categories": 11400, "bishops": 11401, "liquid": 11402, "Taxonomy": 11403, "byterian": 11404, "brilliant": 11405, "khuri": 11406, "rebellion": 11407, "Âµm": 11408, "Guinea": 11409, "Retrieved": 11410, "prestig": 11411, "recreational": 11412, "Bracknell": 11413, "tawny": 11414, "Ãmar": 11415, "Mhalsa": 11416, "Montgom": 11417, "Orlando": 11418, "guidance": 11419, "rometricus": 11420, "Rhode": 11421, "McElroy": 11422, "Paranthodon": 11423, "Lancashire": 11424, "Ganganelli": 11425, "Rajamouli": 11426, "Puerto": 11427, "Nuskhuri": 11428, "Montgomery": 11429, "hygrometricus": 11430, "vy": 11431, "ED": 11432, "DR": 11433, "thet": 11434, "Wer": 11435, "Fat": 11436, "isc": 11437, "tes": 11438, "icy": 11439, "Bou": 11440, "adic": 11441, "imm": 11442, "owing": 11443, "igon": 11444, "wie": 11445, "arter": 11446, "amation": 11447, "Oct": 11448, "user": 11449, "Map": 11450, "pap": 11451, "oph": 11452, "pla": 11453, "tut": 11454, "prov": 11455, "shall": 11456, "Sem": 11457, "Llo": 11458, "coat": 11459, "1200": 11460, "export": 11461, "ipel": 11462, "Hunt": 11463, "intage": 11464, "nose": 11465, "spor": 11466, "spaw": 11467, "Gree": 11468, "desper": 11469, "usade": 11470, "eller": 11471, "eros": 11472, "olds": 11473, "Based": 11474, "brings": 11475, "tene": 11476, "mild": 11477, "Liz": 11478, "stair": 11479, "thoughts": 11480, "undergo": 11481, "inder": 11482, "genres": 11483, "wished": 11484, "relay": 11485, "105": 11486, "arose": 11487, "veloc": 11488, "oven": 11489, "venant": 11490, "envelop": 11491, "Have": 11492, "hote": 11493, "transits": 11494, "Beth": 11495, "ornam": 11496, "positioned": 11497, "tales": 11498, "counted": 11499, "batting": 11500, "adjust": 11501, "organic": 11502, "skill": 11503, "boards": 11504, "cakes": 11505, "joins": 11506, "Therefore": 11507, "Scand": 11508, "McL": 11509, "drawings": 11510, "troop": 11511, "ovil": 11512, "coaster": 11513, "Parker": 11514, "tourists": 11515, "involve": 11516, "wanting": 11517, "femin": 11518, "Sax": 11519, "sword": 11520, "destroying": 11521, "Blacks": 11522, "ambush": 11523, "zones": 11524, "1891": 11525, "mounts": 11526, "fights": 11527, "hosts": 11528, "statue": 11529, "DÃ­": 11530, "commerce": 11531, "Finn": 11532, "1882": 11533, "Symph": 11534, "Days": 11535, "commercially": 11536, "Medi": 11537, "Loren": 11538, "ministers": 11539, "interviews": 11540, "interviewed": 11541, "1865": 11542, "situations": 11543, "layers": 11544, "occupy": 11545, "supernatural": 11546, "teachings": 11547, "spective": 11548, "circular": 11549, "adopt": 11550, "reverse": 11551, "gentle": 11552, "responses": 11553, "ratio": 11554, "unexpected": 11555, "reactor": 11556, "paths": 11557, "debt": 11558, "radius": 11559, "confirm": 11560, "principle": 11561, "Quinn": 11562, "secular": 11563, "semifinals": 11564, "protesters": 11565, "diction": 11566, "invitation": 11567, "torpedoes": 11568, "farming": 11569, "weakness": 11570, "encies": 11571, "overlap": 11572, "honorary": 11573, "decrease": 11574, "scholarship": 11575, "Denmark": 11576, "platforms": 11577, "SNL": 11578, "Rafael": 11579, "witnesses": 11580, "Mariah": 11581, "pecki": 11582, "ensemble": 11583, "eleventh": 11584, "accomplished": 11585, "marched": 11586, "revolutionary": 11587, "Chronicle": 11588, "leagues": 11589, "honours": 11590, "odies": 11591, "Raymond": 11592, "transcription": 11593, "oblig": 11594, "battlecruisers": 11595, "orchestra": 11596, "hockey": 11597, "jumping": 11598, "Cadmium": 11599, "asserted": 11600, "ceratops": 11601, "astronomers": 11602, "dinosaurs": 11603, "reversed": 11604, "elevated": 11605, "acknowledged": 11606, "Cobra": 11607, "garden": 11608, "Buddhist": 11609, "alignment": 11610, "angry": 11611, "conservative": 11612, "insisted": 11613, "Jenkins": 11614, "horizon": 11615, "Terrorist": 11616, "NEA": 11617, "deGrom": 11618, "Gibson": 11619, "eliminate": 11620, "advertisements": 11621, "travelling": 11622, "Fifth": 11623, "coffee": 11624, "apolis": 11625, "Vishnu": 11626, "Battery": 11627, "hampered": 11628, "sweep": 11629, "Sulli": 11630, "impressive": 11631, "Algernon": 11632, "Fastra": 11633, "Stewie": 11634, "Llosa": 11635, "ipelago": 11636, "Montene": 11637, "velocity": 11638, "McLaren": 11639, "Yeovil": 11640, "DÃ­az": 11641, "Medieval": 11642, "Sullivan": 11643, "Nu": 11644, "IR": 11645, "Ay": 11646, "O.": 11647, "MC": 11648, "BO": 11649, "GB": 11650, "Kin": 11651, "eru": 11652, "ala": 11653, "uto": 11654, "Hit": 11655, "Hom": 11656, "iri": 11657, "cim": 11658, "Fig": 11659, "Nig": 11660, "oter": 11661, "conce": 11662, "inus": 11663, "stere": 11664, "Hem": 11665, "elong": 11666, "Ald": 11667, "beak": 11668, "haw": 11669, "unge": 11670, "entine": 11671, "avan": 11672, "gover": 11673, "istical": 11674, "aude": 11675, "lla": 11676, "iscent": 11677, "centres": 11678, "memo": 11679, "elite": 11680, "Cos": 11681, "osom": 11682, "Tra": 11683, "fric": 11684, "emark": 11685, "cease": 11686, "ivals": 11687, "Mail": 11688, "rety": 11689, "kness": 11690, "opens": 11691, "Newport": 11692, "rowing": 11693, "mede": 11694, "arriors": 11695, "founding": 11696, "twins": 11697, "125": 11698, "Inside": 11699, "117": 11700, "wift": 11701, "identical": 11702, "developments": 11703, "developer": 11704, "storage": 11705, "lacks": 11706, "Being": 11707, "Sean": 11708, "Fru": 11709, "sixty": 11710, "Fez": 11711, "desired": 11712, "Janet": 11713, "coined": 11714, "25th": 11715, "Month": 11716, "markets": 11717, "isons": 11718, "trench": 11719, "Indies": 11720, "rols": 11721, "Spir": 11722, "fears": 11723, "aided": 11724, "studios": 11725, "lostere": 11726, "barrel": 11727, "friendship": 11728, "lips": 11729, "radar": 11730, "radical": 11731, "Davies": 11732, "agrees": 11733, "Edition": 11734, "Behind": 11735, "1896": 11736, "campaigns": 11737, "Syn": 11738, "irregular": 11739, "slave": 11740, "alypt": 11741, "beltown": 11742, "Maryang": 11743, "Medical": 11744, "commentators": 11745, "staying": 11746, "bills": 11747, "Execut": 11748, "painter": 11749, "1862": 11750, "enlisted": 11751, "Private": 11752, "phosp": 11753, "participation": 11754, "blamed": 11755, "exciting": 11756, "Artist": 11757, "Glass": 11758, "antagon": 11759, "Archer": 11760, "Goat": 11761, "emotion": 11762, "winners": 11763, "confused": 11764, "attractive": 11765, "ruption": 11766, "deeply": 11767, "infected": 11768, "Artillery": 11769, "administered": 11770, "zhou": 11771, "achievement": 11772, "judo": 11773, "discovers": 11774, "frequency": 11775, "murd": 11776, "ouds": 11777, "locked": 11778, "debated": 11779, "Bobby": 11780, "Jamie": 11781, "Thompson": 11782, "targeted": 11783, "borders": 11784, "bidden": 11785, "focuses": 11786, "bourne": 11787, "bonus": 11788, "console": 11789, "awareness": 11790, "logs": 11791, "sailors": 11792, "rendition": 11793, "athletics": 11794, "vocalist": 11795, "puppet": 11796, "Pitts": 11797, "applications": 11798, "exhibit": 11799, "filed": 11800, "messages": 11801, "graduated": 11802, "emphasized": 11803, "spokes": 11804, "belonged": 11805, "proposals": 11806, "fungi": 11807, "Annals": 11808, "fairly": 11809, "Northumber": 11810, "restaurants": 11811, "gathering": 11812, "Athletics": 11813, "McNichol": 11814, "costumes": 11815, "unstable": 11816, "renov": 11817, "Bruins": 11818, "anthrop": 11819, "submarines": 11820, "spelling": 11821, "plumage": 11822, "eagle": 11823, "dawn": 11824, "Dawn": 11825, "affecting": 11826, "mutual": 11827, "recruited": 11828, "satisfied": 11829, "drugs": 11830, "corresponding": 11831, "puma": 11832, "conceived": 11833, "advocated": 11834, "exterior": 11835, "Freedom": 11836, "Durham": 11837, "gallery": 11838, "Wolfpack": 11839, "census": 11840, "persisted": 11841, "progression": 11842, "Verstap": 11843, "Aftermath": 11844, "cameras": 11845, "bombers": 11846, "merchant": 11847, "frigates": 11848, "stabil": 11849, "Magdalen": 11850, "binding": 11851, "Voyage": 11852, "dimension": 11853, "skeleton": 11854, "deputy": 11855, "Exeter": 11856, "ipedia": 11857, "definitely": 11858, "enthusi": 11859, "aggregate": 11860, "dispatched": 11861, "gospel": 11862, "comprehensive": 11863, "whatever": 11864, "borrowed": 11865, "Administration": 11866, "diversity": 11867, "Shaolin": 11868, "declaration": 11869, "fighters": 11870, "thodox": 11871, "Johann": 11872, "governing": 11873, "reminiscent": 11874, "entirety": 11875, "patrols": 11876, "Amylostere": 11877, "Campbeltown": 11878, "Executive": 11879, "Northumberland": 11880, "Verstappen": 11881, "Wikipedia": 11882, "ã": 11883, "Fi": 11884, "Bi": 11885, "FC": 11886, "TA": 11887, "Ren": 11888, "alt": 11889, "esy": 11890, "ira": 11891, "Dol": 11892, "gay": 11893, "Sri": 11894, "sures": 11895, "Mall": 11896, "lix": 11897, "proof": 11898, "dip": 11899, "Inc": 11900, "shad": 11901, "mund": 11902, "clad": 11903, "gest": 11904, "Gill": 11905, "cos": 11906, "Fear": 11907, "affir": 11908, "unta": 11909, "Kub": 11910, "Mint": 11911, "hint": 11912, "Pok": 11913, "exile": 11914, "Anim": 11915, "enable": 11916, "cable": 11917, "romance": 11918, "flown": 11919, "mining": 11920, "Away": 11921, "izong": 11922, "Sie": 11923, "Joan": 11924, "Commo": 11925, "Lein": 11926, "caps": 11927, "curity": 11928, "conven": 11929, "lift": 11930, "mills": 11931, "decis": 11932, "ruins": 11933, "overcome": 11934, "bread": 11935, "encoun": 11936, "iban": 11937, "Boat": 11938, "ashes": 11939, "Northwest": 11940, "courage": 11941, "Guth": 11942, "handle": 11943, "generate": 11944, "handling": 11945, "rounded": 11946, "nery": 11947, "Clay": 11948, "explored": 11949, "chances": 11950, "lessons": 11951, "canons": 11952, "Ingram": 11953, "Spot": 11954, "suggestion": 11955, "explaining": 11956, "Baron": 11957, "27th": 11958, "woodland": 11959, "mixing": 11960, "proxim": 11961, "ometric": 11962, "introduces": 11963, "summar": 11964, "incomplete": 11965, "Micha": 11966, "adesh": 11967, "humanity": 11968, "blacks": 11969, "boro": 11970, "ambit": 11971, "1899": 11972, "1893": 11973, "sexually": 11974, "coastline": 11975, "Magn": 11976, "Career": 11977, "knows": 11978, "statues": 11979, "saving": 11980, "Ã­n": 11981, "Others": 11982, "estimates": 11983, "acceptance": 11984, "incred": 11985, "refuses": 11986, "Tuck": 11987, "contracts": 11988, "1870": 11989, "Greater": 11990, "harsh": 11991, "conquest": 11992, "corrid": 11993, "1874": 11994, "formula": 11995, "poetic": 11996, "productive": 11997, "issart": 11998, "Moritz": 11999, "Southeast": 12000, "confidence": 12001, "pike": 12002, "guitarist": 12003, "subjected": 12004, "holes": 12005, "rifles": 12006, "tennis": 12007, "migration": 12008, "Soviets": 12009, "Engineers": 12010, "mistaken": 12011, "intervention": 12012, "ordinate": 12013, "eighteen": 12014, "symbols": 12015, "foxes": 12016, "focusing": 12017, "breeds": 12018, "prompting": 12019, "expeditions": 12020, "attendance": 12021, "decoration": 12022, "othy": 12023, "Wells": 12024, "Regiments": 12025, "Classic": 12026, "Syria": 12027, "witnessed": 12028, "synthesis": 12029, "Murphy": 12030, "Bloom": 12031, "framework": 12032, "IAAF": 12033, "Rowley": 12034, "ECU": 12035, "instrumental": 12036, "ozong": 12037, "fertil": 12038, "MDOT": 12039, "Marshal": 12040, "demonstration": 12041, "usader": 12042, "Cruiser": 12043, "listeners": 12044, "explosive": 12045, "arguments": 12046, "tzow": 12047, "Savage": 12048, "exercise": 12049, "fantasy": 12050, "implemented": 12051, "disabled": 12052, "deposits": 12053, "playoffs": 12054, "Ellis": 12055, "samples": 12056, "welcome": 12057, "answer": 12058, "Copia": 12059, "weighed": 12060, "abundant": 12061, "overwhelmed": 12062, "fossil": 12063, "armoured": 12064, "Electronic": 12065, "nickname": 12066, "alliance": 12067, "Joshua": 12068, "Carlos": 12069, "labeled": 12070, "interrupted": 12071, "turbines": 12072, "Underneath": 12073, "scores": 12074, "naturally": 12075, "totally": 12076, "Aldean": 12077, "Dumpty": 12078, "UNES": 12079, "obstacles": 12080, "descriptions": 12081, "Importance": 12082, "Brethren": 12083, "elephant": 12084, "nearest": 12085, "Chanology": 12086, "Hairan": 12087, "reporter": 12088, "Parachute": 12089, "stingray": 12090, "oribi": 12091, "Bhairava": 12092, "sanctuary": 12093, "Tzu": 12094, "Ceme": 12095, "Hakim": 12096, "mmetrical": 12097, "Vistara": 12098, "Universal": 12099, "Curtis": 12100, "Napoleon": 12101, "debris": 12102, "Commodore": 12103, "Leinster": 12104, "Security": 12105, "encounters": 12106, "Guthrie": 12107, "proximity": 12108, "Gaozong": 12109, "LÃ¼tzow": 12110, "UNESCO": 12111, "Cemetery": 12112, "Cu": 12113, "kW": 12114, "á¹": 12115, "Ax": 12116, "'a": 12117, "Ã": 12118, "1.": 12119, "â": 12120, "fed": 12121, "rez": 12122, "Ral": 12123, "Was": 12124, "Fis": 12125, "Bes": 12126, "toy": 12127, "fing": 12128, "atro": 12129, "seg": 12130, "aman": 12131, "bly": 12132, "Ech": 12133, "heir": 12134, "Wol": 12135, "aya": 12136, "byn": 12137, "idan": 12138, "Pot": 12139, "rix": 12140, "uls": 12141, "utter": 12142, "itsu": 12143, "Hab": 12144, "proli": 12145, "arting": 12146, "allies": 12147, "onist": 12148, "pill": 12149, "oak": 12150, "zard": 12151, "tort": 12152, "seated": 12153, "inqu": 12154, "clone": 12155, "herb": 12156, "Rav": 12157, "overt": 12158, "alous": 12159, "epi": 12160, "compat": 12161, "cure": 12162, "eria": 12163, "ike": 12164, "oke": 12165, "Agr": 12166, "gence": 12167, "accent": 12168, "oca": 12169, "spite": 12170, "Than": 12171, "Any": 12172, "formations": 12173, "Unit": 12174, "sheet": 12175, "cket": 12176, "okie": 12177, "phere": 12178, "indo": 12179, "teles": 12180, "retro": 12181, "umble": 12182, "sick": 12183, "Leo": 12184, "ilyn": 12185, "curren": 12186, "curve": 12187, "Newfound": 12188, "insult": 12189, "unning": 12190, "129": 12191, "pointing": 12192, "Toy": 12193, "hatch": 12194, "Brand": 12195, "pedition": 12196, "blan": 12197, "metap": 12198, "colleg": 12199, "ggy": 12200, "cyl": 12201, "lesser": 12202, "Gaz": 12203, "provision": 12204, "counts": 12205, "Sche": 12206, "damages": 12207, "Grant": 12208, "shaft": 12209, "Mets": 12210, "remake": 12211, "Steel": 12212, "monster": 12213, "ogram": 12214, "Liam": 12215, "puts": 12216, "Normand": 12217, "fortune": 12218, "shops": 12219, "mology": 12220, "competing": 12221, "confron": 12222, "Twins": 12223, "Sword": 12224, "editions": 12225, "Harmon": 12226, "Stones": 12227, "averaged": 12228, "1892": 12229, "Palmer": 12230, "ITV": 12231, "besie": 12232, "crucial": 12233, "associate": 12234, "carriages": 12235, "slaves": 12236, "contempor": 12237, "pull": 12238, "Full": 12239, "separately": 12240, "improving": 12241, "specialized": 12242, "donations": 12243, "Chuck": 12244, "maternal": 12245, "52nd": 12246, "42nd": 12247, "avia": 12248, "reliable": 12249, "relied": 12250, "practical": 12251, "1859": 12252, "Loch": 12253, "Market": 12254, "Monica": 12255, "stopping": 12256, "Helen": 12257, "considerably": 12258, "Jerry": 12259, "preventing": 12260, "carnation": 12261, "frustr": 12262, "Notable": 12263, "Turkey": 12264, "Carroll": 12265, "transmitted": 12266, "Mrs": 12267, "kinds": 12268, "streams": 12269, "igging": 12270, "suspected": 12271, "advantages": 12272, "consequence": 12273, "expanding": 12274, "Doctor": 12275, "principles": 12276, "Outside": 12277, "Officer": 12278, "Julio": 12279, "lifted": 12280, "placements": 12281, "journalists": 12282, "phylo": 12283, "Constantin": 12284, "favourite": 12285, "dining": 12286, "dinand": 12287, "Archbishop": 12288, "mortal": 12289, "imagination": 12290, "organisations": 12291, "Flair": 12292, "Flying": 12293, "minerals": 12294, "nineteenth": 12295, "reflects": 12296, "Europium": 12297, "intersections": 12298, "challenged": 12299, "maps": 12300, "Basement": 12301, "orange": 12302, "passenger": 12303, "deciding": 12304, "remixes": 12305, "rosaurus": 12306, "Muham": 12307, "Liberty": 12308, "Adrian": 12309, "SEC": 12310, "cooking": 12311, "strikeouts": 12312, "Fountain": 12313, "instrumentation": 12314, "Relig": 12315, "cena": 12316, "Half": 12317, "Pesh": 12318, "otype": 12319, "Subsequently": 12320, "princess": 12321, "Cruise": 12322, "NOK": 12323, "keeper": 12324, "Okee": 12325, "summary": 12326, "Cadets": 12327, "Diamond": 12328, "crafts": 12329, "'inich": 12330, "portraits": 12331, "persuaded": 12332, "Lithuania": 12333, "Thailand": 12334, "mammal": 12335, "Rapids": 12336, "Confession": 12337, "Biography": 12338, "chobee": 12339, "Generation": 12340, "Ingrid": 12341, "Warrior": 12342, "Urban": 12343, "constitutional": 12344, "Judith": 12345, "excellent": 12346, "Observer": 12347, "likewise": 12348, "barely": 12349, "Rebbie": 12350, "retreated": 12351, "phenomenon": 12352, "drafted": 12353, "Crimson": 12354, "redesign": 12355, "external": 12356, "ANZ": 12357, "dispersed": 12358, "Industrial": 12359, "Domnall": 12360, "attorney": 12361, "fierce": 12362, "Kaiman": 12363, "Adventures": 12364, "Orleans": 12365, "ÄdvÄda": 12366, "Saigon": 12367, "Saxon": 12368, "Lorenzo": 12369, "â": 12370, "Ralph": 12371, "segments": 12372, "Robyn": 12373, "Starting": 12374, "Marilyn": 12375, "Newfoundland": 12376, "Expedition": 12377, "Ferdinand": 12378, "Peshkin": 12379, "Okeechobee": 12380, "ANZAC": 12381, "Kaimanawa": 12382, "Hi": 12383, "Zo": 12384, "Ag": 12385, "FO": 12386, "anx": 12387, "oon": 12388, "Rat": 12389, "Dal": 12390, "Mas": 12391, "uing": 12392, "inge": 12393, "jing": 12394, "nit": 12395, "thro": 12396, "ila": 12397, "adh": 12398, "ams": 12399, "oment": 12400, "Lim": 12401, "fus": 12402, "apes": 12403, "Yet": 12404, "opy": 12405, "aba": 12406, "probe": 12407, "Fund": 12408, "onso": 12409, "tong": 12410, "bast": 12411, "Past": 12412, "Ward": 12413, "oder": 12414, "mood": 12415, "odor": 12416, "gear": 12417, "arya": 12418, "dug": 12419, "utical": 12420, "dign": 12421, "aux": 12422, "hence": 12423, "guit": 12424, "rescent": 12425, "modes": 12426, "Chile": 12427, "Doc": 12428, "ulty": 12429, "Thing": 12430, "Sincl": 12431, "enos": 12432, "inspe": 12433, "nance": 12434, "lance": 12435, "bold": 12436, "Winter": 12437, "athy": 12438, "mals": 12439, "jail": 12440, "itted": 12441, "oret": 12442, "Cry": 12443, "berry": 12444, "ensed": 12445, "Comair": 12446, "chann": 12447, "toire": 12448, "Ansel": 12449, "Lead": 12450, "arma": 12451, "thereby": 12452, "venom": 12453, "Comics": 12454, "Deal": 12455, "Moving": 12456, "parade": 12457, "Hond": 12458, "hide": 12459, "urbed": 12460, "millions": 12461, "Beat": 12462, "tune": 12463, "Former": 12464, "Mayor": 12465, "milk": 12466, "Marc": 12467, "sink": 12468, "thread": 12469, "carto": 12470, "Flet": 12471, "Boom": 12472, "distort": 12473, "characterised": 12474, "delight": 12475, "topic": 12476, "latest": 12477, "timately": 12478, "cuts": 12479, "Manor": 12480, "Plat": 12481, "gains": 12482, "penal": 12483, "explan": 12484, "traders": 12485, "Adri": 12486, "Trade": 12487, "distribut": 12488, "everyday": 12489, "Easter": 12490, "Charan": 12491, "sitcom": 12492, "Eps": 12493, "depends": 12494, "fails": 12495, "kitch": 12496, "register": 12497, "relax": 12498, "Monument": 12499, "Mothers": 12500, "ambia": 12501, "Walk": 12502, "1890s": 12503, "villain": 12504, "Berg": 12505, "Information": 12506, "connect": 12507, "reopened": 12508, "breakdown": 12509, "bull": 12510, "specially": 12511, "1888": 12512, "flower": 12513, "355": 12514, "Commandments": 12515, "harvest": 12516, "Barnes": 12517, "Indol": 12518, "Capital": 12519, "1863": 12520, "sometime": 12521, "solita": 12522, "blockade": 12523, "1877": 12524, "1836": 12525, "Emma": 12526, "kamed": 12527, "comparing": 12528, "hopes": 12529, "reserves": 12530, "contrac": 12531, "swept": 12532, "Beyond": 12533, "throws": 12534, "scenario": 12535, "fying": 12536, "Sarah": 12537, "enhan": 12538, "escapes": 12539, "demanding": 12540, "convey": 12541, "investigate": 12542, "diseases": 12543, "Candid": 12544, "Metall": 12545, "Casting": 12546, "worthy": 12547, "rumors": 12548, "incorporates": 12549, "Intellig": 12550, "securing": 12551, "Thunderbird": 12552, "agreements": 12553, "Large": 12554, "mechanism": 12555, "unsuccessfully": 12556, "Historical": 12557, "supplied": 12558, "articles": 12559, "recalls": 12560, "Truth": 12561, "Karl": 12562, "branches": 12563, "Chemical": 12564, "Aires": 12565, "Nicholson": 12566, "978": 12567, "livestock": 12568, "Cuba": 12569, "Mrs.": 12570, "remnant": 12571, "sweet": 12572, "canceled": 12573, "Ferry": 12574, "spaced": 12575, "waste": 12576, "downloadable": 12577, "demographic": 12578, "achievements": 12579, "dads": 12580, "Leonardo": 12581, "correspondence": 12582, "disrupt": 12583, "hemmem": 12584, "filtr": 12585, "Mitsu": 12586, "Present": 12587, "remote": 12588, "Pione": 12589, "hiatus": 12590, "Durand": 12591, "Hospit": 12592, "Escape": 12593, "ROK": 12594, "contributions": 12595, "agencies": 12596, "ivorous": 12597, "tributary": 12598, "eratops": 12599, "Barbara": 12600, "A.V.": 12601, "helicopters": 12602, "Delano": 12603, "Gothic": 12604, "Confessions": 12605, "Current": 12606, "Paralympic": 12607, "Shadow": 12608, "manufacturer": 12609, "fatalities": 12610, "terrorist": 12611, "ceiling": 12612, "descendants": 12613, "enzymes": 12614, "endolen": 12615, "Stansfield": 12616, "alphabet": 12617, "Metropolitan": 12618, "humanitarian": 12619, "concentrations": 12620, "ilogy": 12621, "Suez": 12622, "Reserve": 12623, "FITs": 12624, "restrial": 12625, "Observatory": 12626, "attributes": 12627, "chemistry": 12628, "Carty": 12629, "rhiz": 12630, "eligible": 12631, "enlarged": 12632, "precipitation": 12633, "vulnerable": 12634, "hotels": 12635, "Scandina": 12636, "trademark": 12637, "nautical": 12638, "guitars": 12639, "Sinclair": 12640, "Buenos": 12641, "mammals": 12642, "channels": 12643, "repertoire": 12644, "Anselm": 12645, "disturbed": 12646, "Indolence": 12647, "solitaire": 12648, "Arikamed": 12649, "Intelligence": 12650, "Hospitall": 12651, "Gwendolen": 12652, "Arikamedu": 12653, "Aw": 12654, "EU": 12655, "v.": 12656, "Oj": 12657, "Qi": 12658, "fth": 12659, "Kon": 12660, "sto": 12661, "Sac": 12662, "adi": 12663, "Cow": 12664, "Kay": 12665, "usa": 12666, "root": 12667, "eland": 12668, "apur": 12669, "Vet": 12670, "mos": 12671, "fab": 12672, "abad": 12673, "ipe": 12674, "anne": 12675, "Hast": 12676, "Hod": 12677, "quit": 12678, "Sour": 12679, "butter": 12680, "geo": 12681, "strain": 12682, "vine": 12683, "Cham": 12684, "boom": 12685, "assy": 12686, "pip": 12687, "Dian": 12688, "oulder": 12689, "worse": 12690, "Theater": 12691, "cream": 12692, "Eno": 12693, "ience": 12694, "meat": 12695, "fined": 12696, "sians": 12697, "worker": 12698, "icial": 12699, "suited": 12700, "alsock": 12701, "flaw": 12702, "Things": 12703, "otten": 12704, "tension": 12705, "plates": 12706, "108": 12707, "playoff": 12708, "relating": 12709, "termed": 12710, "tona": 12711, "Vari": 12712, "helor": 12713, "comics": 12714, "prolong": 12715, "122": 12716, "adds": 12717, "choos": 12718, "Mostar": 12719, "750": 12720, "ugg": 12721, "drink": 12722, "Krist": 12723, "outcome": 12724, "readily": 12725, "supports": 12726, "ibwe": 12727, "doctor": 12728, "careers": 12729, "omanry": 12730, "strained": 12731, "Megan": 12732, "alys": 12733, "keys": 12734, "creature": 12735, "thirds": 12736, "Clair": 12737, "eldest": 12738, "regulation": 12739, "runner": 12740, "nons": 12741, "extract": 12742, "idae": 12743, "output": 12744, "bush": 12745, "Rush": 12746, "Rico": 12747, "Herbert": 12748, "Musical": 12749, "graphs": 12750, "floating": 12751, "profound": 12752, "interception": 12753, "directions": 12754,
[...]
