{"vocab": {"Ð": 0, "": 1, "¸": 2, "»": 3, "-": 4, "±": 5, "Ñ": 6, "": 7, " ": 8, "": 9, "": 10, "½": 11, "¾": 12, "º": 13, "¿": 14, "¼": 15, "µ": 16, "®": 17, "": 18, "°": 19, ".": 20, "": 21, "´": 22, "¶": 23, "²": 24, "": 25, "¹": 26, "": 27, "": 28, "³": 29, "": 30, "": 31, "": 32, "¢": 33, "·": 34, ",": 35, "": 36, "": 37, "": 38, "": 39, "": 40, ":": 41, "": 42, "¡": 43, "": 44, "": 45, "": 46, "": 47, "Â": 48, "«": 49, "": 50, "!": 51, "": 52, "": 53, "": 54, "§": 55, "?": 56, "â": 57, "": 58, "=": 59, "V": 60, "a": 61, "l": 62, "k": 63, "y": 64, "r": 65, "i": 66, "C": 67, "h": 68, "o": 69, "n": 70, "c": 71, "e": 72, "s": 73, "I": 74, "S": 75, "j": 76, "Å": 77, "": 78, "3": 79, "<": 80, "u": 81, ">": 82, "(": 83, "J": 84, "p": 85, "æ": 86, "¦": 87, "å": 88, " ": 89, "ã": 90, "­": 91, "¥": 92, "ª": 93, "t": 94, "f": 95, "B": 96, "d": 97, ")": 98, "m": 99, "@": 100, "g": 101, "v": 102, "b": 103, "M": 104, "P": 105, "R": 106, "2": 107, "0": 108, "1": 109, "w": 110, "\"": 111, "N": 112, "G": 113, "E": 114, "W": 115, "T": 116, "H": 117, "O": 118, "z": 119, "A": 120, "'": 121, "x": 122, "D": 123, "4": 124, "q": 125, "U": 126, "K": 127, "F": 128, ";": 129, "L": 130, "Y": 131, "7": 132, "5": 133, "X": 134, "Z": 135, "9": 136, "8": 137, "Ã": 138, "$": 139, "6": 140, "[": 141, "]": 142, "/": 143, "&": 144, "": 145, "Q": 146, "£": 147, "¤": 148, "~": 149, "%": 150, "+": 151, "#": 152, "á": 153, "¯": 154, "Î": 155, "©": 156, "Ä": 157, "à": 158, "": 159, "^": 160, "*": 161, "": 162, "¨": 163, "Ø": 164, "Ù": 165, "¬": 166, "ç": 167, "Ì": 168, "Ê": 169, "\\": 170, "`": 171, "Æ": 172, "|": 173, "é": 174, "": 175, "ï": 176, "␣": 177, "␤": 178, "�": 179, " Ð": 180, "Ð¾": 181, "Ð°": 182, "Ð»": 183, "Ðµ": 184, "Ð½": 185, "Ñ": 186, "Ñ": 187, "Ñ": 188, " t": 189, "Ð¸": 190, "Ð¾Ð": 191, " Ð¿": 192, "he": 193, "Ñ": 194, " a": 195, " Ð¿Ð¾": 196, "in": 197, "Ñ": 198, "Ð´": 199, "Ñ": 200, "Ñ": 201, " the": 202, " Ñ": 203, "Ð°Ð»": 204, "Ñ": 205, "Ð¼": 206, "er": 207, " Ð¸": 208, "Ñ": 209, "on": 210, " Ð²": 211, " ,": 212, " Ð¾": 213, "re": 214, "Ðº": 215, " s": 216, " o": 217, " w": 218, "ed": 219, " Ð´": 220, "un": 221, "Ð¿": 222, " .": 223, " Ðº": 224, "Ð½Ð°": 225, "at": 226, " Ð¿Ð¾Ñ": 227, "nd": 228, "ÐµÐ½": 229, "ÑÐ»": 230, "or": 231, " c": 232, "it": 233, "Ð²": 234, "ÑÑ": 235, " f": 236, "ÐµÑ": 237, " Ð¾Ð½": 238, " Ð¿Ð¾ÑÑÐ»": 239, "ÐµÑ": 240, "en": 241, "is": 242, "Ð¾Ð¼": 243, "Ð¶": 244, " of": 245, " Ð½": 246, "es": 247, " b": 248, " in": 249, "ar": 250, "Ð¸Ð»": 251, "unk": 252, "an": 253, " <": 254, "unk>": 255, " <unk>": 256, "Ð¹": 257, "al": 258, "Ð°Ð»ÑÑ": 259, "ÑÑ": 260, " and": 261, " p": 262, "Ð±": 263, "Ð°Ð»Ð°": 264, "ing": 265, "Ð°Ð¼": 266, "as": 267, "Ð¾Ð½": 268, " to": 269, "ÐºÐ°": 270, "Ñ": 271, "ÑÐ°": 272, " Ð³": 273, " m": 274, "ro": 275, "ÑÐ¹": 276, "ic": 277, " Ð¢": 278, "ÑÐ": 279, "ÑÐ»": 280, " Ð½Ð¾": 281, "ÑÑÑ": 282, " d": 283, "Ð¾Ð»": 284, "ÐµÐ½Ð¸": 285, " h": 286, "ion": 287, "Ð¾Ð±": 288, " Ñ": 289, " Ð¿Ð¾Ñ": 290, " Ð": 291, "Ð´Ñ": 292, "Ð¾Ñ": 293, " Ñ": 294, "le": 295, " T": 296, "Ð¾Ðº": 297, "Ð": 298, "ÑÐ»": 299, "ÑÐ´": 300, " Ð¸Ñ": 301, " Ð¸Ð¼": 302, " Ð²Ð¿": 303, "Ð´Ð½Ð°": 304, " ÑÐ½Ð°": 305, " Ð´ÐµÐ½": 306, "Ð¸Ð»-": 307, "Ð°Ð»Ð°,": 308, " Ð¢Ð°Ð¼": 309, "Ð¿ÑÐ": 310, "Ð±ÑÐ»": 311, " ÑÐ¾Ð±": 312, " Ð¿Ð¾ÑÐ¾Ð¼": 313, "Ð¶Ð´Ñ": 314, " Ð³ÑÐ»": 315, "ÐµÑÑÐ´": 316, " Ð¸Ð¼ÐµÐ½Ð¸": 317, " ÐÐ´Ð½Ð°": 318, " ÑÐ½Ð°Ñ": 319, " Ð´ÐµÐ½Ñ": 320, "ÐÐ¸Ð»-": 321, " Ð¸ÑÐ¿ÑÐ": 322, " ÑÐ¾Ð±Ñ": 323, " Ð³ÑÐ»ÑÑÑ": 324, " Ð²Ð¿ÐµÑÑÐ´": 325, " ÐÐ´Ð½Ð°Ð¶Ð´Ñ": 326, " ÑÐ½Ð°ÑÐ°Ð»Ð°,": 327, "ÐÐ¸Ð»-Ð±ÑÐ»": 328, " Ð¸ÑÐ¿ÑÐ³": 329, " Ð²Ð¿ÐµÑÑÐ´.": 330, "Ð·": 331, "ÐµÑ": 332, "ÑÑ": 333, " =": 334, " Ð±": 335, " re": 336, "Ð¾Ð¶": 337, " \"": 338, " th": 339, "Ñ": 340, "ent": 341, "ou": 342, " A": 343, " ÑÐ¾Ð±ÑÐ°Ð»ÑÑ": 344, " Ð¸ÑÐ¿ÑÐ³Ð°Ð»ÑÑ": 345, " Ð¼": 346, " 1": 347, "ÑÐ°": 348, "il": 349, " S": 350, "st": 351, " l": 352, "om": 353, " e": 354, "Ðµ.": 355, " n": 356, " @": 357, "am": 358, " C": 359, "el": 360, "ÐµÑ": 361, "ÑÑÑ": 362, " Ð": 363, "Ð¾Ð´": 364, "Ð¾ÑÐ°": 365, "ad": 366, " was": 367, "Ð¾Ñ": 368, " Ð": 369, "Ð²Ð°": 370, "ac": 371, " Ð": 372, " Ð¡": 373, " The": 374, "Ð½ÑÐ¹": 375, "Ð¾Ð½ÐµÑ": 376, " ÐÐ¾Ð½ÐµÑ": 377, " ÐÐ¾Ð½ÐµÑ.": 378, "ÐºÐ°Ð·": 379, " Ð¼Ð°Ð¼": 380, " on": 381, " be": 382, "ur": 383, "ly": 384, " M": 385, " '": 386, " I": 387, " g": 388, "ÐµÑ": 389, "ÐµÐ»": 390, " for": 391, "iv": 392, "ol": 393, "ter": 394, " B": 395, "-@": 396, " @-@": 397, "im": 398, "id": 399, "ir": 400, "Ð¼Ð°": 401, "ÑÐ¾": 402, " as": 403, " ÐºÐ¾Ñ": 404, "ÑÑ": 405, "ct": 406, " Ð´Ñ": 407, " Ð´Ð¾Ð¶": 408, " Ð´Ð¾Ð¶Ð´": 409, "ÑÐ»": 410, "ig": 411, "Ð¸Ð²": 412, "th": 413, " Ð": 414, "Ð¸.": 415, "Ñ.": 416, "ow": 417, "ith": 418, " st": 419, " H": 420, "us": 421, " 2": 422, "Ð¸Ðº": 423, "ay": 424, " that": 425, " with": 426, " 's": 427, "her": 428, "ot": 429, "ce": 430, "ver": 431, "ut": 432, "ation": 433, "et": 434, "Ð¸Ð»Ð°": 435, "Ð°Ð´": 436, "Ð°Ð´Ð°": 437, " is": 438, " Ð»": 439, " P": 440, " Ð": 441, " wh": 442, "Ð¸ÐºÐ°": 443, "ch": 444, " by": 445, " R": 446, "ÐµÐ¶": 447, "ÐºÐ¾": 448, "Ð¾Ð»Ñ": 449, " ÐºÑÑÑ": 450, "ÐµÐ´": 451, " )": 452, "ÑÐ°Ñ": 453, " (": 454, " al": 455, " Ð³Ñ": 456, " F": 457, " D": 458, " con": 459, "em": 460, "ul": 461, "ÑÑÑ": 462, "ÐºÐ°Ð·Ð°Ð»Ð°": 463, "Ð½Ð¾Ðº": 464, " W": 465, " at": 466, "Ð¸Ð»Ð°": 467, "ÑÑ": 468, "ÑÐ²Ð°": 469, "Ð¾Ð½Ð¾Ðº": 470, " it": 471, "®ÑÐ°": 472, "ÑÑ": 473, " 19": 474, "and": 475, "Ð¸Ð¼Ð°": 476, " ÐÐ¸Ð»Ð°": 477, " Â": 478, "ain": 479, " ÐÑÐ²Ð°": 480, " ÐÑÑ": 481, " ÐÐ°Ð´Ð°": 482, "rom": 483, " ÐÐ¸ÐºÐ°": 484, "ÑÐ¾Ñ": 485, "ÑÐ¾": 486, "ÑÐ¾ÑÐ¾Ñ": 487, " ÐÐ¾ÑÐ°": 488, " Ð®ÑÐ°": 489, "os": 490, " N": 491, " an": 492, " Ð¢Ð¾ÑÐ°": 493, " Ð¡Ð¸Ð¼Ð°": 494, " G": 495, " ÐÑÐ¾ÑÐ¾Ñ": 496, " Ð": 497, " Ð¿Ð¾Ð½": 498, " Ð¿Ð¾Ñ": 499, " ÑÐ¼": 500, "ÐµÑ": 501, " Ð¾Ð½Ð¸": 502, "ÑÐ·": 503, "ÑÐ»Ð¸": 504, " Ð±Ñ": 505, "ÑÑ": 506, "Ð²Ð°ÐµÑ": 507, "Ð¼Ð¸.": 508, " ÑÐ¾Ð»Ñ": 509, " Ð¿Ð¾Ð½ÑÐ»": 510, " ÑÐ¼ÐµÐ»": 511, " ÑÐµÑ": 512, " Ð´ÑÑÐ·": 513, " Ð±ÑÐ»Ð¸": 514, "ÑÑ.": 515, " Ð±ÑÐ²Ð°ÐµÑ": 516, "ÑÑÐ¼Ð¸.": 517, " ÑÐ¾Ð»ÑÐºÐ¾": 518, " ÑÐ¼ÐµÐ»ÑÑ.": 519, " Ð´ÑÑÐ·ÑÑÐ¼Ð¸.": 520, " L": 521, "ÑÐ½": 522, "ÑÐ¸": 523, " Ð¿Ñ": 524, "Ñ,": 525, " Ð¾Ð¿": 526, "Ð¶Ðµ": 527, " Ð½Ðµ": 528, " Ð¾Ð±": 529, " ÐÐ°": 530, " Ð³ÑÑÑÑ": 531, "ÑÐ°ÑÐ½": 532, " Ð¿ÑÑÐ¸": 533, " Ð´Ð¾Ð¶Ð´Ñ,": 534, " Ð¾Ð¿ÑÑÑ": 535, " ÑÐ¶Ðµ": 536, " Ð¾Ð±ÑÐ°ÑÐ½": 537, " Ð¾Ð±ÑÐ°ÑÐ½Ð¾Ð¼": 538, "ers": 539, " he": 540, "».": 541, "«Ð": 542, "!Â": 543, "Ðµ,": 544, "ÐµÑÐ¾Ð¼": 545, "Ð¾Ð»": 546, "Ð¾Ð´ÐµÑ": 547, " Ð¼Ð°Ð¼Ð°": 548, " Ð²ÑÑ": 549, " ÐÐµÑ": 550, " ÑÐ°Ñ": 551, " ÑÐºÐ°Ð·Ð°Ð»Ð°": 552, " Â«Ð": 553, "!Â».": 554, " Ð¼Ð°Ð¼Ðµ,": 555, "Ð¾Ð»Ð¾Ð´ÐµÑ": 556, " ÐÐµÑÐµÑÐ¾Ð¼": 557, " ÑÐ°ÑÑ": 558, " ÑÐºÐ°Ð·Ð°Ð»Ð°:": 559, " Â«ÐÐ¾Ð»Ð¾Ð´ÐµÑ": 560, " Â«ÐÐ¾Ð»Ð¾Ð´ÐµÑ!Â».": 561, " Ð¶": 562, "ÑÑ": 563, " Ð¶Ð¸Ð²": 564, " Ð¶Ð¸Ð²ÑÑ": 565, "est": 566, " â": 567, "ag": 568, "av": 569, "00": 570, " J": 571, " Ð½Ð°": 572, " se": 573, "um": 574, " â": 575, " de": 576, "Ð½Ðµ.": 577, "ÐµÑÐµ": 578, " his": 579, " r": 580, " from": 581, "od": 582, " Ð¿Ð¾Ð½ÑÐ»:": 583, "Ð¸Ð».": 584, " Ð³ÑÑÑÑÐ¸Ð».": 585, "ÐºÐ°Ð·Ð°Ð»": 586, " ÑÐ°ÑÑÐºÐ°Ð·Ð°Ð»": 587, "Ð¾ÑÑÐ¹": 588, " ÐºÐ¾ÑÐ¾ÑÑÐ¹": 589, " O": 590, "ri": 591, " com": 592, " E": 593, "pe": 594, " ÑÐ¾Ñ": 595, " ÑÐ¾ÑÐ¾Ðº": 596, "Ð»Ð°": 597, " Ð·": 598, "und": 599, " ÑÑ": 600, " Ð¸Ð·": 601, "ist": 602, " pro": 603, "ÐµÐ½Ð¸Ðµ": 604, "Ñ": 605, "if": 606, "ld": 607, "ere": 608, "ies": 609, "ort": 610, " v": 611, "res": 612, "Ð¾Ð¿": 613, "ÑÑ": 614, " Ð¾Ð½Ð°": 615, " Ð¿Ð¾ÑÐ»Ð°": 616, "Ð°Ð»Ð°ÑÑ": 617, "ÑÐ¸Ðº": 618, " su": 619, "ore": 620, " were": 621, "ill": 622, " In": 623, "ap": 624, "ong": 625, "ew": 626, "op": 627, "igh": 628, " Ð´Ñ": 629, " Ð´ÑÐ±": 630, "Ð°Ñ": 631, "ich": 632, " or": 633, "ate": 634, "art": 635, "all": 636, "ard": 637, " Ñ": 638, "ak": 639, " ch": 640, "ÐµÑ": 641, "ber": 642, "Ð¸ÑÑ": 643, " Ð»Ð¸ÑÑ": 644, "Ð¾Ð½Ð¾Ð¶": 645, " ÑÐ¾ÑÐ¾ÐºÐ¾Ð½Ð¾Ð¶": 646, "ame": 647, " ÐºÐ¾ÑÑ": 648, " ex": 649, "gh": 650, "ab": 651, "ÐºÐ¾Ð½": 652, " Ð´ÑÐ°": 653, " Ð´ÑÐ°ÐºÐ¾Ð½": 654, "Ð°Ð¹": 655, " Ð·Ð°Ð¹": 656, " Ð·Ð°Ð¹Ñ": 657, "ud": 658, " Ð²Ð¾Ñ": 659, " Ð²Ð¾ÑÐ¾Ð±": 660, " pl": 661, "se": 662, "ated": 663, "Ð²ÐµÐ¶": 664, " Ð¼ÐµÐ´": 665, " Ð¼ÐµÐ´Ð²ÐµÐ¶": 666, "ant": 667, "ity": 668, "Ð¾Ð²": 669, " Ðµ": 670, " ÐµÑÑÑ": 671, "ÑÐ»": 672, "ÑÑ": 673, " Ð¿ÐµÐ½Ð¸Ðµ": 674, " ÐºÑÑÑÐ¾Ð²": 675, " ÑÑÐ»": 676, " ÐºÑÑÑÐ¾Ð².": 677, " ÑÑÐ»ÑÑ": 678, " Ñ": 679, " ÑÐ¶": 680, " Ð²ÑÑ": 681, "ÑÐµÑ": 682, " Ð´ÑÐ¾Ð¶": 683, " Ð²ÑÑÑÐµÑ": 684, " are": 685, " Ð´Ð¾Ð¶Ð´Ð»": 686, "Ð¸Ð²ÑÐ¹": 687, " Ð´Ð¾Ð¶Ð´Ð»Ð¸Ð²ÑÐ¹": 688, "ÑÐ¿": 689, "Ð»ÑÐ¹": 690, " ÑÑÐ¿": 691, " ÑÑÐ¿Ð»ÑÐ¹": 692, " Ð¿Ð¾ÑÐµÑ": 693, " Ð¿Ð¾ÑÐµÑÑÐ»": 694, "Ñ:": 695, "ÑÐ²": 696, "ÐµÑ:": 697, " ÐÐ¾Ð¿": 698, "ÑÐ¾Ñ:": 699, " ÐÑÐ²": 700, " ÐÐ¾Ð¿ÑÐ¾Ñ:": 701, " ÐÑÐ²ÐµÑ:": 702, " ÑÑ": 703, "Ð½Ð½ÑÐ¹": 704, " ÑÑÐ¼Ð°": 705, " ÑÑÐ¼Ð°Ð½Ð½ÑÐ¹": 706, "oc": 707, " ÑÐ½": 708, "ÐµÐ¶Ð½ÑÐ¹": 709, " ÑÐ½ÐµÐ¶Ð½ÑÐ¹": 710, " ÑÐ¾Ð»": 711, "Ð½ÐµÑ": 712, " ÑÐ¾Ð»Ð½ÐµÑ": 713, " ÑÐ¾Ð»Ð½ÐµÑÐ½ÑÐ¹": 714, "ive": 715, "Ð¾Ð¼.": 716, " Ð¿Ð¾Ð´": 717, " Ð½Ð°Ñ": 718, " ÐºÑÑÑÐ¾Ð¼.": 719, "Ð»Ðµ": 720, "Ð¸Ðµ": 721, "Ð¸Ð´": 722, " ÑÐ²": 723, "Ð´Ñ,": 724, " Ð²Ð¾Ð´": 725, " Ð²ÐµÐ´": 726, "ÑÑ": 727, " ÑÐ»Ðµ": 728, "Ð¸Ð´ÐµÐ»": 729, " Ð²Ð¾Ð´Ðµ.": 730, " Ð²ÐµÐ´ÑÑ": 731, " ÑÐ»ÐµÐ´Ñ,": 732, " ÑÐ²Ð¸Ð´ÐµÐ»": 733, " Ð²ÐµÐ´ÑÑÐ¸Ðµ": 734, "ess": 735, "qu": 736, " sh": 737, " had": 738, " k": 739, "ack": 740, " Ð»Ð¸ÑÑÐ½Ð¾Ðº": 741, " ÑÐ¾ÑÐ¾ÐºÐ¾Ð½Ð¾Ð¶ÐºÐ°": 742, " which": 743, " ÐºÐ¾ÑÑÐ½Ð¾Ðº": 744, " Ð´ÑÐ°ÐºÐ¾Ð½ÑÐ¸Ðº": 745, "ÐµÐ¹": 746, " Ð²Ð¾ÑÐ¾Ð±ÐµÐ¹": 747, " Ð·Ð°Ð¹ÑÐ¾Ð½Ð¾Ðº": 748, "up": 749, " Ð¼ÐµÐ´Ð²ÐµÐ¶Ð¾Ð½Ð¾Ðº": 750, " U": 751, " ÑÐ¶Ð¸Ðº": 752, " ÑÑÐ»ÑÑÐ°Ð»": 753, "Ð°Ð».": 754, " Ð²ÑÑÑÐµÑÐ¸Ð»": 755, " Ð´ÑÐ¾Ð¶Ð°Ð».": 756, "red": 757, " y": 758, " Ð½Ð°ÑÑÐ»": 759, " K": 760, " â": 761, " le": 762, "ov": 763, "our": 764, " not": 765, "ast": 766, "ment": 767, "ip": 768, " St": 769, "rit": 770, "ord": 771, "ear": 772, "pt": 773, "Ð²Ð½Ðµ.": 774, " Ð´ÐµÑÐµ": 775, " Ð´ÐµÑÐµÐ²Ð½Ðµ.": 776, " tr": 777, " Ð¿ÐµÑ": 778, "ÐµÑ": 779, " Ð¿ÐµÑÐµÑ": 780, " Ð¿ÐµÑÐµÑÐµ.": 781, "ge": 782, "ally": 783, "ian": 784, "ther": 785, "ost": 786, " ÑÑÐ°Ñ": 787, " ÑÑÐ°ÑÐ¾Ð¼": 788, " Ð±Ð¾Ð»": 789, " Ð±Ð¾Ð»Ð¾Ñ": 790, "ine": 791, "ave": 792, " Ð¿Ð¾Ð»": 793, "ÑÐ½Ðµ.": 794, " Ð¿Ð¾Ð»ÑÐ½Ðµ.": 795, "Ð¾Ð»Ð¼": 796, " Ñ": 797, " ÑÐ¾Ð»Ð¼": 798, "ight": 799, " Ð»ÐµÑ": 800, " Ð»ÐµÑÑ.": 801, "oun": 802, "Ð³": 803, "ÐµÐº": 804, " Ð±ÐµÑÐµ": 805, "Ð³Ñ": 806, " ÑÐµÐº": 807, " Ð±ÐµÑÐµÐ³Ñ": 808, " ÑÐµÐºÐ¸.": 809, "ell": 810, " 3": 811, "ish": 812, "cl": 813, "ary": 814, " Ch": 815, " 200": 816, "ust": 817, "irst": 818, "ia": 819, " ;": 820, "pp": 821, "te": 822, " comp": 823, " their": 824, " but": 825, "cc": 826, "so": 827, " ÑÐ°": 828, "ction": 829, "fter": 830, "ÑÐ¾": 831, " first": 832, "ous": 833, "ure": 834, " its": 835, "ould": 836, "ra": 837, " â": 838, "ide": 839, " whe": 840, " cont": 841, " ar": 842, "ue": 843, "ical": 844, "ome": 845, " un": 846, "wo": 847, "og": 848, "hed": 849, " 20": 850, " :": 851, "ial": 852, "ub": 853, "ie": 854, " Ð¸ÑÐ¿ÑÐ³Ð°Ð»Ð°ÑÑ": 855, " ÑÐ¾Ð±ÑÐ°Ð»Ð°ÑÑ": 856, " her": 857, " Ð´ÑÐ±Ñ.": 858, " ÑÑÐ°ÑÐ¾Ð¼Ñ": 859, " also": 860, " ÑÐ¾Ð»Ð¼Ñ.": 861, "ition": 862, " Ð±Ð¾Ð»Ð¾ÑÑ.": 863, " ro": 864, " int": 865, " V": 866, "own": 867, " cl": 868, "ater": 869, "out": 870, "ign": 871, " us": 872, "orm": 873, "ork": 874, " ab": 875, " ad": 876, "ok": 877, "ff": 878, "per": 879, " have": 880, "age": 881, "ru": 882, "ire": 883, " He": 884, " one": 885, "ass": 886, "Ð´Ð¾": 887, "Ð´Ð¾ÑÑÑ": 888, " has": 889, " rec": 890, "low": 891, "mer": 892, "ime": 893, " been": 894, " two": 895, " 4": 896, "du": 897, " res": 898, " Th": 899, " 18": 900, ".@": 901, " @.@": 902, " per": 903, "ond": 904, " 5": 905, "ree": 906, " bo": 907, " who": 908, "ence": 909, "uring": 910, "ough": 911, "land": 912, "ted": 913, " ÐÐ¸Ð»Ð°.": 914, " this": 915, "are": 916, " bec": 917, "ile": 918, "ÐºÐ°,": 919, "ry": 920, " ÐÑÐ²Ð°.": 921, " ÐÐ°Ð´Ð°.": 922, "pl": 923, "ory": 924, " ÐÑÑ.": 925, "ance": 926, "ugh": 927, " It": 928, "ect": 929, " Ð®ÑÐ°.": 930, " ÐÐ¾ÑÐ°.": 931, " ÐÐ¸ÐºÐ°.": 932, "ans": 933, " sc": 934, " play": 935, " Al": 936, " Ð¡Ð¸Ð¼Ð°.": 937, " they": 938, "clud": 939, " year": 940, " Ð¢Ð¾ÑÐ°.": 941, " 201": 942, " part": 943, " ag": 944, "ade": 945, " ÐÑÐ¾ÑÐ¾Ñ.": 946, " des": 947, "ations": 948, " man": 949, "ric": 950, " other": 951, " dis": 952, "ult": 953, " te": 954, "ely": 955, " after": 956, "ach": 957, " j": 958, " ser": 959, " over": 960, "over": 961, " off": 962, " up": 963, ",@": 964, " @,@": 965, "ang": 966, " includ": 967, " sp": 968, "ions": 969, " en": 970, "ite": 971, "urn": 972, "act": 973, "ound": 974, "ount": 975, " im": 976, "ace": 977, "ice": 978, "iz": 979, "ib": 980, "wn": 981, " out": 982, "ke": 983, "ress": 984, " Y": 985, "ark": 986, " time": 987, " ne": 988, " into": 989, " fin": 990, " pre": 991, " ev": 992, "ced": 993, "port": 994, "we": 995, " On": 996, " spe": 997, "ces": 998, " more": 999, " would": 1000, " she": 1001, " comm": 1002, "ason": 1003, " att": 1004, "ward": 1005, " all": 1006, "rough": 1007, "ren": 1008, "ose": 1009, "one": 1010, "ail": 1011, "ited": 1012, " him": 1013, "amp": 1014, " we": 1015, "tern": 1016, "ied": 1017, "ens": 1018, "oin": 1019, "ased": 1020, " 6": 1021, " Un": 1022, " cent": 1023, "rib": 1024, " Re": 1025, " work": 1026, "ents": 1027, "ild": 1028, " Se": 1029, "ix": 1030, " me": 1031, "ood": 1032, "ase": 1033, "les": 1034, "ings": 1035, "ts": 1036, "man": 1037, "round": 1038, " 7": 1039, " fe": 1040, " them": 1041, "able": 1042, "ious": 1043, " ÐºÑÐ°Ñ": 1044, " ÑÐ°Ñ": 1045, " ÐºÑÐ°ÑÐ½ÑÐ¹": 1046, " when": 1047, " bet": 1048, " song": 1049, "ake": 1050, "ors": 1051, " Ð§": 1052, " Ð§ÑÐ¾": 1053, " sec": 1054, "ates": 1055, "als": 1056, "vel": 1057, "ubl": 1058, " ÑÐµ": 1059, "Ð¼ÐµÑ": 1060, " Ð´ÑÐ±Ð°": 1061, " ÑÐµÐ¼ÐµÑ": 1062, " ÑÐµÐ¼ÐµÑÐºÐ¾": 1063, " ear": 1064, "ÑÐ°": 1065, " ÐºÐ»": 1066, " ÐºÐ°Ñ": 1067, " ÐºÐ»Ð°Ð´Ð°": 1068, " ÐºÐ°ÑÑÐ°": 1069, " rem": 1070, " An": 1071, "Ð´Ðµ": 1072, " ÐÐ´Ðµ": 1073, "old": 1074, " Ð²Ñ": 1075, "Ð°Ð½Ð°": 1076, "Ð¿ÐºÐ°": 1077, " Ð²ÑÐ·": 1078, "Ð°Ð½Ð°Ñ": 1079, " ÑÐ°Ð¿ÐºÐ°": 1080, " Ð²ÑÐ·Ð°Ð½Ð°Ñ": 1081, "iss": 1082, "ÐºÐ¸": 1083, "Ð²Ð¾Ð½": 1084, " ÐºÐ¾Ð»": 1085, "Ð¾ÐºÐ¾Ð»Ñ": 1086, "ÐºÐ¸Ð¹": 1087, " Ð·Ð²Ð¾Ð½": 1088, " ÐºÐ¾Ð»Ð¾ÐºÐ¾Ð»Ñ": 1089, " Ð·Ð²Ð¾Ð½ÐºÐ¸Ð¹": 1090, " ÐºÐ¾Ð»Ð¾ÐºÐ¾Ð»ÑÑÐ¸Ðº": 1091, "ered": 1092, " kn": 1093, "form": 1094, " most": 1095, " Ñ": 1096, "Ð¾": 1097, "Ð¸Ð½": 1098, "ÑÐµ": 1099, "Ð½Ð°Ñ": 1100, " Ð¾Ð¶": 1101, "ÑÐ±": 1102, "ÐµÑÐµÐ»": 1103, " ÑÐ¾": 1104, "Ð¸Ð½Ñ": 1105, "Ð½Ð°ÑÐ¸Ðº": 1106, " ÑÑÐ±": 1107, " Ð¾Ð¶ÐµÑÐµÐ»": 1108, " ÑÐ¾Ð½Ð°ÑÐ¸Ðº": 1109, " ÑÑÐ±Ð¸Ð½Ñ": 1110, " Ð¾Ð¶ÐµÑÐµÐ»ÑÐµ": 1111, " during": 1112, " Ð¿Ð¸": 1113, "Ð°Ð»ÐºÐ°": 1114, " Ð¿Ð¸Ñ": 1115, " Ð¿Ð¸ÑÐ°Ð»ÐºÐ°": 1116, "gan": 1117, "ath": 1118, "Ð¾Ð¹": 1119, "Ð°Ðº": 1120, "aus": 1121, " ÐÑÐ¾": 1122, " ÑÐ°Ðº": 1123, " ÑÐ°ÐºÐ¾Ð¹": 1124, " only": 1125, "fer": 1126, "under": 1127, "ilm": 1128, " new": 1129, " game": 1130, "oy": 1131, "ved": 1132, "ember": 1133, "ve": 1134, "orth": 1135, "ollow": 1136, "ween": 1137, " 199": 1138, "reat": 1139, " As": 1140, "way": 1141, "outh": 1142, " Ar": 1143, " 9": 1144, " 8": 1145, " rel": 1146, " can": 1147, " about": 1148, "ters": 1149, " again": 1150, " season": 1151, " three": 1152, " cons": 1153, " than": 1154, " En": 1155, "ick": 1156, "ug": 1157, " Mar": 1158, " between": 1159, "att": 1160, "aw": 1161, "ral": 1162, " record": 1163, " some": 1164, "ational": 1165, " under": 1166, "ons": 1167, " char": 1168, "cted": 1169, "ular": 1170, "fore": 1171, "Ð½ÐµÐ½Ð¸Ðµ": 1172, " ÑÑÐµÑ": 1173, " ÑÑÐµÑÐ½ÐµÐ½Ð¸Ðµ": 1174, " through": 1175, "ind": 1176, " Ð³ÑÑ": 1177, " Ð³ÑÑÑÑÑ": 1178, "ict": 1179, " later": 1180, "hip": 1181, "iew": 1182, " col": 1183, " num": 1184, " 00": 1185, " Com": 1186, "ft": 1187, "ision": 1188, " De": 1189, " writ": 1190, " produ": 1191, " while": 1192, " pos": 1193, " film": 1194, " ÑÐ°": 1195, " ÑÐ°Ð´Ð¾ÑÑÑ": 1196, " rele": 1197, " ver": 1198, "ames": 1199, " Ð³Ð¾Ñ": 1200, " end": 1201, " Ð³Ð¾ÑÐ´Ð¾ÑÑÑ": 1202, " inter": 1203, "ished": 1204, " ap": 1205, "Ñ": 1206, "ÑÑ": 1207, "Ð²Ð¾": 1208, "Ð±Ð¾Ð¿": 1209, " Ð»Ñ": 1210, "ÑÑÑÑ": 1211, " Ð»ÑÐ±Ð¾Ð¿": 1212, "ÑÑÑÑÐ²Ð¾": 1213, " Ð»ÑÐ±Ð¾Ð¿ÑÑÑÑÐ²Ð¾": 1214, "ey": 1215, " pe": 1216, " made": 1217, " pr": 1218, "ÑÐ°Ñ": 1219, " ÑÑÑÐ°Ñ": 1220, " form": 1221, " fl": 1222, "ning": 1223, " reg": 1224, " ass": 1225, "orld": 1226, " where": 1227, " so": 1228, " spec": 1229, " New": 1230, " mov": 1231, "ever": 1232, "meric": 1233, " Americ": 1234, "ury": 1235, " lar": 1236, "bum": 1237, " ac": 1238, " app": 1239, " ret": 1240, "ron": 1241, "Ð½ÐºÐ°,": 1242, " follow": 1243, "ener": 1244, " no": 1245, " bu": 1246, " such": 1247, " def": 1248, " second": 1249, "ived": 1250, "Ð¾Ð½ÐºÐ°,": 1251, " four": 1252, "ock": 1253, "aid": 1254, " mus": 1255, " qu": 1256, " acc": 1257, " used": 1258, " sub": 1259, "olog": 1260, " inc": 1261, " act": 1262, " At": 1263, "ike": 1264, "rop": 1265, " day": 1266, " This": 1267, "ars": 1268, " Le": 1269, " publ": 1270, "ific": 1271, " am": 1272, "ual": 1273, "Ð¸ÐºÐ°,": 1274, " call": 1275, " album": 1276, " ind": 1277, "hes": 1278, " 000": 1279, " before": 1280, " do": 1281, " appe": 1282, "ob": 1283, "ily": 1284, "oh": 1285, " being": 1286, "ank": 1287, " gr": 1288, " co": 1289, "any": 1290, " years": 1291, " Eng": 1292, " there": 1293, " supp": 1294, " gro": 1295, "end": 1296, "ck": 1297, "owever": 1298, "ating": 1299, "ane": 1300, " found": 1301, " 0": 1302, " ele": 1303, " high": 1304, " set": 1305, "iel": 1306, " ep": 1307, "ife": 1308, "ics": 1309, "orn": 1310, "hen": 1311, " sy": 1312, "ird": 1313, " ent": 1314, "other": 1315, "iver": 1316, " sur": 1317, "ained": 1318, " 10": 1319, " series": 1320, "igin": 1321, " number": 1322, " ÑÐ°Ñ.": 1323, "pen": 1324, "ten": 1325, "ll": 1326, "ince": 1327, " loc": 1328, "ause": 1329, " dec": 1330, " pres": 1331, "ph": 1332, "velop": 1333, "Ð¾ÑÐ°": 1334, " Ð´ÑÐ±Ð°.": 1335, " ÐºÐ¾ÑÐ¾ÑÐ°": 1336, " ÐºÐ¾ÑÐ¾ÑÐ°Ñ": 1337, " both": 1338, "ode": 1339, "Ð°:": 1340, " sever": 1341, " Ð¿Ð¾Ð½ÑÐ»Ð°:": 1342, "ities": 1343, "cept": 1344, " 12": 1345, " then": 1346, " including": 1347, " ÐºÐ¾Ð»Ð¾ÐºÐ¾Ð»ÑÑÐ¸Ðº.": 1348, "ines": 1349, "Ð¸Ð»Ð°.": 1350, " Ð³ÑÑÑÑÐ¸Ð»Ð°.": 1351, " epis": 1352, "son": 1353, " Brit": 1354, " /": 1355, " ÑÐ°Ð¿ÐºÐ°.": 1356, " against": 1357, " well": 1358, " became": 1359, " ÐºÐ»Ð°Ð´Ð°.": 1360, " known": 1361, "ject": 1362, " ÑÑÐ±Ð¸Ð½Ñ.": 1363, "ros": 1364, "ised": 1365, " po": 1366, " ÑÐ¾ÑÐ¾ÐºÐ¸.": 1367, "ton": 1368, " charac": 1369, " add": 1370, " desc": 1371, " perform": 1372, " ÑÐ¾Ð½Ð°ÑÐ¸Ðº.": 1373, " sing": 1374, " bl": 1375, " go": 1376, " cap": 1377, " 198": 1378, " dire": 1379, "urch": 1380, " Joh": 1381, "aj": 1382, " 16": 1383, "ale": 1384, " ÑÐ°ÑÑÐºÐ°Ð·Ð°Ð»Ð°": 1385, " back": 1386, " many": 1387, " Sh": 1388, " pop": 1389, "pr": 1390, " main": 1391, "ident": 1392, "though": 1393, " United": 1394, " inv": 1395, " stud": 1396, "its": 1397, " long": 1398, "ise": 1399, "ather": 1400, "ures": 1401, " trans": 1402, " origin": 1403, "io": 1404, " John": 1405, " Br": 1406, "iet": 1407, "ert": 1408, "ement": 1409, " century": 1410, " mon": 1411, " team": 1412, "ober": 1413, " After": 1414, "ool": 1415, " Sc": 1416, " est": 1417, " show": 1418, " develop": 1419, "ann": 1420, " min": 1421, "ield": 1422, "ek": 1423, "ower": 1424, " em": 1425, "ier": 1426, "elf": 1427, " 194": 1428, "air": 1429, "ute": 1430, " cre": 1431, " several": 1432, " She": 1433, " lead": 1434, "0s": 1435, "uch": 1436, " 17": 1437, "ared": 1438, " began": 1439, " 196": 1440, "ful": 1441, "ivers": 1442, "ern": 1443, " 11": 1444, " 15": 1445, " mill": 1446, " dif": 1447, " contin": 1448, " 197": 1449, "overn": 1450, " sign": 1451, "ually": 1452, "ram": 1453, " sm": 1454, "view": 1455, "ired": 1456, " may": 1457, "ative": 1458, " ship": 1459, " comple": 1460, " br": 1461, " could": 1462, " early": 1463, " crit": 1464, " did": 1465, " called": 1466, "ains": 1467, " art": 1468, " episode": 1469, "til": 1470, " near": 1471, " ob": 1472, " Ind": 1473, " hist": 1474, " pol": 1475, " describ": 1476, "led": 1477, " bel": 1478, "emb": 1479, "ued": 1480, " rece": 1481, "ople": 1482, "une": 1483, "iam": 1484, " run": 1485, " along": 1486, "ins": 1487, " ter": 1488, "imes": 1489, "ments": 1490, " Ð±Ð¾Ð»Ð¾ÑÐµ.": 1491, " dep": 1492, " bro": 1493, "ccess": 1494, "ley": 1495, " Wh": 1496, " said": 1497, " feat": 1498, " American": 1499, " down": 1500, "ven": 1501, " Is": 1502, " inst": 1503, " Ð´ÑÐ±Ðµ.": 1504, " these": 1505, "aking": 1506, " May": 1507, "der": 1508, " mil": 1509, " dist": 1510, " Aust": 1511, " though": 1512, " Ger": 1513, "gest": 1514, "ross": 1515, " disc": 1516, "yl": 1517, " British": 1518, " oper": 1519, " until": 1520, " Z": 1521, "ove": 1522, "ting": 1523, "oot": 1524, " start": 1525, "anc": 1526, " city": 1527, " same": 1528, "rap": 1529, " inf": 1530, "ured": 1531, " prev": 1532, " released": 1533, "els": 1534, " gener": 1535, "ty": 1536, " exp": 1537, "ange": 1538, " ÑÐ¾Ð»Ð¼Ðµ.": 1539, " own": 1540, "ized": 1541, " any": 1542, " return": 1543, "tend": 1544, "amed": 1545, " They": 1546, " War": 1547, "ially": 1548, " km": 1549, "ided": 1550, " land": 1551, " design": 1552, " war": 1553, " rep": 1554, " music": 1555, " prov": 1556, " imp": 1557, " million": 1558, " because": 1559, " area": 1560, " use": 1561, "ajor": 1562, " Con": 1563, " car": 1564, " fam": 1565, " air": 1566, "az": 1567, " Aug": 1568, " August": 1569, "oman": 1570, " like": 1571, " open": 1572, " success": 1573, " mat": 1574, "osed": 1575, " sim": 1576, " Fr": 1577, " Chr": 1578, "erson": 1579, " occ": 1580, "ink": 1581, "ep": 1582, "enn": 1583, " const": 1584, "ook": 1585, " people": 1586, "ull": 1587, " eff": 1588, "hy": 1589, " ins": 1590, "ium": 1591, " pass": 1592, " offic": 1593, "chool": 1594, "stem": 1595, "ible": 1596, "xt": 1597, " 195": 1598, " count": 1599, " six": 1600, " support": 1601, " Bl": 1602, " Be": 1603, " around": 1604, "my": 1605, " However": 1606, " small": 1607, "ah": 1608, " win": 1609, " %": 1610, " Sept": 1611, "uc": 1612, " adv": 1613, " north": 1614, " dam": 1615, " group": 1616, " str": 1617, " Car": 1618, " each": 1619, " poin": 1620, " September": 1621, "ony": 1622, "ues": 1623, " consid": 1624, " met": 1625, "ouse": 1626, " following": 1627, " Pl": 1628, " character": 1629, " Ju": 1630, "erv": 1631, "ists": 1632, "wards": 1633, " World": 1634, " life": 1635, "ms": 1636, " ed": 1637, " Austral": 1638, " head": 1639, " 13": 1640, "aining": 1641, " mod": 1642, " five": 1643, " contro": 1644, " attack": 1645, " govern": 1646, "ole": 1647, " 193": 1648, "ording": 1649, " Comm": 1650, "ient": 1651, "ales": 1652, " var": 1653, "oss": 1654, "uth": 1655, " All": 1656, " Te": 1657, " will": 1658, " large": 1659, " ever": 1660, "ution": 1661, "ets": 1662, " 191": 1663, " II": 1664, " Her": 1665, " gu": 1666, " Col": 1667, " ann": 1668, " report": 1669, "row": 1670, " conc": 1671, "ague": 1672, "ural": 1673, " US": 1674, " Me": 1675, " Cl": 1676, "rote": 1677, "lish": 1678, " June": 1679, " book": 1680, " North": 1681, "aving": 1682, " ÐºÐ¾ÑÑÐ½ÐºÐ°,": 1683, "aced": 1684, " Eu": 1685, "ash": 1686, " For": 1687, " tit": 1688, " German": 1689, "dom": 1690, " States": 1691, " since": 1692, "Ñ,": 1693, "Ð°Ð»Ð°.": 1694, " ÑÐ¾ÑÐ¾ÐºÐ¾Ð½Ð¾Ð¶Ðº": 1695, " Ð²ÑÑÑÐµÑÐ¸Ð»Ð°": 1696, " Ð·Ð°Ð¹ÑÐ¾Ð½ÐºÐ°,": 1697, " Ð´ÑÐ¾Ð¶Ð°Ð»Ð°.": 1698, " ÑÐ¾ÑÐ¾ÐºÐ¾Ð½Ð¾Ð¶ÐºÑ,": 1699, "ik": 1700, " prom": 1701, " south": 1702, " received": 1703, " final": 1704, " major": 1705, "ilt": 1706, "ped": 1707, "med": 1708, " name": 1709, "Ð": 1710, "ately": 1711, " Jan": 1712, "ivision": 1713, " Ad": 1714, "pect": 1715, " Oct": 1716, " ÑÐ²Ð¸Ð´ÐµÐ»Ð°": 1717, " partic": 1718, " system": 1719, " South": 1720, " public": 1721, " state": 1722, " care": 1723, " dr": 1724, " ÑÑÐ»ÑÑÐ°Ð»Ð°": 1725, " Christ": 1726, " what": 1727, " King": 1728, "ives": 1729, "ÑÑ,": 1730, " Ð²Ð¾ÑÐ¾Ð±ÑÑ,": 1731, " direct": 1732, " hel": 1733, " last": 1734, "uary": 1735, " described": 1736, "hel": 1737, "tle": 1738, " ext": 1739, " October": 1740, "ored": 1741, " 14": 1742, " Ð´ÑÐ°ÐºÐ¾Ð½Ñ": 1743, " line": 1744, " Ð´ÑÐ°ÐºÐ¾Ð½ÑÐ¸ÐºÐ°,": 1745, " $": 1746, " appear": 1747, " rest": 1748, " Can": 1749, " batt": 1750, " week": 1751, " played": 1752, " Ð»Ð¸ÑÑÐ½ÐºÐ°,": 1753, "cess": 1754, " class": 1755, " build": 1756, " incre": 1757, " took": 1758, "ropical": 1759, " now": 1760, " Fe": 1761, " Nov": 1762, "arl": 1763, " [": 1764, " ]": 1765, " York": 1766, "gin": 1767, "aged": 1768, " world": 1769, " ÑÐ¾ÑÐ¾ÐºÐ¸": 1770, " July": 1771, "ages": 1772, " late": 1773, " wrote": 1774, " Ð¼ÐµÐ´Ð²ÐµÐ¶Ð¾Ð½ÐºÐ°,": 1775, "..": 1776, " Tr": 1777, " Ð½Ð°ÑÐ»Ð°": 1778, "iving": 1779, "empt": 1780, "Ã©": 1781, "ional": 1782, " won": 1783, "ble": 1784, " species": 1785, "ology": 1786, "ideo": 1787, " stru": 1788, "aim": 1789, " child": 1790, " 25": 1791, " During": 1792, " much": 1793, " ...": 1794, " Ð¿Ð¾ÑÐµÑÑÐ»Ð°": 1795, "ody": 1796, " due": 1797, "ified": 1798, " serv": 1799, " single": 1800, " Apr": 1801, " April": 1802, " allow": 1803, " camp": 1804, "ats": 1805, "min": 1806, " Gu": 1807, "iod": 1808, " short": 1809, " ÑÐ¶Ð¸ÐºÐ°,": 1810, " port": 1811, " death": 1812, " vers": 1813, " just": 1814, "ball": 1815, " ty": 1816, " mar": 1817, " another": 1818, " included": 1819, " Euro": 1820, " poss": 1821, " January": 1822, " old": 1823, "ility": 1824, " storm": 1825, "ively": 1826, "get": 1827, " even": 1828, " differ": 1829, " gun": 1830, " within": 1831, " England": 1832, " list": 1833, "ission": 1834, " left": 1835, " result": 1836, "ism": 1837, "omin": 1838, " position": 1839, " named": 1840, " based": 1841, " estab": 1842, " conf": 1843, " if": 1844, "ants": 1845, " arr": 1846, " vis": 1847, " although": 1848, " prog": 1849, " attempt": 1850, "ax": 1851, "ont": 1852, " very": 1853, " 30": 1854, " appro": 1855, "ina": 1856, " third": 1857, " games": 1858, "by": 1859, "ital": 1860, " top": 1861, " ref": 1862, " And": 1863, "akes": 1864, " belie": 1865, " track": 1866, "ctions": 1867, " March": 1868, "ner": 1869, "ple": 1870, " lit": 1871, " Gr": 1872, " previous": 1873, " family": 1874, " Mus": 1875, " Pro": 1876, " November": 1877, " power": 1878, " tri": 1879, " event": 1880, " review": 1881, " period": 1882, " Q": 1883, " Ge": 1884, " best": 1885, " home": 1886, "ilar": 1887, " way": 1888, "mber": 1889, "urric": 1890, " resp": 1891, " school": 1892, " Ro": 1893, " Europe": 1894, " water": 1895, " His": 1896, " government": 1897, "ances": 1898, "ograp": 1899, "ently": 1900, " expl": 1901, " Dece": 1902, " December": 1903, " 192": 1904, " men": 1905, "ret": 1906, " those": 1907, "avy": 1908, "raft": 1909, " There": 1910, " By": 1911, "ger": 1912, " turn": 1913, " constru": 1914, " hum": 1915, "ience": 1916, " place": 1917, " City": 1918, "ulation": 1919, " Ð¢Ð¾ÑÐ°?": 1920, " organ": 1921, " sl": 1922, " built": 1923, " bre": 1924, "pend": 1925, "ards": 1926, "ature": 1927, "ians": 1928, "urther": 1929, " great": 1930, "ides": 1931, " story": 1932, " prote": 1933, " command": 1934, "ached": 1935, " ÐÑÑ?": 1936, " kill": 1937, " month": 1938, " colle": 1939, " When": 1940, "ched": 1941, " sent": 1942, "hest": 1943, " original": 1944, " person": 1945, "ript": 1946, "iversity": 1947, "itary": 1948, " make": 1949, " hand": 1950, "eder": 1951, " 100": 1952, " 2009": 1953, " opp": 1954, " med": 1955, " video": 1956, " ÐÐ¸ÐºÐ°?": 1957, " National": 1958, " 2008": 1959, " requ": 1960, " 2010": 1961, " auth": 1962, " hal": 1963, " ÐÐ¾ÑÐ°?": 1964, "ention": 1965, " present": 1966, "oci": 1967, "por": 1968, "aur": 1969, " mark": 1970, " ph": 1971, " sug": 1972, "ham": 1973, " club": 1974, " eng": 1975, "ences": 1976, "riend": 1977, "iven": 1978, "elt": 1979, "aster": 1980, " ÐÑÐ²Ð°?": 1981, "ene": 1982, " view": 1983, " Mc": 1984, " 't": 1985, " Ð®ÑÐ°?": 1986, "ically": 1987, " Ð¡Ð¸Ð¼Ð°?": 1988, " moved": 1989, " River": 1990, "self": 1991, " led": 1992, " role": 1993, " addition": 1994, " capt": 1995, " stand": 1996, " still": 1997, " came": 1998, " leg": 1999, " local": 2000, " iss": 2001, " ÐÑÐ¾ÑÐ¾Ñ?": 2002, " repl": 2003, "rench": 2004, "gy": 2005, " Pr": 2006, "ense": 2007, "aff": 2008, " ÐÐ°Ð´Ð°?": 2009, " ÐÐ¸Ð»Ð°?": 2010, " often": 2011, " history": 2012, "urricane": 2013, " common": 2014, "ival": 2015, " We": 2016, " dest": 2017, " caus": 2018, " cour": 2019, "ae": 2020, "ison": 2021, " Man": 2022, " dem": 2023, "aken": 2024, " effect": 2025, "ery": 2026, " few": 2027, "be": 2028, " Bo": 2029, "ady": 2030, " No": 2031, "ops": 2032, " 2007": 2033, " next": 2034, " considered": 2035, " Fl": 2036, " trad": 2037, "eng": 2038, "ories": 2039, " player": 2040, " suggest": 2041, "ling": 2042, "lev": 2043, " star": 2044, " Sp": 2045, " exper": 2046, "astern": 2047, " French": 2048, " my": 2049, "side": 2050, " career": 2051, " similar": 2052, " One": 2053, " recorded": 2054, " English": 2055, "uss": 2056, " right": 2057, " side": 2058, " Pe": 2059, "ined": 2060, " cr": 2061, " init": 2062, "let": 2063, " import": 2064, " real": 2065, " Or": 2066, " claim": 2067, "que": 2068, " Batt": 2069, " company": 2070, "ai": 2071, " cover": 2072, " published": 2073, " Bro": 2074, " deb": 2075, " continued": 2076, " contr": 2077, "rew": 2078, "arn": 2079, "idge": 2080, " you": 2081, " refer": 2082, " bas": 2083, " without": 2084, " take": 2085, " mid": 2086, " Ph": 2087, " songs": 2088, " sold": 2089, "ternational": 2090, " different": 2091, " say": 2092, " With": 2093, " ant": 2094, " former": 2095, " town": 2096, "ior": 2097, " held": 2098, " wind": 2099, " Comp": 2100, "atter": 2101, "ister": 2102, "uted": 2103, " Acc": 2104, " among": 2105, "ness": 2106, " level": 2107, " memb": 2108, "lu": 2109, " tot": 2110, " arch": 2111, " road": 2112, " tem": 2113, " polit": 2114, " field": 2115, "ged": 2116, " written": 2117, "thing": 2118, "arch": 2119, " State": 2120, "bs": 2121, " plan": 2122, " ÑÐ¶Ð¸Ðº,": 2123, " every": 2124, "ps": 2125, " es": 2126, " Port": 2127, " half": 2128, "alk": 2129, " 21": 2130, "ampions": 2131, " Division": 2132, " tw": 2133, " 2011": 2134, " release": 2135, "resent": 2136, "ves": 2137, "iment": 2138, " Will": 2139, "estern": 2140, "ead": 2141, " become": 2142, " av": 2143, " mag": 2144, " 2006": 2145, " commun": 2146, "tended": 2147, " further": 2148, " According": 2149, "ensive": 2150, " Although": 2151, " west": 2152, " however": 2153, " church": 2154, " 23": 2155, " days": 2156, " strong": 2157, " Canad": 2158, "itar": 2159, "yle": 2160, " east": 2161, " find": 2162, " version": 2163, "roy": 2164, "lear": 2165, " join": 2166, "ung": 2167, " Ð·Ð°Ð¹ÑÐ¾Ð½Ð¾Ðº,": 2168, "br": 2169, " &": 2170, "ott": 2171, "ried": 2172, "bru": 2173, " ÑÐ¾ÑÐ¾ÐºÐ¾Ð½Ð¾Ð¶ÐºÐ°,": 2174, " compet": 2175, " Church": 2176, " title": 2177, " Count": 2178, " particular": 2179, "ne": 2180, "pite": 2181, "mp": 2182, " low": 2183, " military": 2184, " par": 2185, " del": 2186, "par": 2187, " beh": 2188, "rodu": 2189, " order": 2190, " Roman": 2191, " League": 2192, " author": 2193, " prop": 2194, " Min": 2195, " ÐºÐ¾ÑÑÐ½Ð¾Ðº,": 2196, " defe": 2197, " control": 2198, " foot": 2199, "aly": 2200, " Song": 2201, " Ð¼ÐµÐ´Ð²ÐµÐ¶Ð¾Ð½Ð¾Ðº,": 2202, "outher": 2203, " Febru": 2204, "outhern": 2205, " February": 2206, " Per": 2207, " Gener": 2208, " times": 2209, "fric": 2210, " 22": 2211, " gave": 2212, " less": 2213, " !": 2214, " sit": 2215, " 26": 2216, " Ð´ÑÐ°ÐºÐ¾Ð½ÑÐ¸Ðº,": 2217, " reported": 2218, " members": 2219, " fr": 2220, " band": 2221, "raw": 2222, " vict": 2223, " Dyl": 2224, " Dylan": 2225, " 24": 2226, "ots": 2227, " chang": 2228, " Geor": 2229, " Ab": 2230, " fore": 2231, " nort": 2232, " produced": 2233, "ches": 2234, " 2012": 2235, "levision": 2236, " prof": 2237, " el": 2238, " total": 2239, "ices": 2240, " Old": 2241, "augh": 2242, " Park": 2243, "ailed": 2244, "ering": 2245, "urs": 2246, " stat": 2247, " West": 2248, "aces": 2249, "line": 2250, " production": 2251, " popular": 2252, "iety": 2253, " fre": 2254, " decl": 2255, "ception": 2256, " Bar": 2257, " tropical": 2258, " nov": 2259, "ront": 2260, "hern": 2261, " Ð»Ð¸ÑÑÐ½Ð¾Ðº,": 2262, "oung": 2263, " project": 2264, " sol": 2265, " forces": 2266, " Jap": 2267, "itions": 2268, " point": 2269, " children": 2270, " Japan": 2271, " cur": 2272, " cult": 2273, " Par": 2274, " include": 2275, " having": 2276, "reen": 2277, " critic": 2278, " obs": 2279, " histor": 2280, "pec": 2281, "ler": 2282, " 28": 2283, " invol": 2284, " X": 2285, "alion": 2286, " lost": 2287, " influ": 2288, " given": 2289, " want": 2290, " Ass": 2291, "inc": 2292, "ression": 2293, " country": 2294, "sh": 2295, " tro": 2296, " fire": 2297, " signific": 2298, " represent": 2299, " manag": 2300, "omen": 2301, "ape": 2302, "ize": 2303, " 2013": 2304, " Sim": 2305, "chn": 2306, "omet": 2307, " seen": 2308, " site": 2309, "osp": 2310, " Des": 2311, " eight": 2312, " program": 2313, " Am": 2314, "vers": 2315, " never": 2316, " making": 2317, " far": 2318, " stated": 2319, " Miss": 2320, " establ": 2321, " det": 2322, " comb": 2323, " Ed": 2324, " press": 2325, " General": 2326, " Afric": 2327, " should": 2328, " body": 2329, " Cent": 2330, " aff": 2331, " While": 2332, " match": 2333, "ither": 2334, " fact": 2335, "ploy": 2336, " returned": 2337, " pat": 2338, "ising": 2339, "reet": 2340, " Dav": 2341, " University": 2342, "rent": 2343, " fem": 2344, "craft": 2345, "enc": 2346, "ÐÑÑ": 2347, " ord": 2348, " ft": 2349, " Pol": 2350, "ours": 2351, " post": 2352, " 190": 2353, " These": 2354, " America": 2355, " Ear": 2356, " ships": 2357, " established": 2358, " how": 2359, "sequ": 2360, " Ð²Ð¾ÑÐ¾Ð±ÐµÐ¹,": 2361, " island": 2362, " sound": 2363, " earl": 2364, "ampionship": 2365, " announ": 2366, " population": 2367, " equ": 2368, " Ste": 2369, " struct": 2370, " reached": 2371, " chart": 2372, " Jack": 2373, "ades": 2374, " Ire": 2375, "ably": 2376, " soc": 2377, " noted": 2378, " away": 2379, " Ireland": 2380, " Air": 2381, " Ha": 2382, "igade": 2383, " too": 2384, "play": 2385, "aul": 2386, " god": 2387, "ope": 2388, " ground": 2389, " throughout": 2390, " developed": 2391, " thought": 2392, " across": 2393, " friend": 2394, "Ð¢": 2395, " Ev": 2396, " light": 2397, "Ð¢Ð¾ÑÐ°": 2398, "ox": 2399, "fic": 2400, " seven": 2401, "me": 2402, " gen": 2403, " 27": 2404, " 50": 2405, ".S": 2406, " Lond": 2407, " introdu": 2408, ".S.": 2409, " London": 2410, " div": 2411, " using": 2412, " himself": 2413, "ground": 2414, " development": 2415, " Ne": 2416, " William": 2417, " good": 2418, " destroy": 2419, " la": 2420, " Feder": 2421, " lim": 2422, " hig": 2423, "aint": 2424, "ument": 2425, "ford": 2426, "ese": 2427, " Mich": 2428, "most": 2429, " felt": 2430, " significant": 2431, "used": 2432, "reek": 2433, " Australia": 2434, "yn": 2435, "ctor": 2436, "idence": 2437, "ological": 2438, " performed": 2439, " important": 2440, "au": 2441, " cast": 2442, "Ð": 2443, "amb": 2444, " pra": 2445, "work": 2446, " writing": 2447, "ÐÑÐ²Ð°": 2448, "ÐÐ¾ÑÐ°": 2449, " Atl": 2450, " miles": 2451, "arr": 2452, " cou": 2453, "ords": 2454, " father": 2455, " television": 2456, "int": 2457, "oon": 2458, "ream": 2459, " ide": 2460, " interest": 2461, " Black": 2462, " various": 2463, "atic": 2464, "ivil": 2465, " areas": 2466, " human": 2467, "imately": 2468, "Ð": 2469, " tour": 2470, " night": 2471, " black": 2472, "ÐÐ¸ÐºÐ°": 2473, "ones": 2474, " died": 2475, " full": 2476, " typ": 2477, " went": 2478, "utes": 2479, " prot": 2480, " look": 2481, " U.S.": 2482, " wat": 2483, " rad": 2484, " Rich": 2485, " Char": 2486, "aren": 2487, " white": 2488, " activ": 2489, " does": 2490, " successful": 2491, "aign": 2492, " events": 2493, " Rober": 2494, " need": 2495, " Reg": 2496, " sk": 2497, "ief": 2498, " law": 2499, " Road": 2500, " players": 2501, " started": 2502, "ges": 2503, "ÐÐ¸Ð»Ð°": 2504, " Roy": 2505, " James": 2506, " modern": 2507, " ten": 2508, "ask": 2509, " mm": 2510, " discover": 2511, " see": 2512, " feet": 2513, " formed": 2514, " cor": 2515, "itive": 2516, " poem": 2517, "tain": 2518, "antic": 2519, " range": 2520, " conv": 2521, " performance": 2522, " County": 2523, "rick": 2524, " mix": 2525, " relations": 2526, " house": 2527, " building": 2528, " style": 2529, " ball": 2530, " caused": 2531, "Ð¡": 2532, " cat": 2533, " force": 2534, "Ð¡Ð¸Ð¼Ð°": 2535, "na": 2536, " read": 2537, " age": 2538, " prim": 2539, " put": 2540, "ald": 2541, "ster": 2542, "ration": 2543, " El": 2544, " vill": 2545, " trav": 2546, " You": 2547, " techn": 2548, " cy": 2549, "ÐÑÐ¾ÑÐ¾Ñ": 2550, "alth": 2551, " created": 2552, "af": 2553, "ico": 2554, "ael": 2555, " Pal": 2556, " 189": 2557, " official": 2558, " novel": 2559, "con": 2560, "Ð®ÑÐ°": 2561, " 2004": 2562, " 2005": 2563, " suff": 2564, "ublic": 2565, " entire": 2566, "isc": 2567, " To": 2568, "ush": 2569, " ke": 2570, "ogn": 2571, " able": 2572, " political": 2573, "ec": 2574, " fun": 2575, "ourn": 2576, " characters": 2577, " get": 2578, " sum": 2579, " others": 2580, " relig": 2581, " coast": 2582, " Mag": 2583, " High": 2584, "ÐÐ°Ð´Ð°": 2585, " construction": 2586, "omb": 2587, "aves": 2588, "abor": 2589, " bird": 2590, " begin": 2591, "oll": 2592, "iness": 2593, " occur": 2594, " son": 2595, " pit": 2596, "ring": 2597, " pri": 2598, " â": 2599, " Town": 2600, " cert": 2601, "epend": 2602, "ying": 2603, " red": 2604, "day": 2605, " Gl": 2606, "ressed": 2607, " once": 2608, "ample": 2609, " Ang": 2610, " remained": 2611, " located": 2612, "iting": 2613, "asing": 2614, "rest": 2615, " ste": 2616, "ination": 2617, "isted": 2618, " Care": 2619, " becom": 2620, " surv": 2621, " promot": 2622, " battle": 2623, " Cor": 2624, "fall": 2625, " works": 2626, " national": 2627, " lik": 2628, " Kingdom": 2629, " scored": 2630, " diffic": 2631, " difficult": 2632, " Hist": 2633, "ected": 2634, " produc": 2635, " meet": 2636, " completed": 2637, " Island": 2638, " Australian": 2639, " tradition": 2640, " announced": 2641, " campaign": 2642, " Som": 2643, " Cal": 2644, " Sec": 2645, " rank": 2646, " region": 2647, " stars": 2648, "uck": 2649, "ator": 2650, " fig": 2651, " hold": 2652, " rock": 2653, " guns": 2654, " Mor": 2655, " Cup": 2656, " Company": 2657, "iers": 2658, "rie": 2659, " process": 2660, " little": 2661, "hem": 2662, " fav": 2663, " fight": 2664, " Rec": 2665, " highway": 2666, " goal": 2667, " help": 2668, " instead": 2669, " tre": 2670, "ivid": 2671, "irc": 2672, " Cro": 2673, " val": 2674, " pred": 2675, " grow": 2676, " added": 2677, "ament": 2678, " gl": 2679, "itted": 2680, "rought": 2681, " Ol": 2682, " let": 2683, " least": 2684, " followed": 2685, " cross": 2686, " fac": 2687, "ounc": 2688, " 31": 2689, " redu": 2690, " peak": 2691, " appeared": 2692, " front": 2693, " rev": 2694, "quad": 2695, " Ke": 2696, " know": 2697, " born": 2698, " killed": 2699, "leet": 2700, " originally": 2701, " months": 2702, " er": 2703, "reg": 2704, " comment": 2705, "elling": 2706, " wife": 2707, " Army": 2708, "orse": 2709, " southern": 2710, " David": 2711, " cas": 2712, " Bill": 2713, "oice": 2714, " loss": 2715, " Grand": 2716, "enth": 2717, " Ham": 2718, "ries": 2719, " fif": 2720, "ality": 2721, "enced": 2722, " nuc": 2723, " hurricane": 2724, " associ": 2725, " women": 2726, " agre": 2727, " ident": 2728, " Music": 2729, " eastern": 2730, "bo": 2731, " 29": 2732, "angu": 2733, " relationship": 2734, "Ã¡": 2735, "Ã­": 2736, " 2003": 2737, " mass": 2738, " critics": 2739, " Some": 2740, "off": 2741, " accom": 2742, " mother": 2743, " France": 2744, " eventually": 2745, "acy": 2746, " Sup": 2747, " 185": 2748, " award": 2749, " features": 2750, "gr": 2751, "idd": 2752, "lect": 2753, " bus": 2754, " Other": 2755, " 2015": 2756, " live": 2757, "field": 2758, " broad": 2759, "com": 2760, " cond": 2761, " anim": 2762, " aud": 2763, " 40": 2764, " young": 2765, "ray": 2766, " stri": 2767, "app": 2768, " cell": 2769, " appoin": 2770, " fourth": 2771, " route": 2772, " taken": 2773, " recogn": 2774, " Two": 2775, " served": 2776, "here": 2777, " bar": 2778, "ully": 2779, " Ex": 2780, "Ä": 2781, "ota": 2782, "emy": 2783, " estim": 2784, " damage": 2785, " profess": 2786, " lack": 2787, "antry": 2788, "arliam": 2789, " heavy": 2790, " sw": 2791, "inal": 2792, " sex": 2793, " base": 2794, " decided": 2795, "ique": 2796, " Battalion": 2797, " either": 2798, " aver": 2799, " voc": 2800, " Love": 2801, " proble": 2802, "osaur": 2803, " Sw": 2804, " commer": 2805, "olution": 2806, " condom": 2807, " behind": 2808, "aper": 2809, "azine": 2810, " toget": 2811, " believed": 2812, " together": 2813, " mor": 2814, " separ": 2815, " Robert": 2816, " arg": 2817, "chie": 2818, " super": 2819, "ille": 2820, " God": 2821, "ought": 2822, " playing": 2823, "ountain": 2824, " Carey": 2825, " individ": 2826, "arliament": 2827, " ve": 2828, " impro": 2829, "igned": 2830, "ization": 2831, "lo": 2832, " creat": 2833, " special": 2834, " Royal": 2835, " example": 2836, "ouncil": 2837, " Mon": 2838, " clos": 2839, " 188": 2840, " close": 2841, " move": 2842, " almost": 2843, " accept": 2844, "ements": 2845, " quar": 2846, " leading": 2847, "hys": 2848, " Mex": 2849, " European": 2850, "mar": 2851, " ask": 2852, "cial": 2853, " burn": 2854, " generally": 2855, " service": 2856, " Federer": 2857, " langu": 2858, " A.": 2859, " round": 2860, " mater": 2861, "aching": 2862, " elements": 2863, " opened": 2864, " towards": 2865, " hy": 2866, " fall": 2867, " arm": 2868, " dou": 2869, " Ser": 2870, "urb": 2871, " Ber": 2872, " sour": 2873, " weeks": 2874, " Brigade": 2875, " brought": 2876, " non": 2877, " miss": 2878, "iction": 2879, " finished": 2880, " No.": 2881, " International": 2882, " ce": 2883, " Cr": 2884, " Ir": 2885, " ra": 2886, "illa": 2887, "rict": 2888, " Wales": 2889, " laun": 2890, " circ": 2891, "ceed": 2892, "icated": 2893, " saw": 2894, " study": 2895, " featured": 2896, " host": 2897, " Viet": 2898, " respect": 2899, " aircraft": 2900, "iation": 2901, " regular": 2902, " Flor": 2903, "ida": 2904, " enc": 2905, " draw": 2906, "iron": 2907, "ests": 2908, " vol": 2909, " White": 2910, " general": 2911, " points": 2912, "ned": 2913, "ston": 2914, "read": 2915, " Hen": 2916, " Part": 2917, " rese": 2918, "ways": 2919, " elect": 2920, " directed": 2921, "etwork": 2922, "ze": 2923, "uter": 2924, "ounted": 2925, " central": 2926, " provided": 2927, " Championship": 2928, "hic": 2929, "ordan": 2930, " action": 2931, " meas": 2932, "val": 2933, " Sy": 2934, " Act": 2935, " Har": 2936, " fund": 2937, " 35": 2938, " upon": 2939, " inform": 2940, " Play": 2941, " director": 2942, "ography": 2943, "iol": 2944, " wall": 2945, " Game": 2946, " mean": 2947, " appearance": 2948, " wid": 2949, "eum": 2950, "umb": 2951, " East": 2952, " 186": 2953, " Follow": 2954, " coll": 2955, " earlier": 2956, " Jordan": 2957, " mi": 2958, " From": 2959, "odes": 2960, " yard": 2961, " Thom": 2962, "ency": 2963, " Pres": 2964, " sequ": 2965, " king": 2966, " 2014": 2967, " flood": 2968, " rather": 2969, " female": 2970, " Atlantic": 2971, "ino": 2972, "bit": 2973, "irl": 2974, " indust": 2975, "medi": 2976, " troops": 2977, " current": 2978, " largest": 2979, " victory": 2980, " Following": 2981, "oring": 2982, " ren": 2983, " dev": 2984, " Jew": 2985, " reve": 2986, " operations": 2987, " Christian": 2988, " particularly": 2989, " George": 2990, " manager": 2991, " employ": 2992, " subsequ": 2993, "ming": 2994, " Mad": 2995, " Day": 2996, " 19th": 2997, " cost": 2998, " House": 2999, " Hero": 3000, " achie": 3001, "oid": 3002, "cher": 3003, "ude": 3004, " Mary": 3005, " Rep": 3006, " opening": 3007, " wanted": 3008, "stit": 3009, " beg": 3010, " Du": 3011, " condu": 3012, "mb": 3013, "eler": 3014, " Red": 3015, "orts": 3016, " yards": 3017, " evidence": 3018, " cut": 3019, "ouri": 3020, " prob": 3021, "iber": 3022, " exc": 3023, "ounter": 3024, " reason": 3025, " river": 3026, " Command": 3027, " northern": 3028, " Florida": 3029, " stage": 3030, " member": 3031, " insp": 3032, "cast": 3033, " 500": 3034, " Rock": 3035, " crew": 3036, " allowed": 3037, " possible": 3038, " engine": 3039, " leng": 3040, " outside": 3041, " Street": 3042, "oo": 3043, " bi": 3044, " foc": 3045, "action": 3046, " stren": 3047, " saying": 3048, "sel": 3049, " Med": 3050, " ill": 3051, "ellow": 3052, " Oliv": 3053, " hit": 3054, " whom": 3055, "ania": 3056, "erous": 3057, "atural": 3058, "cript": 3059, " hours": 3060, "anch": 3061, "west": 3062, "ential": 3063, " case": 3064, " nomin": 3065, "conom": 3066, " fort": 3067, " deter": 3068, " exist": 3069, " 2001": 3070, " worked": 3071, "ators": 3072, " regard": 3073, " Missouri": 3074, "alt": 3075, " Od": 3076, " Most": 3077, " pract": 3078, " streng": 3079, "atin": 3080, "eal": 3081, "ama": 3082, " mot": 3083, " Bra": 3084, " working": 3085, " territ": 3086, " respons": 3087, " length": 3088, "nder": 3089, "cent": 3090, " My": 3091, " news": 3092, " reb": 3093, " Gal": 3094, "artment": 3095, "osition": 3096, " defend": 3097, "board": 3098, " material": 3099, "ata": 3100, " bur": 3101, " mach": 3102, " gold": 3103, " poor": 3104, " designed": 3105, " Bay": 3106, " seem": 3107, "ump": 3108, " rul": 3109, " free": 3110, " neg": 3111, " love": 3112, " Tech": 3113, " Paul": 3114, " stay": 3115, " Wal": 3116, "anding": 3117, "thod": 3118, " praised": 3119, " Co": 3120, "uel": 3121, "ights": 3122, "ishing": 3123, " First": 3124, " Mark": 3125, " forced": 3126, " remains": 3127, " Indian": 3128, " avail": 3129, " football": 3130, " Best": 3131, "ores": 3132, " 187": 3133, " Phil": 3134, "ana": 3135, " station": 3136, " bill": 3137, " think": 3138, " winds": 3139, " Michael": 3140, " Wil": 3141, " cop": 3142, "less": 3143, " treat": 3144, " quick": 3145, " goals": 3146, " increased": 3147, " contract": 3148, "ened": 3149, " di": 3150, " Â£": 3151, "aps": 3152, " past": 3153, "heast": 3154, " previously": 3155, "ica": 3156, " gre": 3157, "ius": 3158, "vest": 3159, "ago": 3160, " above": 3161, " replaced": 3162, " Egy": 3163, " Egypt": 3164, "gg": 3165, "xas": 3166, "ule": 3167, "vert": 3168, " But": 3169, " Cap": 3170, " soon": 3171, " invest": 3172, " Richard": 3173, " ly": 3174, " Bus": 3175, " Despite": 3176, " civil": 3177, " business": 3178, " viol": 3179, " hon": 3180, " interview": 3181, " mer": 3182, " Â°": 3183, "ession": 3184, " threat": 3185, " writer": 3186, "ributed": 3187, " commercial": 3188, " Henry": 3189, "asion": 3190, "irth": 3191, " Hill": 3192, "erved": 3193, "hens": 3194, " mph": 3195, " units": 3196, " Canada": 3197, " estimated": 3198, "ara": 3199, " San": 3200, " account": 3201, "anned": 3202, " Que": 3203, " esc": 3204, " clear": 3205, " quarter": 3206, " pain": 3207, " Kh": 3208, " claimed": 3209, " joined": 3210, " somet": 3211, " highest": 3212, " Japanese": 3213, "uation": 3214, "utive": 3215, " trib": 3216, " specific": 3217, " surf": 3218, " placed": 3219, " Brown": 3220, " Oldham": 3221, " involved": 3222, "wh": 3223, "ye": 3224, " z": 3225, " lo": 3226, " must": 3227, " signed": 3228, " Times": 3229, " suggested": 3230, " discuss": 3231, " President": 3232, " Tor": 3233, " Vir": 3234, " parts": 3235, " Dep": 3236, " court": 3237, "oms": 3238, "ett": 3239, " 183": 3240, " intens": 3241, " western": 3242, " Olivier": 3243, "BC": 3244, "iter": 3245, "clus": 3246, " proper": 3247, " priv": 3248, " itself": 3249, " Carol": 3250, " league": 3251, " Vietn": 3252, "lic": 3253, " Dr": 3254, " Whe": 3255, " pers": 3256, "istic": 3257, "wood": 3258, " Later": 3259, " object": 3260, " India": 3261, " average": 3262, " Mexico": 3263, "tt": 3264, " shot": 3265, " Arab": 3266, " taking": 3267, " change": 3268, "thlet": 3269, " available": 3270, "olic": 3271, "osing": 3272, " come": 3273, "ington": 3274, " Govern": 3275, " School": 3276, " scene": 3277, " McC": 3278, " introduced": 3279, " cycl": 3280, "ving": 3281, " fly": 3282, " Im": 3283, " whose": 3284, " recording": 3285, " transport": 3286, " term": 3287, " village": 3288, "ita": 3289, " inj": 3290, "now": 3291, " heav": 3292, " Cong": 3293, " hous": 3294, " Val": 3295, " transfer": 3296, " brother": 3297, "achel": 3298, " Thomas": 3299, "bor": 3300, "nes": 3301, " Hall": 3302, " Var": 3303, "ximately": 3304, " religious": 3305, " Irish": 3306, " pen": 3307, "quar": 3308, " race": 3309, "lected": 3310, "ibility": 3311, " break": 3312, "porary": 3313, "ready": 3314, " travel": 3315, "AF": 3316, " don": 3317, "onst": 3318, "acing": 3319, " Pac": 3320, "band": 3321, " told": 3322, " 36": 3323, " slow": 3324, " Britain": 3325, " shows": 3326, " damaged": 3327, " network": 3328, " -": 3329, " Hel": 3330, " stop": 3331, " Card": 3332, "abit": 3333, "rated": 3334, " rail": 3335, " remov": 3336, "pected": 3337, " names": 3338, " turned": 3339, " exec": 3340, " increasing": 3341, " Republic": 3342, " give": 3343, " That": 3344, " mult": 3345, " lines": 3346, " subject": 3347, " Hurricane": 3348, " nine": 3349, " Great": 3350, " Many": 3351, " nearly": 3352, " Scient": 3353, " Guitar": 3354, " despite": 3355, " appointed": 3356, " Sm": 3357, " Not": 3358, " pie": 3359, "oney": 3360, " feel": 3361, " complet": 3362, " community": 3363, " size": 3364, " structure": 3365, " Zeal": 3366, " Zealand": 3367, " ?": 3368, " op": 3369, " Sun": 3370, " date": 3371, " hard": 3372, "elled": 3373, " diss": 3374, " surround": 3375, " passed": 3376, " educ": 3377, " independ": 3378, " phys": 3379, " econom": 3380, " pur": 3381, " Mac": 3382, "iding": 3383, " NY": 3384, "ruction": 3385, "ault": 3386, " Union": 3387, " Gold": 3388, "ronic": 3389, " establish": 3390, " liter": 3391, " initially": 3392, " international": 3393, "pecially": 3394, " certain": 3395, "head": 3396, " withd": 3397, " 184": 3398, " grad": 3399, " going": 3400, " social": 3401, " immedi": 3402, " already": 3403, " Ac": 3404, " Rou": 3405, "ume": 3406, " deal": 3407, " rap": 3408, " chap": 3409, " might": 3410, " assist": 3411, " Chines": 3412, "anna": 3413, " winning": 3414, " archae": 3415, " failed": 3416, " Early": 3417, " display": 3418, " Chinese": 3419, " Ever": 3420, " St.": 3421, " 45": 3422, " score": 3423, " states": 3424, "hedral": 3425, " occup": 3426, " training": 3427, " according": 3428, " type": 3429, " capital": 3430, " language": 3431, " probably": 3432, " Pacific": 3433, " especially": 3434, " Em": 3435, "iff": 3436, " doc": 3437, " 2002": 3438, " food": 3439, "arily": 3440, " minor": 3441, " Colle": 3442, " Mont": 3443, " issue": 3444, " debut": 3445, " forest": 3446, "for": 3447, "aled": 3448, "urt": 3449, " fut": 3450, " Pre": 3451, " test": 3452, " wood": 3453, " male": 3454, " studio": 3455, " III": 3456, " daugh": 3457, " tow": 3458, " conn": 3459, " Mos": 3460, " Os": 3461, "ties": 3462, " includes": 3463, " spent": 3464, " arrived": 3465, " ordered": 3466, " History": 3467, " Wheeler": 3468, " Ã": 3469, " Ag": 3470, " Sl": 3471, " Jin": 3472, " enough": 3473, " Film": 3474, " army": 3475, " Awards": 3476, " remaining": 3477, " particip": 3478, " visit": 3479, " Canadian": 3480, " mem": 3481, "odies": 3482, "onse": 3483, " forward": 3484, " fail": 3485, " Cath": 3486, " Navy": 3487, " mixed": 3488, " sometimes": 3489, "ula": 3490, " UK": 3491, " cru": 3492, "atory": 3493, " complete": 3494, " reviews": 3495, " required": 3496, " Peter": 3497, " approximately": 3498, "nel": 3499, "ays": 3500, " pot": 3501, " Res": 3502, "aries": 3503, "ulated": 3504, "fect": 3505, " latter": 3506, " Creek": 3507, " Sing": 3508, " Don": 3509, " rain": 3510, " abs": 3511, " Rose": 3512, " center": 3513, " remain": 3514, "ference": 3515, "ilities": 3516, " Associ": 3517, " Africa": 3518, " beginning": 3519, "ulf": 3520, " 2000": 3521, "hib": 3522, " Law": 3523, " block": 3524, " Angel": 3525, "eth": 3526, "tation": 3527, "ateg": 3528, " decision": 3529, " lower": 3530, " anti": 3531, " limited": 3532, "enes": 3533, " dro": 3534, "ste": 3535, "chol": 3536, " Art": 3537, " usually": 3538, " additional": 3539, " changes": 3540, " Regiment": 3541, "ites": 3542, " den": 3543, " Mo": 3544, " Jer": 3545, "rian": 3546, " 60": 3547, " better": 3548, " indic": 3549, " president": 3550, " running": 3551, " journ": 3552, " Virgin": 3553, " Rachel": 3554, " response": 3555, "itz": 3556, " Soc": 3557, " ended": 3558, " key": 3559, " students": 3560, " larger": 3561, " positive": 3562, " Super": 3563, " dead": 3564, " Nort": 3565, " woman": 3566, " supported": 3567, " mention": 3568, "quadron": 3569, " magazine": 3570, " Oly": 3571, " notes": 3572, " Stud": 3573, "rics": 3574, " Award": 3575, " touch": 3576, " police": 3577, " Penn": 3578, " Scott": 3579, " depression": 3580, " pressure": 3581, " Olymp": 3582, " cal": 3583, "aval": 3584, " wide": 3585, " Ver": 3586, " poet": 3587, " Charles": 3588, " birds": 3589, "tr": 3590, "gl": 3591, "edy": 3592, "enty": 3593, " shown": 3594, " 1995": 3595, " quest": 3596, " prevent": 3597, " Billboard": 3598, "ases": 3599, "aph": 3600, "aker": 3601, " space": 3602, " related": 3603, " future": 3604, "back": 3605, " 38": 3606, " provide": 3607, " defeated": 3608, " fifth": 3609, "rd": 3610, "uf": 3611, "go": 3612, "arm": 3613, " TV": 3614, " Tom": 3615, " hom": 3616, " Pri": 3617, "stant": 3618, " face": 3619, "uments": 3620, " discovered": 3621, "ih": 3622, "leg": 3623, " Ter": 3624, "owl": 3625, " Fort": 3626, " syn": 3627, " feature": 3628, " staff": 3629, " temper": 3630, " Route": 3631, "ss": 3632, "men": 3633, " anc": 3634, " prior": 3635, " becoming": 3636, "co": 3637, "ids": 3638, "irt": 3639, " aut": 3640, "ands": 3641, "ifa": 3642, "uals": 3643, " doll": 3644, " birth": 3645, " cm": 3646, " exam": 3647, " section": 3648, " Off": 3649, "riage": 3650, " smaller": 3651, " Western": 3652, " frequ": 3653, "mitted": 3654, "onc": 3655, "inct": 3656, "bert": 3657, "aby": 3658, " App": 3659, " disp": 3660, "gely": 3661, "idents": 3662, " groups": 3663, " intended": 3664, " screen": 3665, " idea": 3666, " Scientology": 3667, "aring": 3668, " Inf": 3669, "ishop": 3670, " conclud": 3671, " mostly": 3672, " Frank": 3673, " metres": 3674, " themsel": 3675, " percent": 3676, "stein": 3677, " Haifa": 3678, " themselves": 3679, " Tur": 3680, " Hot": 3681, "aut": 3682, "agon": 3683, "anies": 3684, " Star": 3685, "orial": 3686, "quare": 3687, " 2016": 3688, " Year": 3689, "ney": 3690, " captured": 3691, " referred": 3692, " minutes": 3693, " likely": 3694, " fleet": 3695, " research": 3696, " surface": 3697, "enon": 3698, " fir": 3699, "ching": 3700, " La": 3701, " word": 3702, " office": 3703, " musical": 3704, "iforn": 3705, " Since": 3706, " domin": 3707, "rief": 3708, " Croat": 3709, " professional": 3710, " problems": 3711, " Association": 3712, " largely": 3713, " FI": 3714, " Light": 3715, "rael": 3716, "down": 3717, " flow": 3718, " 75": 3719, " entered": 3720, " media": 3721, " Parliament": 3722, "ee": 3723, "gar": 3724, " sem": 3725, " contem": 3726, " moving": 3727, " amount": 3728, " makes": 3729, " broadcast": 3730, " cer": 3731, " der": 3732, "omm": 3733, "ners": 3734, " Sov": 3735, " emb": 3736, " contains": 3737, " constructed": 3738, " learn": 3739, " Portug": 3740, " radio": 3741, "quarters": 3742, "gu": 3743, "uk": 3744, "Ã³": 3745, "oul": 3746, "sec": 3747, " Oper": 3748, " ens": 3749, " 1999": 3750, " link": 3751, " keep": 3752, " summer": 3753, " Californ": 3754, "ises": 3755, "bers": 3756, " Je": 3757, "pped": 3758, "acted": 3759, "ples": 3760, " pair": 3761, " effects": 3762, " Russ": 3763, " guitar": 3764, " cele": 3765, " money": 3766, "to": 3767, " How": 3768, "cean": 3769, "ios": 3770, " sea": 3771, "anish": 3772, "itte": 3773, "isions": 3774, " grant": 3775, " majority": 3776, " listed": 3777, " nature": 3778, "ergy": 3779, " stories": 3780, " observ": 3781, " Earth": 3782, " ranked": 3783, " voice": 3784, "ville": 3785, " Council": 3786, " Jewish": 3787, " Israel": 3788, "uz": 3789, " lay": 3790, " adop": 3791, " self": 3792, " create": 3793, " arrang": 3794, " experience": 3795, " paren": 3796, " Galvest": 3797, " Galveston": 3798, "den": 3799, "uing": 3800, "eding": 3801, " Met": 3802, " Wood": 3803, " critical": 3804, " leaving": 3805, " Ott": 3806, " thus": 3807, " Chic": 3808, " primary": 3809, " favor": 3810, "lor": 3811, "ires": 3812, "urity": 3813, " consist": 3814, " lived": 3815, " Another": 3816, " location": 3817, "ylv": 3818, "minist": 3819, "owler": 3820, " gods": 3821, " agreed": 3822, " always": 3823, " schol": 3824, " lyrics": 3825, " 2nd": 3826, " pay": 3827, " Fin": 3828, " Go": 3829, "iest": 3830, "aven": 3831, "imate": 3832, "reak": 3833, " lab": 3834, "teen": 3835, " compl": 3836, " rare": 3837, " films": 3838, " runs": 3839, " officers": 3840, " controll": 3841, " launched": 3842, " brief": 3843, " California": 3844, "tar": 3845, "ping": 3846, " Camp": 3847, " coin": 3848, " colon": 3849, " Bey": 3850, " sett": 3851, " teams": 3852, "pool": 3853, " Serv": 3854, " culture": 3855, " friends": 3856, "osaurus": 3857, " quickly": 3858, " Catholic": 3859, " Hol": 3860, " meant": 3861, " Brad": 3862, " minute": 3863, "change": 3864, "hester": 3865, " proposed": 3866, " occurred": 3867, " episodes": 3868, "oor": 3869, "ror": 3870, "pan": 3871, " Ale": 3872, "urg": 3873, " If": 3874, "arts": 3875, " Up": 3876, " whether": 3877, "oke": 3878, "key": 3879, " prem": 3880, " attr": 3881, " access": 3882, " settle": 3883, " increase": 3884, " equip": 3885, " assigned": 3886, "zy": 3887, " sat": 3888, "kan": 3889, " vot": 3890, " pian": 3891, " adap": 3892, " fans": 3893, " forms": 3894, "ification": 3895, " appears": 3896, "atively": 3897, " traff": 3898, "illery": 3899, " defeat": 3900, " changed": 3901, " destroyed": 3902, " Saint": 3903, " traffic": 3904, " Mr": 3905, " Nic": 3906, "imum": 3907, " 400": 3908, " Nix": 3909, " earth": 3910, " tons": 3911, " longer": 3912, "ability": 3913, " commission": 3914, " script": 3915, "ospital": 3916, " Central": 3917, " meaning": 3918, " Chicago": 3919, "asy": 3920, "rup": 3921, " theme": 3922, " job": 3923, " Ross": 3924, " concern": 3925, " Battle": 3926, " competition": 3927, " soldiers": 3928, " numbers": 3929, "sis": 3930, " mom": 3931, "aded": 3932, "andon": 3933, " leave": 3934, "ruit": 3935, " bound": 3936, " trade": 3937, " reach": 3938, " Alice": 3939, "vey": 3940, " 80": 3941, " Haw": 3942, "onym": 3943, " carried": 3944, " awarded": 3945, " focus": 3946, " Northern": 3947, " celebr": 3948, " hop": 3949, "undred": 3950, " 33": 3951, " 1998": 3952, " Enter": 3953, " Qu": 3954, " girl": 3955, " conducted": 3956, " Latin": 3957, " private": 3958, " daughter": 3959, " sil": 3960, " Lou": 3961, " Over": 3962, "bery": 3963, " cred": 3964, " records": 3965, " underst": 3966, " deep": 3967, " subsequently": 3968, " natural": 3969, " newsp": 3970, " ran": 3971, "ortun": 3972, " 300": 3973, " unc": 3974, " plans": 3975, " tourn": 3976, " Mey": 3977, " cause": 3978, " Scot": 3979, " consider": 3980, " analy": 3981, " fighting": 3982, " Villa": 3983, "ari": 3984, " ded": 3985, " Mer": 3986, "iva": 3987, "oir": 3988, " Dj": 3989, " bord": 3990, "itect": 3991, " overall": 3992, " 1993": 3993, " shoot": 3994, " takes": 3995, " influence": 3996, " Polish": 3997, " Second": 3998, " commented": 3999, " industry": 4000, " Alkan": 4001, " +": 4002, " cle": 4003, " Ma": 4004, " Pat": 4005, " Fore": 4006, "ruct": 4007, " Ital": 4008, " finally": 4009, " serious": 4010, " election": 4011, " Liver": 4012, " bring": 4013, " concert": 4014, " bomb": 4015, " asked": 4016, "usband": 4017, " Nixon": 4018, " Liverpool": 4019, " 1st": 4020, " Tay": 4021, " deg": 4022, " kil": 4023, " 32": 4024, " Form": 4025, " emer": 4026, " whole": 4027, " imm": 4028, " ending": 4029, "tained": 4030, " compared": 4031, " method": 4032, " greater": 4033, "sen": 4034, "hou": 4035, "oly": 4036, " BC": 4037, " Gro": 4038, " Its": 4039, " done": 4040, " Sever": 4041, " unable": 4042, " Christm": 4043, " positions": 4044, " married": 4045, " double": 4046, "stitute": 4047, " Texas": 4048, " inn": 4049, " Tre": 4050, "inent": 4051, " our": 4052, "erset": 4053, " Tour": 4054, "well": 4055, " upper": 4056, "anced": 4057, " cann": 4058, "aches": 4059, " buildings": 4060, " Lady": 4061, " Somerset": 4062, " che": 4063, " tar": 4064, " sus": 4065, " got": 4066, "umn": 4067, "ills": 4068, " Mart": 4069, " yet": 4070, "gian": 4071, " centre": 4072, " thick": 4073, " flight": 4074, "anks": 4075, " dram": 4076, " Tropical": 4077, " earned": 4078, " Mosley": 4079, "unt": 4080, " Mil": 4081, " big": 4082, " Cour": 4083, " 20th": 4084, " Three": 4085, " party": 4086, " env": 4087, "aily": 4088, " 1996": 4089, " acqu": 4090, " living": 4091, " personal": 4092, " standard": 4093, " issued": 4094, " nucle": 4095, " begins": 4096, " counter": 4097, " Busch": 4098, " rapid": 4099, "gen": 4100, " Str": 4101, " log": 4102, " box": 4103, " Mount": 4104, " 70": 4105, " kind": 4106, " purch": 4107, " Tenn": 4108, " terms": 4109, " throw": 4110, " directly": 4111, " market": 4112, " marked": 4113, "ittee": 4114, "dle": 4115, " Sk": 4116, "amer": 4117, " Bel": 4118, " hero": 4119, "ulted": 4120, " ult": 4121, "ails": 4122, " Lake": 4123, " movement": 4124, " books": 4125, " status": 4126, " health": 4127, " scenes": 4128, " marriage": 4129, " Spanish": 4130, " Taylor": 4131, " Christmas": 4132, " dom": 4133, " Back": 4134, " concept": 4135, " helped": 4136, " slight": 4137, " portray": 4138, " Fowler": 4139, " Several": 4140, " Jo": 4141, "umed": 4142, " und": 4143, " tell": 4144, " sched": 4145, "istics": 4146, " starting": 4147, " attacks": 4148, " schools": 4149, " experi": 4150, " batter": 4151, " African": 4152, " suffered": 4153, " traditional": 4154, " information": 4155, " planned": 4156, "itor": 4157, "iser": 4158, " dig": 4159, " Pit": 4160, "alled": 4161, " opt": 4162, " Storm": 4163, " jud": 4164, " dark": 4165, " speed": 4166, " giving": 4167, " performances": 4168, " figure": 4169, " associated": 4170, " inspired": 4171, " Infantry": 4172, "ma": 4173, " x": 4174, "AS": 4175, " Tw": 4176, " Sam": 4177, "athan": 4178, " Arch": 4179, " Jane": 4180, " leaders": 4181, "embly": 4182, " closed": 4183, " division": 4184, " presented": 4185, " condoms": 4186, " source": 4187, " Party": 4188, "itude": 4189, " machine": 4190, " Soviet": 4191, " abandon": 4192, " husband": 4193, " mur": 4194, " via": 4195, "awn": 4196, " presence": 4197, " Foot": 4198, " greatest": 4199, " initial": 4200, " Series": 4201, " raised": 4202, " determin": 4203, "II": 4204, "iant": 4205, " unit": 4206, " room": 4207, " uses": 4208, " wound": 4209, " Vict": 4210, " writers": 4211, " Bob": 4212, " except": 4213, " continue": 4214, " Cross": 4215, "mium": 4216, " nearby": 4217, "aught": 4218, " Paris": 4219, " Carolina": 4220, " education": 4221, " document": 4222, " Virginia": 4223, "Ã³n": 4224, "ylvania": 4225, " Rosebery": 4226, "ks": 4227, "itation": 4228, " plot": 4229, " Live": 4230, "raf": 4231, " uns": 4232, " norm": 4233, " dism": 4234, " image": 4235, " Boy": 4236, "iami": 4237, " collection": 4238, " covered": 4239, " cyclone": 4240, " Penns": 4241, "cing": 4242, " rein": 4243, "olk": 4244, " Ben": 4245, "oration": 4246, " Jam": 4247, " chall": 4248, " Just": 4249, " weap": 4250, " Ant": 4251, " complex": 4252, " composed": 4253, " annual": 4254, " services": 4255, "incip": 4256, " Queen": 4257, " College": 4258, " hundred": 4259, "atre": 4260, " Cer": 4261, "eway": 4262, " really": 4263, "erve": 4264, " 1997": 4265, " Rob": 4266, " polic": 4267, " commander": 4268, " extended": 4269, " producer": 4270, " figures": 4271, " numerous": 4272, " territory": 4273, " cathedral": 4274, " bodies": 4275, "oncÃ©": 4276, " BeyoncÃ©": 4277, " tor": 4278, "ken": 4279, "bar": 4280, "etic": 4281, "aging": 4282, "essa": 4283, " fell": 4284, "icted": 4285, " enj": 4286, " park": 4287, " Six": 4288, " things": 4289, " path": 4290, " 90": 4291, " Open": 4292, " Germany": 4293, " depend": 4294, " proteins": 4295, " vocals": 4296, " Museum": 4297, " Miami": 4298, " enjoy": 4299, "anded": 4300, " sev": 4301, "ift": 4302, " 39": 4303, "ously": 4304, "rical": 4305, " Nations": 4306, " prep": 4307, " operation": 4308, " Club": 4309, "erbe": 4310, " something": 4311, " waters": 4312, "anz": 4313, "anas": 4314, " Their": 4315, " Through": 4316, " highly": 4317, " attacked": 4318, " attempts": 4319, " request": 4320, "estival": 4321, " morning": 4322, " strength": 4323, " investig": 4324, " companies": 4325, " Service": 4326, "ny": 4327, "ander": 4328, " Inn": 4329, " dise": 4330, " Ill": 4331, " reject": 4332, " transl": 4333, " financ": 4334, " metal": 4335, " aspect": 4336, " confir": 4337, " Prince": 4338, " talk": 4339, " era": 4340, " individual": 4341, " immediately": 4342, "admium": 4343, " Pennsylvania": 4344, " pil": 4345, " S.": 4346, " Sur": 4347, "lim": 4348, "uries": 4349, " Inter": 4350, "apo": 4351, " stone": 4352, " Games": 4353, " interse": 4354, " incor": 4355, " artist": 4356, " distance": 4357, " necess": 4358, " allowing": 4359, " powerful": 4360, " nuclear": 4361, "ademy": 4362, " situation": 4363, " removed": 4364, " Squadron": 4365, " piano": 4366, "NA": 4367, "mon": 4368, "ply": 4369, "olf": 4370, " Hum": 4371, "ipp": 4372, " Water": 4373, "lands": 4374, " recover": 4375, "ibly": 4376, " offered": 4377, " studies": 4378, "vement": 4379, " inside": 4380, " advance": 4381, " variety": 4382, " Jackson": 4383, " needed": 4384, " peaked": 4385, " selected": 4386, " habit": 4387, " artillery": 4388, " Scotland": 4389, "TV": 4390, " hot": 4391, "chan": 4392, " rate": 4393, " 42": 4394, " 182": 4395, " Jose": 4396, " means": 4397, " 1991": 4398, " native": 4399, " attend": 4400, " Chris": 4401, " attempted": 4402, " Somal": 4403, " countries": 4404, " Under": 4405, " copies": 4406, " headquarters": 4407, "rol": 4408, " AI": 4409, "ether": 4410, " Los": 4411, "ria": 4412, "anta": 4413, " kick": 4414, " coach": 4415, "adium": 4416, "imony": 4417, "pole": 4418, "ribution": 4419, " China": 4420, " tracks": 4421, " hands": 4422, " search": 4423, " saf": 4424, " casual": 4425, " respectively": 4426, " scoring": 4427, " responsible": 4428, " purp": 4429, "track": 4430, " architect": 4431, " princip": 4432, "een": 4433, " Out": 4434, " 47": 4435, " describes": 4436, " impact": 4437, " Major": 4438, " advant": 4439, " mole": 4440, " Anderson": 4441, " appearances": 4442, " Both": 4443, " purs": 4444, " genus": 4445, " higher": 4446, " widely": 4447, " symb": 4448, " rule": 4449, " Department": 4450, " touchdown": 4451, "ha": 4452, "cer": 4453, "cend": 4454, " Dan": 4455, "andid": 4456, " Nor": 4457, " Crit": 4458, "anger": 4459, " spir": 4460, " 1992": 4461, "orship": 4462, " sets": 4463, " text": 4464, " course": 4465, " controvers": 4466, " Corps": 4467, " sexual": 4468, " Braat": 4469, " observed": 4470, " heavily": 4471, " Football": 4472, "of": 4473, "rey": 4474, "oud": 4475, " Are": 4476, " 44": 4477, " adult": 4478, "ports": 4479, " 1994": 4480, " pick": 4481, " amb": 4482, " below": 4483, " phot": 4484, "reme": 4485, " relief": 4486, " meeting": 4487, " reduced": 4488, " Alex": 4489, " middle": 4490, " xenon": 4491, "iny": 4492, " ang": 4493, " Li": 4494, " plat": 4495, " boy": 4496, " intern": 4497, " active": 4498, " Like": 4499, " singer": 4500, " sixth": 4501, "icient": 4502, " secret": 4503, " matches": 4504, "ricket": 4505, " audience": 4506, " Minnes": 4507, " concluded": 4508, " administ": 4509, " resulted": 4510, " Minnesota": 4511, "ga": 4512, "aen": 4513, "car": 4514, " sal": 4515, "ils": 4516, " Tem": 4517, " true": 4518, " Time": 4519, "lict": 4520, "ship": 4521, " lands": 4522, " Franc": 4523, "inkel": 4524, " activity": 4525, " activities": 4526, " completely": 4527, " Victor": 4528, "akapo": 4529, "cts": 4530, "isher": 4531, " Del": 4532, "send": 4533, " ess": 4534, " stating": 4535, " managed": 4536, " Southern": 4537, " Center": 4538, " revealed": 4539, " 3rd": 4540, " contemporary": 4541, " opportun": 4542, " Townsend": 4543, "ems": 4544, " fill": 4545, "ocr": 4546, " hour": 4547, " Sea": 4548, "like": 4549, " Colon": 4550, "atives": 4551, " levels": 4552, " declared": 4553, " refused": 4554, " trees": 4555, " quality": 4556, " separate": 4557, " graph": 4558, " Italian": 4559, " bad": 4560, " Sir": 4561, "ication": 4562, " Long": 4563, "iated": 4564, "ologist": 4565, "cause": 4566, " blue": 4567, "annel": 4568, " 1970": 4569, " constit": 4570, "rowd": 4571, " Force": 4572, " drum": 4573, " Midd": 4574, " question": 4575, " Hawai": 4576, " Meyerbe": 4577, " Walpole": 4578, " Finkel": 4579, " Because": 4580, " Meyerbeer": 4581, " Finkelstein": 4582, "MS": 4583, "ining": 4584, " Sol": 4585, "ify": 4586, "aped": 4587, "iqu": 4588, "lement": 4589, "peror": 4590, " recent": 4591, "athus": 4592, " shell": 4593, " blood": 4594, " featuring": 4595, " instit": 4596, " carry": 4597, " model": 4598, " approach": 4599, " university": 4600, " contrast": 4601, " historical": 4602, " background": 4603, " typically": 4604, " today": 4605, " parents": 4606, " Shiva": 4607, " Tessa": 4608, " ris": 4609, "ares": 4610, "oph": 4611, " Cast": 4612, " 51": 4613, " Yue": 4614, " 76": 4615, " actions": 4616, " descript": 4617, " issues": 4618, " conditions": 4619, " paper": 4620, " iron": 4621, " expected": 4622, " multip": 4623, " Smith": 4624, " Society": 4625, " Ottoman": 4626, " Nicole": 4627, "hew": 4628, " wing": 4629, "ican": 4630, " Bet": 4631, "utch": 4632, " Lit": 4633, " Mill": 4634, " compos": 4635, "uff": 4636, " plays": 4637, "rawn": 4638, "oint": 4639, " Wild": 4640, " peace": 4641, " entr": 4642, " mainly": 4643, "alty": 4644, " rhy": 4645, " tax": 4646, " attention": 4647, " weaken": 4648, " reception": 4649, " becomes": 4650, " efforts": 4651, " houses": 4652, "force": 4653, " wit": 4654, "cle": 4655, " pow": 4656, " nation": 4657, " Jim": 4658, " 37": 4659, " offer": 4660, "ounds": 4661, " specim": 4662, " subs": 4663, " grand": 4664, " emot": 4665, " brown": 4666, "ervation": 4667, " webs": 4668, " Emp": 4669, "shire": 4670, " Highway": 4671, " vehic": 4672, " Balt": 4673, " strugg": 4674, " residents": 4675, " Braathens": 4676, "isl": 4677, "ging": 4678, "ado": 4679, " lot": 4680, " Dam": 4681, "rate": 4682, " calling": 4683, " actually": 4684, " titles": 4685, " sense": 4686, " magn": 4687, " Hait": 4688, " narr": 4689, "ufact": 4690, " consec": 4691, " soundtrack": 4692, "het": 4693, "bed": 4694, "eds": 4695, " Nes": 4696, "ellig": 4697, " roy": 4698, " Dire": 4699, "ware": 4700, " roles": 4701, " 1990": 4702, " seasons": 4703, " write": 4704, " Johnson": 4705, " hair": 4706, " Blue": 4707, " Adam": 4708, " struck": 4709, " task": 4710, " accepted": 4711, " achieved": 4712, " demonst": 4713, " cannot": 4714, " Court": 4715, " Illino": 4716, "imin": 4717, " Dem": 4718, " lif": 4719, "uated": 4720, "icip": 4721, " wear": 4722, " resc": 4723, " instr": 4724, " famil": 4725, "uese": 4726, " Charl": 4727, " respond": 4728, " protein": 4729, " bene": 4730, " viewers": 4731, "arent": 4732, " vocal": 4733, " practice": 4734, " Vietnam": 4735, " athlet": 4736, " recomm": 4737, " Portuguese": 4738, " beat": 4739, "aine": 4740, " Jul": 4741, "rial": 4742, " thous": 4743, " 48": 4744, " 181": 4745, "onents": 4746, "hood": 4747, " Thunder": 4748, " Fey": 4749, " elev": 4750, " corn": 4751, "appen": 4752, " scient": 4753, " fiction": 4754, " sequence": 4755, " avoid": 4756, " Government": 4757, " primarily": 4758, " Academy": 4759, " crowd": 4760, " Ty": 4761, " lb": 4762, " Gar": 4763, " Tod": 4764, " Of": 4765, " Er": 4766, " 52": 4767, " board": 4768, "essions": 4769, " Rev": 4770, "itual": 4771, " elected": 4772, " 1986": 4773, "venue": 4774, " owned": 4775, " combat": 4776, " Civil": 4777, " types": 4778, " chem": 4779, " infantry": 4780, " spread": 4781, " Columb": 4782, " twenty": 4783, " slightly": 4784, "anes": 4785, "ding": 4786, " nin": 4787, "acher": 4788, " Ram": 4789, " Land": 4790, " plant": 4791, " Kr": 4792, "writ": 4793, "ulations": 4794, " sport": 4795, " altern": 4796, "hold": 4797, " News": 4798, " inches": 4799, " Engine": 4800, " scale": 4801, " 150": 4802, " sales": 4803, " concent": 4804, " max": 4805, " Spain": 4806, " rights": 4807, " sister": 4808, " offensive": 4809, " expressed": 4810, " affected": 4811, " northeast": 4812, " Captain": 4813, "estic": 4814, "ulpt": 4815, " 34": 4816, " Mog": 4817, " 180": 4818, " rough": 4819, " neigh": 4820, " showed": 4821, " Review": 4822, " officer": 4823, "aha": 4824, "ograph": 4825, " words": 4826, " horse": 4827, " Horse": 4828, "Äd": 4829, "ceeded": 4830, "cription": 4831, " Louis": 4832, " Group": 4833, " sculpt": 4834, "vin": 4835, "uit": 4836, "road": 4837, " Mal": 4838, " suc": 4839, " pup": 4840, "ushed": 4841, " sout": 4842, " spl": 4843, " themes": 4844, "bury": 4845, "ledge": 4846, " Wels": 4847, " county": 4848, " ability": 4849, " window": 4850, " walk": 4851, " Young": 4852, " Green": 4853, " battalion": 4854, " combined": 4855, " Tint": 4856, " Secret": 4857, " Zhou": 4858, " Varanas": 4859, " Little": 4860, " Empire": 4861, " Welsh": 4862, " Tintin": 4863, " Varanasi": 4864, "FA": 4865, "nh": 4866, " pun": 4867, "ingu": 4868, " rear": 4869, " sust": 4870, "light": 4871, " Though": 4872, " prec": 4873, "house": 4874, "arrow": 4875, " titled": 4876, " progress": 4877, " Andrew": 4878, " cultural": 4879, "bitt": 4880, " fruit": 4881, "onymous": 4882, " incorpor": 4883, " casualties": 4884, " Nesbitt": 4885, "BA": 4886, "mun": 4887, "emic": 4888, " L.": 4889, " Dist": 4890, "umber": 4891, " Burn": 4892, " remark": 4893, " produce": 4894, " Manc": 4895, " continues": 4896, " says": 4897, " Eva": 4898, " mountain": 4899, "ironment": 4900, " excav": 4901, " Angeles": 4902, " mentioned": 4903, " ancient": 4904, " square": 4905, " earliest": 4906, " newspaper": 4907, " murder": 4908, " Ceres": 4909, " Odaen": 4910, " recommend": 4911, " Odaenathus": 4912, " inh": 4913, "omer": 4914, " I.": 4915, " hol": 4916, "eter": 4917, "oses": 4918, " Home": 4919, " Turn": 4920, "etts": 4921, " actor": 4922, " Conf": 4923, " Book": 4924, " artists": 4925, " Commun": 4926, "pedo": 4927, " Trans": 4928, " resulting": 4929, "Mont": 4930, " Sarn": 4931, " authorities": 4932, " Spec": 4933, " championship": 4934, " dyn": 4935, " Records": 4936, " influenced": 4937, " fully": 4938, " flooding": 4939, " Olympic": 4940, " distinct": 4941, " cerem": 4942, " adopted": 4943, " disease": 4944, " manufact": 4945, " DuMont": 4946, " Sarnia": 4947, "ev": 4948, "gal": 4949, " Rad": 4950, "enant": 4951, "utions": 4952, " reports": 4953, " Add": 4954, " mission": 4955, " Origin": 4956, " basis": 4957, " represented": 4958, "while": 4959, " PerÃ³n": 4960, " advantage": 4961, " Illinois": 4962, " har": 4963, " Bol": 4964, " Jos": 4965, " Om": 4966, " coming": 4967, " repe": 4968, "ovic": 4969, "nown": 4970, " toward": 4971, " alone": 4972, " Arg": 4973, " qual": 4974, " grass": 4975, "bird": 4976, " Cont": 4977, "helm": 4978, " defense": 4979, " letters": 4980, " assault": 4981, " tower": 4982, " Apple": 4983, " tournament": 4984, " apparent": 4985, " Mogad": 4986, " Manchester": 4987, " Thunderbird": 4988, "nds": 4989, " Sal": 4990, " SR": 4991, "imb": 4992, "orus": 4993, " Fred": 4994, " reign": 4995, " react": 4996, " workers": 4997, " Def": 4998, "ocks": 4999, " founded": 5000, " Wash": 5001, " armed": 5002, " sides": 5003, " alongside": 5004, " bridge": 5005, " encour": 5006, " northwest": 5007, " occasion": 5008, " withdraw": 5009, " exhib": 5010, " relatively": 5011, " kakapo": 5012, " torpedo": 5013, " Washington": 5014, "lin": 5015, " fa": 5016, "room": 5017, "mir": 5018, " Dou": 5019, " nest": 5020, " Four": 5021, " Post": 5022, " contain": 5023, " 18th": 5024, " 1988": 5025, " direction": 5026, " officially": 5027, " edition": 5028, " termin": 5029, " tried": 5030, " organized": 5031, " capture": 5032, " legal": 5033, " attended": 5034, " illust": 5035, " yellow": 5036, " losing": 5037, " transferred": 5038, " individuals": 5039, " Ocean": 5040, " cadmium": 5041, " mechan": 5042, " narrow": 5043, " Av": 5044, " Way": 5045, "osen": 5046, " mess": 5047, "eller": 5048, "ogue": 5049, " mile": 5050, " Alab": 5051, "ension": 5052, " perman": 5053, " proved": 5054, " acting": 5055, " effort": 5056, " Clark": 5057, " Produ": 5058, " require": 5059, " officials": 5060, " measure": 5061, " surrounding": 5062, " physical": 5063, " dedicated": 5064, " Middle": 5065, " Omaha": 5066, " Alabama": 5067, "AA": 5068, "mes": 5069, " du": 5070, " MD": 5071, " thir": 5072, "usion": 5073, "ricult": 5074, " rang": 5075, " prin": 5076, " doing": 5077, "prise": 5078, " emph": 5079, " edge": 5080, " lives": 5081, " extr": 5082, " starl": 5083, " couple": 5084, " eye": 5085, " rainfall": 5086, " energy": 5087, " candid": 5088, " conflict": 5089, "ien": 5090, "wen": 5091, "ading": 5092, "adel": 5093, "imore": 5094, "right": 5095, "ishu": 5096, " follows": 5097, " 1960s": 5098, " designated": 5099, " Mean": 5100, " shortly": 5101, " prepar": 5102, " Reception": 5103, " pattern": 5104, " divided": 5105, " intensity": 5106, " Helms": 5107, " financial": 5108, " possibly": 5109, " Mogadishu": 5110, " hun": 5111, "ols": 5112, " ir": 5113, " Hal": 5114, " Sch": 5115, " Fam": 5116, " ven": 5117, " vo": 5118, " Fant": 5119, " your": 5120, " Lord": 5121, " youn": 5122, " 49": 5123, "mond": 5124, " 65": 5125, " paid": 5126, " albums": 5127, " 1940": 5128, " 1980s": 5129, " 1964": 5130, " winter": 5131, " faced": 5132, " images": 5133, " older": 5134, " shape": 5135, " Edward": 5136, " society": 5137, " sources": 5138, " determined": 5139, " Innis": 5140, " simply": 5141, " maximum": 5142, " Wilhelm": 5143, "mit": 5144, " ple": 5145, " Bre": 5146, " aid": 5147, " NC": 5148, " rat": 5149, " Kent": 5150, "lied": 5151, "orses": 5152, " Cons": 5153, " raid": 5154, "rane": 5155, " step": 5156, " portion": 5157, " Max": 5158, "ugby": 5159, " behav": 5160, " places": 5161, " chief": 5162, " kept": 5163, " function": 5164, " Independ": 5165, " Histor": 5166, " piece": 5167, " dissip": 5168, " potential": 5169, " journal": 5170, " comedy": 5171, " onto": 5172, "uzz": 5173, " border": 5174, " Assembly": 5175, " broken": 5176, " Joseph": 5177, " emphas": 5178, "ental": 5179, " sac": 5180, "igan": 5181, "use": 5182, " Jup": 5183, " charge": 5184, " movie": 5185, " cities": 5186, " univers": 5187, " Commission": 5188, " protect": 5189, "onna": 5190, " Journ": 5191, " Fleet": 5192, " argued": 5193, " advert": 5194, " McCall": 5195, " thr": 5196, "ada": 5197, " B.": 5198, "rid": 5199, " Fer": 5200, "oper": 5201, " heart": 5202, " content": 5203, " Van": 5204, " wild": 5205, " mind": 5206, " color": 5207, " depth": 5208, " feder": 5209, " suggests": 5210, " grew": 5211, " authority": 5212, " sites": 5213, " projects": 5214, " management": 5215, " Hamels": 5216, " PlayS": 5217, " Rih": 5218, " folk": 5219, " domestic": 5220, " Argent": 5221, " Baltimore": 5222, " PlayStation": 5223, " Rihanna": 5224, " wor": 5225, "edar": 5226, "iled": 5227, " dut": 5228, " Rh": 5229, " Dest": 5230, " wave": 5231, "lection": 5232, "rown": 5233, " weak": 5234, " 64": 5235, " gained": 5236, " roll": 5237, "acement": 5238, " belong": 5239, " depart": 5240, " Common": 5241, " science": 5242, " causing": 5243, " prison": 5244, "atops": 5245, " twice": 5246, " criticized": 5247, " structures": 5248, " paint": 5249, " Greek": 5250, " letter": 5251, " museum": 5252, " Valley": 5253, " Bowl": 5254, " target": 5255, " ultimately": 5256, " schedul": 5257, " entrance": 5258, " website": 5259, " legisl": 5260, " royal": 5261, "ex": 5262, "je": 5263, "edk": 5264, " fit": 5265, " unk": 5266, "ani": 5267, "ening": 5268, "ented": 5269, "lies": 5270, " vess": 5271, "enture": 5272, " Cra": 5273, " Tru": 5274, " 5th": 5275, " share": 5276, " neut": 5277, " formation": 5278, " containing": 5279, " extra": 5280, " results": 5281, " Week": 5282, " debuted": 5283, " fung": 5284, " Palest": 5285, " doub": 5286, " homes": 5287, " Jupiter": 5288, " Djedk": 5289, " Djedkare": 5290, " Gall": 5291, " kg": 5292, "asty": 5293, " Writ": 5294, "wide": 5295, " Ven": 5296, " Mass": 5297, " agg": 5298, " defence": 5299, " 1947": 5300, " artic": 5301, " battles": 5302, "claim": 5303, "mission": 5304, " defensive": 5305, " foreign": 5306, " deploy": 5307, " Torres": 5308, " opin": 5309, " Constant": 5310, " label": 5311, " hospital": 5312, " chosen": 5313, "VD": 5314, " Sen": 5315, " Sar": 5316, " 're": 5317, " inch": 5318, " Lis": 5319, "umes": 5320, "resh": 5321, " core": 5322, " Lew": 5323, "acks": 5324, " Kore": 5325, "bour": 5326, " Night": 5327, " Hib": 5328, " mouth": 5329, " Horn": 5330, " master": 5331, " standing": 5332, " Eastern": 5333, " reference": 5334, " frag": 5335, " brigade": 5336, " growing": 5337, " animal": 5338, " buried": 5339, " granted": 5340, " security": 5341, " prominent": 5342, " abandoned": 5343, " dismiss": 5344, " rejected": 5345, " consecutive": 5346, " DVD": 5347, " Sil": 5348, " FA": 5349, "inary": 5350, " Once": 5351, " Ann": 5352, " therefore": 5353, " 1941": 5354, " colony": 5355, " visited": 5356, " claims": 5357, " temple": 5358, " orders": 5359, " cells": 5360, " organization": 5361, "white": 5362, " Scottish": 5363, " Forest": 5364, " risk": 5365, " Applewhite": 5366, "nding": 5367, " mel": 5368, "met": 5369, " rom": 5370, " Lo": 5371, "iana": 5372, " Chap": 5373, " spot": 5374, "stone": 5375, " remix": 5376, " regions": 5377, " seconds": 5378, "roll": 5379, "phia": 5380, " singles": 5381, " 1987": 5382, " Short": 5383, " student": 5384, " miner": 5385, " seek": 5386, " broke": 5387, " Airport": 5388, " condition": 5389, " jump": 5390, " independent": 5391, " wounded": 5392, "adelphia": 5393, "ML": 5394, " Ap": 5395, " Cam": 5396, " Big": 5397, " J.": 5398, " Tri": 5399, " Pop": 5400, " adj": 5401, "mark": 5402, " Child": 5403, " fix": 5404, "isters": 5405, " Att": 5406, " enter": 5407, "ertain": 5408, " 1970s": 5409, "ancy": 5410, " versions": 5411, " collect": 5412, " planet": 5413, " solo": 5414, " cases": 5415, " identified": 5416, " enemy": 5417, " reaching": 5418, " collabor": 5419, " nominated": 5420, " seems": 5421, " Egyptian": 5422, " ahead": 5423, " temperature": 5424, " equipment": 5425, " moment": 5426, " Institute": 5427, " Background": 5428, " intellig": 5429, " C.": 5430, "ims": 5431, "ech": 5432, " conver": 5433, " Us": 5434, " height": 5435, " Due": 5436, " 53": 5437, " newly": 5438, " 9th": 5439, " element": 5440, " 120": 5441, " 1984": 5442, " 1989": 5443, " 1972": 5444, " aired": 5445, " returning": 5446, " supporting": 5447, " Before": 5448, " males": 5449, " campus": 5450, " Further": 5451, " opposed": 5452, " bott": 5453, " unique": 5454, " problem": 5455, " BBC": 5456, " SAF": 5457, " Croatia": 5458, " knowledge": 5459, " SAFE": 5460, " wa": 5461, " fle": 5462, "iles": 5463, " tur": 5464, " Bir": 5465, "ety": 5466, "ocated": 5467, "astic": 5468, " fear": 5469, "rete": 5470, "uous": 5471, " 4th": 5472, " Each": 5473, " dress": 5474, " weight": 5475, " Good": 5476, " interp": 5477, " Lock": 5478, " Mike": 5479, " 1985": 5480, " fired": 5481, " Indust": 5482, " operated": 5483, " looking": 5484, " Dr.": 5485, " increasingly": 5486, " literature": 5487, " connect": 5488, " Operation": 5489, " analysis": 5490, " teacher": 5491, " unknown": 5492, "bon": 5493, " tun": 5494, "igg": 5495, " Po": 5496, " Lar": 5497, " here": 5498, "iate": 5499, " shr": 5500, " compr": 5501, " theory": 5502, "asters": 5503, " writes": 5504, " defin": 5505, " Field": 5506, " 1960": 5507, " believe": 5508, " explained": 5509, " commonly": 5510, " Barrow": 5511, " historian": 5512, " ideas": 5513, " council": 5514, " burns": 5515, " Cardiff": 5516, " breeding": 5517, " settlement": 5518, " confirmed": 5519, " HMS": 5520, " environment": 5521, " ox": 5522, " oil": 5523, " 'm": 5524, "orter": 5525, "atch": 5526, " RA": 5527, " alter": 5528, " atm": 5529, " Sum": 5530, " Ox": 5531, "ortal": 5532, " More": 5533, " bud": 5534, " 55": 5535, " stations": 5536, "ibr": 5537, " Only": 5538, "hips": 5539, " singing": 5540, " 1944": 5541, " systems": 5542, " phil": 5543, " herself": 5544, " females": 5545, " Public": 5546, " arrest": 5547, " consisted": 5548, " property": 5549, " economic": 5550, " perfect": 5551, " scholars": 5552, " controlled": 5553, " Entertain": 5554, " advanced": 5555, " molec": 5556, " cricket": 5557, " Michigan": 5558, " Philadelphia": 5559, " atmosp": 5560, "yes": 5561, " Jon": 5562, "odon": 5563, " fast": 5564, " Norm": 5565, "alions": 5566, " mount": 5567, " Never": 5568, " deities": 5569, " 1990s": 5570, " Even": 5571, " fox": 5572, " growth": 5573, " Keats": 5574, "appy": 5575, " Swed": 5576, " parliament": 5577, " Mounted": 5578, " devot": 5579, " strengt": 5580, " pieces": 5581, " failure": 5582, " dropped": 5583, " kilomet": 5584, " maintained": 5585, " happen": 5586, " Meanwhile": 5587, " pan": 5588, " Bon": 5589, "isation": 5590, "tav": 5591, " compar": 5592, "istry": 5593, " sens": 5594, " Arm": 5595, " filmed": 5596, " Album": 5597, " creation": 5598, " Carl": 5599, " awards": 5600, " Class": 5601, " killing": 5602, " Williams": 5603, " pitched": 5604, " landfall": 5605, " Morr": 5606, " strike": 5607, " honor": 5608, " flying": 5609, " injury": 5610, " freeway": 5611, " Dutch": 5612, " Addition": 5613, "aling": 5614, " Ban": 5615, " G.": 5616, "agan": 5617, " Jur": 5618, "ighth": 5619, " try": 5620, " 43": 5621, " speak": 5622, " 600": 5623, " serve": 5624, " actress": 5625, "airs": 5626, " retired": 5627, " resemb": 5628, " exped": 5629, " extend": 5630, " km2": 5631, " boats": 5632, " Andy": 5633, " belief": 5634, " humans": 5635, " conne": 5636, " Italy": 5637, " Steve": 5638, " promoted": 5639, " value": 5640, "urban": 5641, " mounted": 5642, "ieval": 5643, " Congress": 5644, " Prem": 5645, " rapidly": 5646, " battery": 5647, " Nathan": 5648, " weapons": 5649, " horses": 5650, "sw": 5651, " bid": 5652, "lers": 5653, " stra": 5654, " 56": 5655, " imag": 5656, " pict": 5657, " Americans": 5658, " weather": 5659, " passes": 5660, " passing": 5661, " publication": 5662, " Minister": 5663, " Abu": 5664, " significantly": 5665, "stream": 5666, " religion": 5667, " promotion": 5668, " selling": 5669, " recognized": 5670, " creating": 5671, " invasion": 5672, " connected": 5673, " Conference": 5674, " cougar": 5675, " semi": 5676, " premi": 5677, " prepared": 5678, " description": 5679, " multiple": 5680, " federal": 5681, " straight": 5682, "Le": 5683, " Sor": 5684, " ast": 5685, "oty": 5686, "itch": 5687, "more": 5688, "oured": 5689, " Gord": 5690, "uge": 5691, "asure": 5692, "pass": 5693, " chose": 5694, "ampion": 5695, " Develop": 5696, " leader": 5697, " famous": 5698, " matter": 5699, " Video": 5700, " bats": 5701, " Guard": 5702, " restaur": 5703, " deliver": 5704, " popularity": 5705, "arrison": 5706, " protest": 5707, " producers": 5708, " Final": 5709, " sought": 5710, " walls": 5711, " regarded": 5712, " data": 5713, "haps": 5714, " volume": 5715, " column": 5716, " seventh": 5717, " aspects": 5718, " necessary": 5719, " scheduled": 5720, "gn": 5721, "ano": 5722, " Bu": 5723, " Pet": 5724, " sand": 5725, "ella": 5726, " cust": 5727, " Rog": 5728, " 46": 5729, " spect": 5730, "icks": 5731, " Matt": 5732, "amese": 5733, "ersey": 5734, " laid": 5735, " flank": 5736, " 1981": 5737, " rise": 5738, "agement": 5739, " starts": 5740, " landing": 5741, " guest": 5742, "heless": 5743, " convers": 5744, " reaction": 5745, " Jeff": 5746, " accompan": 5747, " nucleus": 5748, " sustained": 5749, " agricult": 5750, " Vietnamese": 5751, "eer": 5752, "isy": 5753, " ge": 5754, " tim": 5755, "ulate": 5756, " Hart": 5757, " dated": 5758, " Stan": 5759, " Bost": 5760, "ieut": 5761, " tact": 5762, "izing": 5763, "ographer": 5764, " rival": 5765, " delay": 5766, " Among": 5767, " castle": 5768, " Camb": 5769, " strik": 5770, " fought": 5771, " currently": 5772, " employed": 5773, "clusion": 5774, " Gulf": 5775, " beaut": 5776, " Haven": 5777, " families": 5778, " Thunderbirds": 5779, " philos": 5780, " Cambod": 5781, "che": 5782, "ees": 5783, "omy": 5784, "ads": 5785, " H.": 5786, "apt": 5787, "appe": 5788, "inity": 5789, " train": 5790, " Line": 5791, " 41": 5792, "ansion": 5793, "crib": 5794, " 700": 5795, " ends": 5796, " supply": 5797, " rating": 5798, " contained": 5799, " arms": 5800, " 1939": 5801, " prompt": 5802, " drive": 5803, " trial": 5804, " phase": 5805, "heastern": 5806, " underground": 5807, " outer": 5808, " Athlet": 5809, " Slam": 5810, " facilities": 5811, " virt": 5812, " frequently": 5813, " budget": 5814, "RA": 5815, " Sat": 5816, " Che": 5817, " M.": 5818, "iring": 5819, "rain": 5820, " Gi": 5821, " Les": 5822, " Op": 5823, " Ul": 5824, " save": 5825, " unus": 5826, " tree": 5827, " contact": 5828, "itable": 5829, " Anth": 5830, " reform": 5831, " fict": 5832, " actors": 5833, " drop": 5834, " bank": 5835, "orney": 5836, "lines": 5837, " 1942": 5838, " 17th": 5839, " Naz": 5840, " allows": 5841, " collected": 5842, " Pho": 5843, " finds": 5844, " spring": 5845, " reflect": 5846, " Girl": 5847, " negative": 5848, " contributed": 5849, " executive": 5850, "insula": 5851, "rupt": 5852, " silver": 5853, " clean": 5854, " degree": 5855, " Festival": 5856, " Revolution": 5857, " bottom": 5858, " Oxford": 5859, " Gordon": 5860, " sen": 5861, "onent": 5862, "amic": 5863, " bey": 5864, " Den": 5865, "aved": 5866, " End": 5867, "illo": 5868, "angers": 5869, " cited": 5870, "olved": 5871, " Sha": 5872, " opera": 5873, " 1950s": 5874, " 130": 5875, " 1918": 5876, " USA": 5877, " Friend": 5878, " effective": 5879, " entirely": 5880, " animals": 5881, " improved": 5882, " computer": 5883, " subsequent": 5884, "standing": 5885, " Coast": 5886, " Studios": 5887, " shaped": 5888, " Between": 5889, " NBA": 5890, " Turner": 5891, " Crazy": 5892, " fresh": 5893, " Entertainment": 5894, " Premier": 5895, "ieutenant": 5896, " beyond": 5897, "asc": 5898, "alle": 5899, "thur": 5900, " bow": 5901, " gain": 5902, " Work": 5903, " 54": 5904, "ansas": 5905, " notable": 5906, " mob": 5907, " Mario": 5908, " 1969": 5909, " 1968": 5910, "uccess": 5911, " express": 5912, "ropium": 5913, "ashion": 5914, " gives": 5915, " simple": 5916, " recently": 5917, " draft": 5918, " medical": 5919, " Boise": 5920, " Obs": 5921, " extensive": 5922, " finding": 5923, "ushing": 5924, " gradually": 5925, " Muslim": 5926, " Today": 5927, " Lewis": 5928, " kilometres": 5929, " Boston": 5930, "cy": 5931, " Pen": 5932, " Der": 5933, " Jain": 5934, " Gard": 5935, "sea": 5936, " 57": 5937, "iments": 5938, " dates": 5939, " finals": 5940, " Cold": 5941, " 've": 5942, " secondary": 5943, "ocked": 5944, " Leg": 5945, " severe": 5946, " 179": 5947, " 1975": 5948, "azz": 5949, " Chel": 5950, " stages": 5951, " serving": 5952, " People": 5953, " programs": 5954, " egg": 5955, " Russian": 5956, " Martin": 5957, " expanded": 5958, " antimony": 5959, "ki": 5960, " bit": 5961, " So": 5962, " ham": 5963, " Cre": 5964, "cel": 5965, " Jes": 5966, " comes": 5967, "rong": 5968, "unte": 5969, " boat": 5970, "weet": 5971, " tail": 5972, " Rail": 5973, " 800": 5974, " Key": 5975, "ishes": 5976, " 12th": 5977, " 1965": 5978, " 1974": 5979, " occas": 5980, " Cole": 5981, "stead": 5982, " corre": 5983, " Greg": 5984, " Magazine": 5985, " System": 5986, " composition": 5987, " Evita": 5988, " occupied": 5989, " Turk": 5990, " Upon": 5991, " camer": 5992, " centuries": 5993, " items": 5994, " Democr": 5995, "ero": 5996, " wed": 5997, " mo": 5998, "icc": 5999, "ura": 6000, " Id": 6001, " mig": 6002, " Sund": 6003, "berg": 6004, "udd": 6005, "unction": 6006, "iations": 6007, "rence": 6008, "oys": 6009, " sole": 6010, " mush": 6011, "hess": 6012, " chair": 6013, "ancing": 6014, " Juan": 6015, " deaths": 6016, " Domin": 6017, "urches": 6018, " criticism": 6019, " farm": 6020, " decades": 6021, " successfully": 6022, " losses": 6023, " Commander": 6024, " treatment": 6025, " KhÃ¡": 6026, " slowly": 6027, " independence": 6028, " naval": 6029, " floor": 6030, " commissioned": 6031, " daily": 6032, " experienced": 6033, "unicip": 6034, "Äda": 6035, " fictional": 6036, " KhÃ¡nh": 6037, "ux": 6038, "kin": 6039, " od": 6040, "aming": 6041, "ket": 6042, " Ry": 6043, "inem": 6044, "uli": 6045, " Kir": 6046, " Rome": 6047, " dial": 6048, " row": 6049, " Stone": 6050, "anny": 6051, " didn": 6052, " visual": 6053, " sentence": 6054, " engaged": 6055, " myth": 6056, " Bridge": 6057, " Songs": 6058, " Fox": 6059, " Crown": 6060, " squad": 6061, " personnel": 6062, " purchased": 6063, " Jamal": 6064, " policy": 6065, " Daniel": 6066, " Avenue": 6067, " faith": 6068, " Jurc": 6069, " MacLe": 6070, "TC": 6071, "hat": 6072, "iced": 6073, " ec": 6074, " Do": 6075, " Ll": 6076, " Bart": 6077, " unp": 6078, " bass": 6079, " Alf": 6080, " prefer": 6081, " 96": 6082, " coal": 6083, " cool": 6084, "yson": 6085, " 164": 6086, " 1946": 6087, " Isab": 6088, " Prov": 6089, " Science": 6090, " captain": 6091, " propos": 6092, " declined": 6093, " begun": 6094, " sports": 6095, " reasons": 6096, " southwest": 6097, " negot": 6098, "lywood": 6099, "borough": 6100, "ategory": 6101, " Brian": 6102, "lyss": 6103, " protagon": 6104, " briefly": 6105, " attract": 6106, " challeng": 6107, " Throughout": 6108, " District": 6109, " chorus": 6110, " worldwide": 6111, " concrete": 6112, " Tennyson": 6113, "bl": 6114, " fat": 6115, " eas": 6116, " Mic": 6117, "pet": 6118, " D.": 6119, " NH": 6120, "fort": 6121, " UN": 6122, " Kn": 6123, " note": 6124, " Vill": 6125, "perial": 6126, " Also": 6127, " beach": 6128, " 73": 6129, " Dubl": 6130, " 95": 6131, " flag": 6132, " moves": 6133, " incident": 6134, " 1950": 6135, " concer": 6136, " Project": 6137, " organiz": 6138, " importance": 6139, " roads": 6140, " nothing": 6141, " Barb": 6142, " Simone": 6143, " escape": 6144, " exclus": 6145, " Liu": 6146, " drawn": 6147, " elimin": 6148, "uccessful": 6149, " Dublin": 6150, " #": 6151, "iro": 6152, " rend": 6153, " nor": 6154, " Cy": 6155, " fur": 6156, " Hy": 6157, " Dun": 6158, " Ka": 6159, " arc": 6160, " Cub": 6161, " Bru": 6162, " Head": 6163, "aret": 6164, " tend": 6165, "rang": 6166, " Kang": 6167, " 61": 6168, "quake": 6169, " foundation": 6170, " decade": 6171, " longest": 6172, " 1966": 6173, " hired": 6174, " 1952": 6175, " 1919": 6176, " Prot": 6177, "iences": 6178, " arrival": 6179, " street": 6180, " favour": 6181, " hyd": 6182, "chers": 6183, " Liber": 6184, " billion": 6185, " possibility": 6186, " chapter": 6187, " participated": 6188, " calc": 6189, " firm": 6190, " Igu": 6191, " enjoyed": 6192, " worship": 6193, " Area": 6194, " Temple": 6195, " witness": 6196, " responded": 6197, " Production": 6198, " Family": 6199, " paintings": 6200, " accompanied": 6201, " theat": 6202, " gas": 6203, " Bas": 6204, "ayer": 6205, " Ret": 6206, " Mem": 6207, " pul": 6208, " GA": 6209, " mist": 6210, "apes": 6211, " tall": 6212, " heard": 6213, " Five": 6214, "iance": 6215, " Chart": 6216, " Ali": 6217, "izes": 6218, " 97": 6219, " Maria": 6220, " neck": 6221, " surre": 6222, " Ell": 6223, " developing": 6224, " 177": 6225, " Chains": 6226, " setting": 6227, " owners": 6228, " 1936": 6229, " guard": 6230, " oldest": 6231, " stret": 6232, " wides": 6233, " labor": 6234, " glob": 6235, " agreement": 6236, " applic": 6237, " Governor": 6238, " dollar": 6239, " normal": 6240, " platform": 6241, " roughly": 6242, " Development": 6243, " senior": 6244, " MacLeod": 6245, " Ulyss": 6246, " Ulysses": 6247, "ls": 6248, " hor": 6249, " Aer": 6250, " CD": 6251, " Mur": 6252, " Ron": 6253, " Band": 6254, " Es": 6255, "istan": 6256, "alls": 6257, "iable": 6258, " remn": 6259, " vert": 6260, " acad": 6261, " adding": 6262, " accident": 6263, " 1973": 6264, " Isl": 6265, " consists": 6266, " 1930": 6267, " lasted": 6268, " trip": 6269, "chest": 6270, " Board": 6271, " green": 6272, " skin": 6273, " technology": 6274, " combination": 6275, " choice": 6276, "pread": 6277, " existence": 6278, " regarding": 6279, " violence": 6280, " poetry": 6281, " Baby": 6282, " dominated": 6283, " Francisc": 6284, " athletes": 6285, " populations": 6286, " Admir": 6287, " Dougl": 6288, " Anthony": 6289, " Instead": 6290, " Turkish": 6291, "rem": 6292, " sn": 6293, "eda": 6294, " Mat": 6295, " eth": 6296, "adow": 6297, " Sus": 6298, "usal": 6299, "iday": 6300, "iot": 6301, " isol": 6302, "ager": 6303, " Mod": 6304, " comic": 6305, "antly": 6306, "umpt": 6307, "gend": 6308, " spons": 6309, " filming": 6310, " acres": 6311, " calls": 6312, " performing": 6313, " 1967": 6314, " reserv": 6315, " Team": 6316, " college": 6317, " clubs": 6318, " competitions": 6319, " association": 6320, " closely": 6321, " submar": 6322, " resear": 6323, " existing": 6324, " committee": 6325, " Theatre": 6326, " habitat": 6327, " weakened": 6328, " applied": 6329, " unsuccessful": 6330, " Iguan": 6331, "era": 6332, " aer": 6333, "aton": 6334, "aser": 6335, "isers": 6336, "rum": 6337, "resp": 6338, " Mov": 6339, "come": 6340, " overl": 6341, " 62": 6342, " Marl": 6343, " undert": 6344, " interact": 6345, " appeal": 6346, " decre": 6347, " capable": 6348, " transit": 6349, " 110": 6350, " 1930s": 6351, " 1914": 6352, " serves": 6353, " greatly": 6354, " provides": 6355, " Phill": 6356, " neither": 6357, " Mountain": 6358, " Aston": 6359, " painting": 6360, " archaeological": 6361, " derived": 6362, " learned": 6363, " altar": 6364, " details": 6365, " tells": 6366, " pilot": 6367, " purpose": 6368, " administration": 6369, " opportunity": 6370, " reinforce": 6371, " benef": 6372, " distingu": 6373, " ceremony": 6374, " occasionally": 6375, " battalions": 6376, " perhaps": 6377, " thing": 6378, " ones": 6379, " Men": 6380, "aver": 6381, "set": 6382, " seat": 6383, " Ari": 6384, " sort": 6385, "opes": 6386, "ichol": 6387, " Gab": 6388, "ection": 6389, " dance": 6390, " contrib": 6391, " 85": 6392, "pring": 6393, " invited": 6394, " speaking": 6395, " supposed": 6396, " Carib": 6397, " headed": 6398, " Adv": 6399, " receiving": 6400, "bean": 6401, " towns": 6402, " storyline": 6403, " Dota": 6404, " technique": 6405, " bought": 6406, " encounter": 6407, " fellow": 6408, " Ode": 6409, " Braz": 6410, " reconst": 6411, " Albert": 6412, " Bishop": 6413, " survey": 6414, " innings": 6415, " editor": 6416, " descend": 6417, " sufficient": 6418, " filled": 6419, " vehicles": 6420, " Anonymous": 6421, " dissipated": 6422, " Hornung": 6423, " AML": 6424, " paralle": 6425, " Chelsea": 6426, " churches": 6427, " basket": 6428, " Douglas": 6429, " Caribbean": 6430, "erc": 6431, " ton": 6432, "ato": 6433, " som": 6434, "amy": 6435, "lying": 6436, " ut": 6437, "ules": 6438, " seg": 6439, "uate": 6440, " plum": 6441, " Stew": 6442, " 6th": 6443, " 71": 6444, " Asia": 6445, " Leon": 6446, " door": 6447, " Life": 6448, " goes": 6449, " 1945": 6450, " 1971": 6451, " receive": 6452, " depict": 6453, " Step": 6454, " Kenn": 6455, "pective": 6456, " classified": 6457, "inner": 6458, " viewed": 6459, " drew": 6460, " anything": 6461, " Perry": 6462, " Georg": 6463, " About": 6464, " islands": 6465, " typical": 6466, " survived": 6467, "Ã­a": 6468, " massive": 6469, " accompl": 6470, "ographic": 6471, " branch": 6472, " stopped": 6473, " Cardinal": 6474, "ructure": 6475, " drama": 6476, " symbol": 6477, " Constantine": 6478, " Hibari": 6479, " Summer": 6480, " astron": 6481, " ERA": 6482, " Lieutenant": 6483, " fashion": 6484, " widespread": 6485, " Maeda": 6486, "hu": 6487, "win": 6488, "ala": 6489, " aim": 6490, "uting": 6491, " why": 6492, " Rol": 6493, "agle": 6494, " ring": 6495, " Rod": 6496, " rif": 6497, " Age": 6498, "arian": 6499, " 3D": 6500, "usted": 6501, "rait": 6502, " 59": 6503, "ications": 6504, " sail": 6505, " assass": 6506, " acid": 6507, " quot": 6508, " crop": 6509, "pson": 6510, " poly": 6511, " 1982": 6512, " shared": 6513, " What": 6514, " Const": 6515, " truth": 6516, " protection": 6517, " authors": 6518, " Brook": 6519, " Romani": 6520, " Simon": 6521, " Stev": 6522, " trying": 6523, " missing": 6524, " district": 6525, " motion": 6526, " flights": 6527, " Golden": 6528, "glades": 6529, " synt": 6530, " Georgian": 6531, " acquired": 6532, " digital": 6533, " MTV": 6534, " household": 6535, " southeast": 6536, " repeated": 6537, " Fantasy": 6538, " Qedar": 6539, " converted": 6540, " safety": 6541, "ibrary": 6542, " settlers": 6543, "ruli": 6544, "ati": 6545, " ha": 6546, "utation": 6547, " Fre": 6548, "iston": 6549, " Ing": 6550, " Jud": 6551, "essed": 6552, " Ur": 6553, "ips": 6554, " Tra": 6555, "uble": 6556, " Bond": 6557, " finish": 6558, " evac": 6559, "issance": 6560, "cki": 6561, " locations": 6562, " 1980": 6563, " 160": 6564, " Rio": 6565, " 1976": 6566, "entially": 6567, " Bull": 6568, " 1956": 6569, " 1916": 6570, " 1913": 6571, " turns": 6572, " planning": 6573, " experiment": 6574, " routes": 6575, " watched": 6576, "idges": 6577, " holding": 6578, " baseball": 6579, " funding": 6580, " focused": 6581, " spacing": 6582, " Oslo": 6583, " Moz": 6584, " substant": 6585, " arranged": 6586, " depicted": 6587, " Stadium": 6588, " roof": 6589, " Haiti": 6590, " succeeded": 6591, " Radio": 6592, " Freder": 6593, " permanent": 6594, " opinion": 6595, " Shortly": 6596, " atmosphere": 6597, " wedding": 6598, " i": 6599, "VN": 6600, "inn": 6601, " Ca": 6602, " Tim": 6603, " Row": 6604, " bul": 6605, " Oh": 6606, " cho": 6607, "acity": 6608, "ture": 6609, " dub": 6610, "iege": 6611, " ign": 6612, " indu": 6613, " chance": 6614, " exact": 6615, " 72": 6616, " knew": 6617, " 8th": 6618, " 81": 6619, "ifications": 6620, " resident": 6621, " 1943": 6622, " 175": 6623, "tty": 6624, " Allied": 6625, " defined": 6626, " initi": 6627, " reality": 6628, "bridge": 6629, " decline": 6630, " Jones": 6631, "idden": 6632, " creator": 6633, " fuel": 6634, " providing": 6635, " bowl": 6636, " credited": 6637, " channel": 6638, " penalty": 6639, "hetic": 6640, " Venus": 6641, " earthquake": 6642, " Iguanodon": 6643, " corresp": 6644, " Brazil": 6645, " correspond": 6646, "ky": 6647, "GN": 6648, "eed": 6649, "uan": 6650, " mic": 6651, " Ast": 6652, " eu": 6653, " Hin": 6654, "agre": 6655, " rich": 6656, "okes": 6657, " jack": 6658, " tied": 6659, "ilding": 6660, "ivered": 6661, " Arts": 6662, " 94": 6663, "awa": 6664, " charter": 6665, " flu": 6666, " grav": 6667, " dating": 6668, " 10th": 6669, " 1963": 6670, " 112": 6671, " assemb": 6672, " wins": 6673, " airport": 6674, " Lenn": 6675, " heads": 6676, " 250": 6677, " inner": 6678, " ways": 6679, "stances": 6680, " explos": 6681, " Dream": 6682, " laws": 6683, " glass": 6684, " Gully": 6685, " separated": 6686, " downlo": 6687, " renamed": 6688, " rebu": 6689, " Mr.": 6690, " thousands": 6691, " Secretary": 6692, " supplies": 6693, " Morrison": 6694, " Additionally": 6695, " pregn": 6696, " Phoen": 6697, " Rangers": 6698, " Stevens": 6699, " Everglades": 6700, " IGN": 6701, " Hindu": 6702, " delivered": 6703, "Å¡": 6704, " cit": 6705, "isf": 6706, "itan": 6707, " Bh": 6708, " Run": 6709, "anda": 6710, " Gre": 6711, " rac": 6712, "sey": 6713, "inated": 6714, "iece": 6715, " rose": 6716, "outs": 6717, " overse": 6718, " ice": 6719, "estone": 6720, " secure": 6721, " wick": 6722, " regime": 6723, " 176": 6724, " Gram": 6725, " Luc": 6726, " rural": 6727, " turning": 6728, " Australians": 6729, " commanded": 6730, " Broad": 6731, " Similar": 6732, " certified": 6733, " teaching": 6734, " inspir": 6735, " opposition": 6736, " remainder": 6737, " indicate": 6738, " Office": 6739, " consisting": 6740, " Bradford": 6741, " Committee": 6742, " Archae": 6743, " Alexander": 6744, " emperor": 6745, " instrument": 6746, " Columbia": 6747, " split": 6748, " Homer": 6749, " eyes": 6750, " Friends": 6751, " Sunday": 6752, " UTC": 6753, " Hollywood": 6754, "BS": 6755, "RE": 6756, " Cle": 6757, "igation": 6758, " Ly": 6759, " Pers": 6760, " eld": 6761, " Sap": 6762, " dog": 6763, "rug": 6764, " Gang": 6765, " 77": 6766, " Marine": 6767, " Patt": 6768, "rons": 6769, " colour": 6770, " quite": 6771, "pany": 6772, " address": 6773, " 16th": 6774, " 1978": 6775, " Native": 6776, " 1953": 6777, "ologists": 6778, "gÃ©": 6779, " attached": 6780, " courts": 6781, " references": 6782, " occurs": 6783, " affect": 6784, " technical": 6785, " valley": 6786, " revolution": 6787, " Maryland": 6788, " economy": 6789, " establishment": 6790, " assistance": 6791, " Montana": 6792, " journey": 6793, " Croatian": 6794, " Holy": 6795, " Critical": 6796, " powers": 6797, " Director": 6798, " aware": 6799, " highlight": 6800, " Truj": 6801, " urban": 6802, " noisy": 6803, " drug": 6804, " Trujillo": 6805, "": 6806, " lin": 6807, "ela": 6808, "ider": 6809, " Han": 6810, " pet": 6811, "apers": 6812, "ighter": 6813, "aked": 6814, " Down": 6815, " resist": 6816, " dry": 6817, " Alan": 6818, "ressive": 6819, " table": 6820, "ilton": 6821, " studied": 6822, " leads": 6823, " Bern": 6824, " 11th": 6825, " successor": 6826, "lik": 6827, " views": 6828, "ivalent": 6829, " interior": 6830, " Mississ": 6831, " leaves": 6832, " surviv": 6833, " producing": 6834, "ewhere": 6835, "inosaur": 6836, " disturb": 6837, " missions": 6838, " Walter": 6839, " finishing": 6840, " Roxas": 6841, " Chronic": 6842, " denied": 6843, " adapted": 6844, " shooting": 6845, " methods": 6846, " portrayed": 6847, "ippi": 6848, " distribution": 6849, " Charlie": 6850, " Engineer": 6851, " strengthen": 6852, " Arthur": 6853, " reputation": 6854, " â": 6855, " Mississippi": 6856, " sle": 6857, " Bur": 6858, "uration": 6859, "ych": 6860, " Rel": 6861, "andy": 6862, " Low": 6863, "rier": 6864, " sud": 6865, "ardo": 6866, " Kil": 6867, " Sub": 6868, " rub": 6869, " rob": 6870, " upd": 6871, " prey": 6872, " 7th": 6873, " Wind": 6874, " lane": 6875, " entry": 6876, " kits": 6877, "agues": 6878, " 1915": 6879, " camps": 6880, " protected": 6881, " offense": 6882, " crime": 6883, " Within": 6884, " politics": 6885, " entering": 6886, " gameplay": 6887, " maintain": 6888, " getting": 6889, "ifying": 6890, " Recording": 6891, " Activision": 6892, " Howard": 6893, " immig": 6894, "senal": 6895, " characteristics": 6896, " Samuel": 6897, " worst": 6898, " dismissed": 6899, " intelligence": 6900, "hi": 6901, "OT": 6902, "SB": 6903, "ador": 6904, " Hon": 6905, " Mul": 6906, "osa": 6907, " Lu": 6908, " Jac": 6909, " Jay": 6910, " von": 6911, " noting": 6912, "ipl": 6913, "ells": 6914, "ette": 6915, " Edu": 6916, " 98": 6917, " Hug": 6918, "ropri": 6919, "born": 6920, "kins": 6921, " Plunk": 6922, " classes": 6923, " replace": 6924, " Ridge": 6925, " basin": 6926, " monarch": 6927, " knots": 6928, " novels": 6929, " Marsh": 6930, " Stef": 6931, " charts": 6932, " introduction": 6933, " monument": 6934, " interested": 6935, " stones": 6936, " charges": 6937, " holds": 6938, "offman": 6939, " franch": 6940, " Calvert": 6941, " attributed": 6942, " discussed": 6943, " Snow": 6944, " dollars": 6945, " puzz": 6946, " crown": 6947, " mushroom": 6948, " Isabella": 6949, " exerc": 6950, " capacity": 6951, "var": 6952, " pal": 6953, " lic": 6954, " ML": 6955, " Far": 6956, " Dar": 6957, " W.": 6958, "rien": 6959, " mort": 6960, " vic": 6961, "opher": 6962, " Wall": 6963, "ameter": 6964, " cab": 6965, "ivity": 6966, "enge": 6967, "host": 6968, " vary": 6969, "erog": 6970, "icial": 6971, " die": 6972, "town": 6973, " resour": 6974, " agent": 6975, " offers": 6976, " Sound": 6977, " pound": 6978, " 66": 6979, "elve": 6980, " worth": 6981, " vision": 6982, "oba": 6983, " 1948": 6984, " describing": 6985, " generation": 6986, " moder": 6987, " 1917": 6988, " appearing": 6989, "ecess": 6990, " fields": 6991, " statement": 6992, " historic": 6993, " Pope": 6994, " sector": 6995, " coastal": 6996, " electric": 6997, "angerous": 6998, " rules": 6999, " ruled": 7000, " accounts": 7001, " NBC": 7002, " baby": 7003, " DNA": 7004, " publisher": 7005, "ajev": 7006, " younger": 7007, " Weekly": 7008, " Lisa": 7009, " Industry": 7010, " medieval": 7011, " Jersey": 7012, " Danny": 7013, " predecess": 7014, " Sarajev": 7015, " Sarajevo": 7016, "s.": 7017, "Ã¨": 7018, "ena": 7019, "can": 7020, " Ho": 7021, " Ray": 7022, "iful": 7023, " Hard": 7024, " Less": 7025, "ube": 7026, " Vol": 7027, "orough": 7028, "erted": 7029, "mans": 7030, " desire": 7031, " Ye": 7032, " arts": 7033, "itors": 7034, "formation": 7035, "attle": 7036, " someone": 7037, " apart": 7038, " soil": 7039, " retire": 7040, " Yank": 7041, " 1979": 7042, "intend": 7043, " 1951": 7044, " expect": 7045, " plants": 7046, " basic": 7047, " everything": 7048, " exception": 7049, " discovery": 7050, " difficulty": 7051, " recognition": 7052, " tomb": 7053, " tribes": 7054, " zone": 7055, " forests": 7056, " rarely": 7057, " considerable": 7058, " Daily": 7059, " Strand": 7060, " caught": 7061, " Victoria": 7062, " emotional": 7063, " ninth": 7064, " Destiny": 7065, " article": 7066, " restaurant": 7067, "cribed": 7068, " cinem": 7069, " Stephen": 7070, " Frederick": 7071, " Yankovic": 7072, "OC": 7073, "orer": 7074, "vis": 7075, " Gil": 7076, " store": 7077, " Init": 7078, "cop": 7079, " Top": 7080, " shore": 7081, " Hell": 7082, " contest": 7083, "itage": 7084, " bond": 7085, " enl": 7086, " Press": 7087, " shel": 7088, "ients": 7089, " kings": 7090, " Around": 7091, " conve": 7092, "othes": 7093, " doct": 7094, " 1961": 7095, " landed": 7096, " 1954": 7097, " Earl": 7098, " evening": 7099, " manner": 7100, " Abb": 7101, " Television": 7102, "igades": 7103, " pitch": 7104, "coming": 7105, " nomination": 7106, " specifically": 7107, " chapel": 7108, " wooden": 7109, " Resear": 7110, " colonial": 7111, "graded": 7112, " Joe": 7113, " taught": 7114, " involvement": 7115, " hotel": 7116, " Somali": 7117, " rhyth": 7118, " opponents": 7119, " Clarkson": 7120, " thirty": 7121, " replacement": 7122, " disappe": 7123, " Rolling": 7124, " Mozamb": 7125, " sudden": 7126, "ys": 7127, "ym": 7128, "Ã¶": 7129, "rin": 7130, " fan": 7131, " 'B": 7132, "cation": 7133, " Dom": 7134, " Det": 7135, "nest": 7136, " Jif": 7137, "ateur": 7138, " Fame": 7139, " mine": 7140, "aire": 7141, " Flow": 7142, " 69": 7143, " 87": 7144, " soft": 7145, " accur": 7146, " Lee": 7147, " Anton": 7148, "ingale": 7149, " impr": 7150, " fair": 7151, " secured": 7152, " 1937": 7153, " Order": 7154, "psons": 7155, " believes": 7156, " communities": 7157, " consequ": 7158, " hope": 7159, " divine": 7160, " Lords": 7161, " Roberts": 7162, "aska": 7163, " poems": 7164, " wealth": 7165, " Duke": 7166, " Singles": 7167, " Campb": 7168, " Skye": 7169, " intersection": 7170, " Nether": 7171, " Santa": 7172, " controversy": 7173, " picked": 7174, " Colonel": 7175, " Castle": 7176, " Wilde": 7177, " recommended": 7178, " fungus": 7179, " Bono": 7180, " Francisco": 7181, " Jerusal": 7182, " 'Brien": 7183, " Jifna": 7184, " Simpsons": 7185, " Jerusalem": 7186, "ao": 7187, "LI": 7188, " Tel": 7189, " Dis": 7190, "ava": 7191, " pros": 7192, " van": 7193, " lov": 7194, "nell": 7195, " Fish": 7196, " conte": 7197, "rations": 7198, "rets": 7199, " releg": 7200, " whereas": 7201, " Wars": 7202, "ultane": 7203, " signing": 7204, "itled": 7205, "named": 7206, " 1955": 7207, "reets": 7208, " Track": 7209, " RÃ©": 7210, " Master": 7211, " standards": 7212, " legs": 7213, " joint": 7214, " faces": 7215, " Eliz": 7216, "eenth": 7217, " appoint": 7218, " missed": 7219, " launch": 7220, " drawing": 7221, " Ã": 7222, " Olympics": 7223, " scholar": 7224, " concerns": 7225, " Military": 7226, " leadership": 7227, " principal": 7228, " specimens": 7229, " Adams": 7230, " Transport": 7231, " Independent": 7232, " Argentina": 7233, "theless": 7234, " volunte": 7235, " municip": 7236, " organizations": 7237, " extrem": 7238, " Hamilton": 7239, " extremely": 7240, " Cat": 7241, " gal": 7242, " Bi": 7243, " Wi": 7244, " 1900": 7245, "uma": 7246, "istol": 7247, " Rif": 7248, " Here": 7249, " Cop": 7250, " card": 7251, "amber": 7252, "pton": 7253, "avia": 7254, "osure": 7255, " Fire": 7256, " Cory": 7257, " parties": 7258, " commit": 7259, " youth": 7260, " Marc": 7261, "ceived": 7262, " 'll": 7263, "atures": 7264, " showing": 7265, " 1958": 7266, " Beach": 7267, " Forces": 7268, " tries": 7269, " approached": 7270, " Prime": 7271, "engers": 7272, " Walk": 7273, " stream": 7274, "wealth": 7275, " existed": 7276, " relationships": 7277, "Än": 7278, " treaty": 7279, " session": 7280, " threatened": 7281, " distributed": 7282, " surrounded": 7283, " conference": 7284, " teeth": 7285, " partners": 7286, " emerged": 7287, " chemical": 7288, "ranean": 7289, " Writing": 7290, " speech": 7291, " Banai": 7292, " connection": 7293, " jazz": 7294, " europium": 7295, " diameter": 7296, "ez": 7297, "alent": 7298, "edom": 7299, "add": 7300, "acent": 7301, " Hu": 7302, " Mot": 7303, " Fel": 7304, " stem": 7305, " Wy": 7306, "ipe": 7307, " hill": 7308, " pack": 7309, "ideos": 7310, "gie": 7311, " page": 7312, " Yan": 7313, " shark": 7314, " 79": 7315, " product": 7316, "wise": 7317, " 1949": 7318, " 1977": 7319, " discip": 7320, " Carter": 7321, " Plot": 7322, "Ã©t": 7323, " wants": 7324, " solid": 7325, " historians": 7326, " seeing": 7327, " crossed": 7328, " facing": 7329, " disapp": 7330, " regularly": 7331, " conduct": 7332, " Depression": 7333, " railway": 7334, " immediate": 7335, " strateg": 7336, " firing": 7337, " leuk": 7338, " favorite": 7339, " hoped": 7340, " documentary": 7341, " lbw": 7342, " alternative": 7343, " institutions": 7344, " alien": 7345, " ratings": 7346, " Norman": 7347, " expedition": 7348, " Roger": 7349, " unusual": 7350, " wrong": 7351, " isolated": 7352, " Modern": 7353, " Spring": 7354, " synthes": 7355, " Lennon": 7356, " bes": 7357, "dal": 7358, "union": 7359, "atus": 7360, "usad": 7361, " DA": 7362, " Wat": 7363, " WW": 7364, "owie": 7365, "oked": 7366, " inland": 7367, " partial": 7368, "entions": 7369, "inals": 7370, " cold": 7371, " indig": 7372, " sym": 7373, " 121": 7374, "iversary": 7375, " bright": 7376, " scrap": 7377, " owner": 7378, " designation": 7379, " warm": 7380, " pointed": 7381, " 13th": 7382, "ossible": 7383, " regional": 7384, " reviewer": 7385, " breaking": 7386, " demol": 7387, " strongly": 7388, " changing": 7389, " detail": 7390, " destroyers": 7391, "ombat": 7392, " treated": 7393, " veget": 7394, " languages": 7395, " protests": 7396, " sequel": 7397, "ooth": 7398, " motor": 7399, " literary": 7400, "abeth": 7401, " admitted": 7402, " soul": 7403, " examples": 7404, " bringing": 7405, " assumed": 7406, " watershed": 7407, " Human": 7408, " Unlike": 7409, " BolÃ­": 7410, " message": 7411, " duties": 7412, " expansion": 7413, " Ryan": 7414, " protagonist": 7415, " Janeiro": 7416, " Saprang": 7417, " HergÃ©": 7418, " Kilmer": 7419, " Goffman": 7420, " franchise": 7421, " anniversary": 7422, " BolÃ­var": 7423, "Ã¼": 7424, "war": 7425, "gas": 7426, " AR": 7427, "ingly": 7428, "imet": 7429, " Nap": 7430, "rab": 7431, " Kat": 7432, " Kel": 7433, " tra": 7434, " fish": 7435, " tie": 7436, " aged": 7437, " overw": 7438, "osite": 7439, "ibl": 7440, " outf": 7441, " ske": 7442, " Trib": 7443, "orters": 7444, "aws": 7445, " retreat": 7446, " Iron": 7447, " 1983": 7448, " Tower": 7449, " Fern": 7450, "ledon": 7451, " meets": 7452, " approved": 7453, " sections": 7454, " winner": 7455, " 1920": 7456, " intention": 7457, " marks": 7458, "friend": 7459, " minister": 7460, " airline": 7461, " detailed": 7462, " genre": 7463, " coup": 7464, " Chief": 7465, " improve": 7466, " circum": 7467, " indicated": 7468, " engineering": 7469, " department": 7470, "onica": 7471, " completion": 7472, " absor": 7473, " Lawton": 7474, " harm": 7475, " ancest": 7476, " Hearts": 7477, " attracted": 7478, " BCE": 7479, " stadium": 7480, " specimen": 7481, " wearing": 7482, " rescue": 7483, " Burns": 7484, " Wimb": 7485, " eighth": 7486, " champion": 7487, " eggs": 7488, " easily": 7489, " academic": 7490, " orchest": 7491, " Georgia": 7492, " Research": 7493, " Wimbledon": 7494, "ona": 7495, " sun": 7496, "eor": 7497, "arp": 7498, " AD": 7499, " ur": 7500, " IV": 7501, " Mid": 7502, "och": 7503, " Bul": 7504, " Win": 7505, " ru": 7506, " lap": 7507, "allow": 7508, "iour": 7509, " Station": 7510, "ician": 7511, "pping": 7512, "orous": 7513, "nie": 7514, "oking": 7515, " ib": 7516, " trail": 7517, "ensus": 7518, "aments": 7519, " Base": 7520, "aug": 7521, " Dev": 7522, " ack": 7523, " Bank": 7524, " coord": 7525, " Third": 7526, " gather": 7527, " emp": 7528, " Gerard": 7529, " Person": 7530, " Color": 7531, " attempting": 7532, " effectively": 7533, "istered": 7534, " Hung": 7535, " accused": 7536, " looked": 7537, " reading": 7538, " surviving": 7539, " practices": 7540, " territories": 7541, " Richardson": 7542, " civilian": 7543, " traveled": 7544, " feeling": 7545, " assistant": 7546, " Territ": 7547, " Square": 7548, " Jean": 7549, " settled": 7550, "ockey": 7551, " Somalia": 7552, "ogether": 7553, " muscar": 7554, " constitution": 7555, " encouraged": 7556, " terminus": 7557, " starling": 7558, " Rhodes": 7559, " carbon": 7560, " happy": 7561, " Cambridge": 7562, " citiz": 7563, " challenge": 7564, " adjacent": 7565, " acknow": 7566, " fer": 7567, "ban": 7568, " bal": 7569, " thin": 7570, " Sa": 7571, " Si": 7572, "amm": 7573, "bur": 7574, "thy": 7575, " mut": 7576, " Ros": 7577, " Sav": 7578, "mod": 7579, "illing": 7580, " sell": 7581, " recre": 7582, " partly": 7583, " evil": 7584, " preced": 7585, " 99": 7586, " 91": 7587, " 88": 7588, " nick": 7589, " underw": 7590, " dock": 7591, " decor": 7592, " crest": 7593, " 1910": 7594, "body": 7595, " visible": 7596, " stands": 7597, " shots": 7598, " races": 7599, "cape": 7600, " 1909": 7601, " convoy": 7602, " identity": 7603, " armor": 7604, " seemed": 7605, " grey": 7606, " possession": 7607, " painted": 7608, " brothers": 7609, " multi": 7610, " towers": 7611, " arrangement": 7612, " streak": 7613, "break": 7614, " interchange": 7615, " Formula": 7616, " obtained": 7617, " recalled": 7618, " recovered": 7619, " extreme": 7620, " compounds": 7621, " scientific": 7622, " Garc": 7623, " inhabit": 7624, " candidate": 7625, " Journal": 7626, " romantic": 7627, " Mortal": 7628, " agricultural": 7629, " Attorney": 7630, " Jesus": 7631, "ewhat": 7632, " Admiral": 7633, " Keamy": 7634, " Aniston": 7635, " inspiration": 7636, " Commonwealth": 7637, " videos": 7638, " Kombat": 7639, " somewhat": 7640, "isis": 7641, " san": 7642, " T.": 7643, "amin": 7644, " hear": 7645, " Test": 7646, " gall": 7647, "dess": 7648, " shif": 7649, " Pine": 7650, "emia": 7651, "bie": 7652, "achus": 7653, " teach": 7654, " tone": 7655, "ivals": 7656, " Anc": 7657, " 93": 7658, " verse": 7659, " fled": 7660, " acts": 7661, "ropol": 7662, " 122": 7663, " Marines": 7664, " maint": 7665, " hits": 7666, " estate": 7667, " Power": 7668, " relative": 7669, " Lanc": 7670, "ennis": 7671, " passage": 7672, " 1935": 7673, " 1931": 7674, " 1912": 7675, " Guy": 7676, "umps": 7677, " footage": 7678, " spaces": 7679, " Poland": 7680, " equal": 7681, " convin": 7682, " catch": 7683, " suffering": 7684, " Islands": 7685, " reduce": 7686, " select": 7687, " proceed": 7688, " hosted": 7689, " Johnston": 7690, " funds": 7691, " preserved": 7692, " Arabic": 7693, " Every": 7694, " linked": 7695, " ocean": 7696, "thosaurus": 7697, " theatre": 7698, " Wolf": 7699, " spirit": 7700, " cloud": 7701, " implement": 7702, " cycle": 7703, " industrial": 7704, " Type": 7705, " sculpture": 7706, " Op.": 7707, " Fraser": 7708, " basketball": 7709, " Plunketts": 7710, " Germans": 7711, "ekÄn": 7712, " Corythosaurus": 7713, "Ã¤": 7714, " au": 7715, " ps": 7716, " mis": 7717, "sta": 7718, " CE": 7719, "illy": 7720, "how": 7721, "using": 7722, " Bos": 7723, " Jun": 7724, " Ec": 7725, " ere": 7726, " Inc": 7727, " map": 7728, " Loc": 7729, " conqu": 7730, " lear": 7731, "rast": 7732, " hip": 7733, "iary": 7734, " unf": 7735, "peare": 7736, " displ": 7737, " serial": 7738, " Your": 7739, " 63": 7740, " Rele": 7741, "vious": 7742, "itals": 7743, " Nick": 7744, "aware": 7745, " flo": 7746, " income": 7747, " wars": 7748, " Lev": 7749, "ificial": 7750, " lob": 7751, " deck": 7752, "abled": 7753, " province": 7754, " attacking": 7755, " 1932": 7756, " Allah": 7757, " Prote": 7758, " Shakes": 7759, " reviewers": 7760, " medium": 7761, " debate": 7762, "attered": 7763, " expensive": 7764, " tailed": 7765, " Exp": 7766, " circulation": 7767, " defended": 7768, " stayed": 7769, " responsibility": 7770, " destruction": 7771, " chronic": 7772, " blocks": 7773, "going": 7774, "bishop": 7775, " Hotel": 7776, " FIA": 7777, " continuing": 7778, " equipped": 7779, " concerned": 7780, " controversial": 7781, " adults": 7782, " composer": 7783, " sessions": 7784, " incorporated": 7785, " Peninsula": 7786, " correct": 7787, " legend": 7788, " Marlborough": 7789, " siege": 7790, " download": 7791, "sewhere": 7792, "erogative": 7793, " twelve": 7794, " Nintend": 7795, " opposite": 7796, " learning": 7797, " Shakespeare": 7798, " Nintendo": 7799, "ka": 7800, "hm": 7801, "onic": 7802, " ic": 7803, " ble": 7804, "uri": 7805, "6th": 7806, " bay": 7807, " P.": 7808, " R.": 7809, " Pul": 7810, "agas": 7811, " hall": 7812, " Kar": 7813, "ycl": 7814, " pric": 7815, " spin": 7816, " proport": 7817, " gone": 7818, " none": 7819, "yles": 7820, "icts": 7821, "xts": 7822, "orious": 7823, " pool": 7824, " Fair": 7825, "iamond": 7826, " depos": 7827, "inking": 7828, " willing": 7829, " 1911": 7830, " Fei": 7831, " driving": 7832, " 1929": 7833, " 1921": 7834, " Flight": 7835, " lowest": 7836, " Palmy": 7837, " Palace": 7838, " promote": 7839, " meetings": 7840, " crossing": 7841, " falling": 7842, " measures": 7843, "stitution": 7844, " rebels": 7845, " observations": 7846, " voted": 7847, " Patrick": 7848, " throwing": 7849, " reserve": 7850, " patrol": 7851, "hews": 7852, " ritual": 7853, " songwrit": 7854, " pushed": 7855, " Owen": 7856, " victims": 7857, " Stanley": 7858, " Lawrence": 7859, " remnants": 7860, " parallel": 7861, " Construction": 7862, " initiative": 7863, " kitsune": 7864, " Netherlands": 7865, " passengers": 7866, " inaug": 7867, " accommod": 7868, "zi": 7869, "zen": 7870, "ses": 7871, " hat": 7872, "olay": 7873, "agn": 7874, "yard": 7875, " plain": 7876, "itated": 7877, "rant": 7878, "oca": 7879, " sight": 7880, " inte": 7881, "ogen": 7882, "onder": 7883, " Story": 7884, "arked": 7885, "formed": 7886, " 82": 7887, " flat": 7888, "anning": 7889, " Stock": 7890, " Chen": 7891, " retained": 7892, " 162": 7893, " Bert": 7894, " 1962": 7895, " comments": 7896, " returns": 7897, " Cook": 7898, " 1959": 7899, " governor": 7900, " 1938": 7901, " classical": 7902, " craft": 7903, " musicians": 7904, " defences": 7905, " Organ": 7906, " representing": 7907, " patron": 7908, " praise": 7909, " watch": 7910, " villages": 7911, " difficulties": 7912, " Geoff": 7913, "iminal": 7914, " superior": 7915, " raise": 7916, " Player": 7917, " pitcher": 7918, " biography": 7919, "uscript": 7920, " Queens": 7921, " intensified": 7922, " objects": 7923, " involving": 7924, " absol": 7925, " gross": 7926, "burg": 7927, " Hospital": 7928, " understand": 7929, " Pitman": 7930, " Atlanta": 7931, " exha": 7932, " Emperor": 7933, " carrying": 7934, "emeter": 7935, "inje": 7936, " vessels": 7937, " acclaim": 7938, " Korean": 7939, " fixed": 7940, " batsman": 7941, " Guardian": 7942, " Cambodia": 7943, " Sweet": 7944, " occasions": 7945, " hydro": 7946, " global": 7947, " ethn": 7948, " equivalent": 7949, " Stefani": 7950, " Elizabeth": 7951, " GarcÃ­a": 7952, " goddess": 7953, "emetery": 7954, "de": 7955, "err": 7956, " ow": 7957, " fal": 7958, " sam": 7959, " 'd": 7960, "uct": 7961, " Hun": 7962, " sees": 7963, " ray": 7964, " Our": 7965, " E.": 7966, "wich": 7967, " orn": 7968, " mart": 7969, " Lab": 7970, " fine": 7971, " Cru": 7972, " Bass": 7973, " cry": 7974, " ju": 7975, " 74": 7976, " Joy": 7977, " gend": 7978, "entures": 7979, " divers": 7980, " Canter": 7981, " periods": 7982, " 1920s": 7983, " Space": 7984, " covers": 7985, " defeating": 7986, " online": 7987, "pecies": 7988, " influences": 7989, " Design": 7990, " limit": 7991, " needs": 7992, " committed": 7993, " moral": 7994, " renew": 7995, " reveals": 7996, " collaps": 7997, " escort": 7998, " Mediter": 7999, " sulf": 8000, " prohib": 8001, " alleg": 8002, " divisions": 8003, " exchange": 8004, " purchase": 8005, " Mega": 8006, " Channel": 8007, " narrative": 8008, " Enterprise": 8009, " Palestine": 8010, " answ": 8011, " Athletic": 8012, " camera": 8013, " voiced": 8014, " preferred": 8015, " concerts": 8016, " Protest": 8017, " Aerith": 8018, " Phillies": 8019, " accompany": 8020, " survivors": 8021, " resources": 8022, " context": 8023, " simultane": 8024, " behaviour": 8025, " Canterbury": 8026, " Mediterranean": 8027, "rel": 8028, "esi": 8029, "esc": 8030, " Mu": 8031, " ash": 8032, "rig": 8033, " Di": 8034, " DC": 8035, " cul": 8036, " Now": 8037, "atech": 8038, " Late": 8039, " exit": 8040, "uda": 8041, " U2": 8042, " Stop": 8043, "mine": 8044, "elli": 8045, " clo": 8046, "fare": 8047, " agree": 8048, " Bark": 8049, "resents": 8050, " fold": 8051, " tick": 8052, " formally": 8053, " followers": 8054, " incom": 8055, " 07": 8056, " 06": 8057, " Corn": 8058, " Mother": 8059, " 161": 8060, " feather": 8061, " operating": 8062, "raph": 8063, " Link": 8064, "ooking": 8065, "ophy": 8066, "ahl": 8067, "annah": 8068, " considers": 8069, " USD": 8070, "apped": 8071, " refers": 8072, " Raff": 8073, " covering": 8074, " else": 8075, " criticised": 8076, " detect": 8077, "ureau": 8078, " doesn": 8079, " elabor": 8080, " Labor": 8081, " steel": 8082, " closer": 8083, " Championships": 8084, " Markg": 8085, " tribut": 8086, " feelings": 8087, " Furt": 8088, " visitors": 8089, " absence": 8090, " normally": 8091, " hundreds": 8092, " products": 8093, " pupils": 8094, " Special": 8095, " Rugby": 8096, " rugby": 8097, " legislation": 8098, " deployed": 8099, " arrested": 8100, " Wicc": 8101, " dialogue": 8102, " proposal": 8103, " Grammy": 8104, " rhythm": 8105, " municipal": 8106, " Cathedral": 8107, " Colorado": 8108, " represents": 8109, " Raffles": 8110, " Markgraf": 8111, " Furtado": 8112, " et": 8113, " Mel": 8114, " dim": 8115, "otic": 8116, " PA": 8117, " F.": 8118, "iders": 8119, "agu": 8120, " deem": 8121, " Cab": 8122, "esse": 8123, "after": 8124, " pure": 8125, " Along": 8126, " Gib": 8127, "eke": 8128, " Dark": 8129, " bone": 8130, " dens": 8131, " Real": 8132, " feed": 8133, " stable": 8134, "organ": 8135, "math": 8136, " forming": 8137, " 166": 8138, " surpr": 8139, " diet": 8140, "ullen": 8141, "isms": 8142, " extent": 8143, " classic": 8144, " trading": 8145, " Techn": 8146, " skull": 8147, " brick": 8148, "urday": 8149, "Ã¡r": 8150, " hyp": 8151, " amino": 8152, " poorly": 8153, " stationed": 8154, " displays": 8155, " Prior": 8156, " ensure": 8157, " moments": 8158, " option": 8159, " internal": 8160, " drums": 8161, " Krak": 8162, " reconna": 8163, " interpret": 8164, " biographer": 8165, " Dominican": 8166, " NHL": 8167, " Imperial": 8168, " submarine": 8169, " researchers": 8170, " reconstruction": 8171, " convection": 8172, " Fernand": 8173, " muscaria": 8174, " Usta": 8175, " infrast": 8176, " prerogative": 8177, " Sholay": 8178, " manuscript": 8179, " Saturday": 8180, " reconnaissance": 8181, " UstaÅ¡": 8182, " bat": 8183, " sunk": 8184, "ias": 8185, " 'in": 8186, " Bed": 8187, " Tig": 8188, " Hou": 8189, " Sher": 8190, " Dur": 8191, "eman": 8192, "state": 8193, " Kit": 8194, "eper": 8195, " blow": 8196, " Free": 8197, " swe": 8198, " lose": 8199, " wings": 8200, " Treat": 8201, " 89": 8202, " Marg": 8203, " verte": 8204, " Hob": 8205, " 05": 8206, " transition": 8207, " 1940s": 8208, " 113": 8209, " 15th": 8210, " useful": 8211, " Blood": 8212, " lists": 8213, " annually": 8214, " modified": 8215, " construct": 8216, "vention": 8217, " driven": 8218, " intense": 8219, " Cape": 8220, "encies": 8221, " posted": 8222, " creek": 8223, " saves": 8224, " Record": 8225, " orbit": 8226, " Media": 8227, " influential": 8228, " withdrew": 8229, " memory": 8230, " understanding": 8231, " dramatic": 8232, " cruiser": 8233, " injuries": 8234, "iques": 8235, " Mexican": 8236, " FIFA": 8237, " purposes": 8238, " extension": 8239, " dynasty": 8240, " appropri": 8241, " entitled": 8242, " streets": 8243, " Maggie": 8244, " DAG": 8245, " overwhel": 8246, "Å": 8247, "ds": 8248, "CA": 8249, "ora": 8250, "aten": 8251, "real": 8252, "oral": 8253, "inet": 8254, "sch": 8255, " cong": 8256, "uls": 8257, "rif": 8258, " vac": 8259, "icop": 8260, " orb": 8261, " Hud": 8262, " rated": 8263, "pty": 8264, "rine": 8265, " tight": 8266, "lete": 8267, " Hok": 8268, " ago": 8269, " Cult": 8270, " hang": 8271, "mann": 8272, " rates": 8273, " loy": 8274, " 900": 8275, " Hind": 8276, " writings": 8277, " Bron": 8278, " clock": 8279, " actual": 8280, " tank": 8281, " plane": 8282, "rell": 8283, " severely": 8284, " repr": 8285, " originated": 8286, " generated": 8287, " Jenn": 8288, " Mah": 8289, " excess": 8290, "axon": 8291, " 1928": 8292, " engines": 8293, " demand": 8294, " suggesting": 8295, " ridge": 8296, " frame": 8297, " Front": 8298, " Parv": 8299, " factors": 8300, " interests": 8301, " readers": 8302, "restling": 8303, " crosses": 8304, "vements": 8305, " burned": 8306, " restrict": 8307, " tests": 8308, " informed": 8309, " kingdom": 8310, " materials": 8311, " watching": 8312, " Israeli": 8313, " shipping": 8314, " spoke": 8315, " choir": 8316, " installed": 8317, " VII": 8318, " Norway": 8319, " Township": 8320, " essential": 8321, " ammun": 8322, " apparently": 8323, " journalist": 8324, " doubt": 8325, " happened": 8326, " panel": 8327, " picture": 8328, " custom": 8329, " saved": 8330, " chess": 8331, " chairman": 8332, " Nichol": 8333, " satisf": 8334, " dinosaur": 8335, " Education": 8336, " exposure": 8337, " otherwise": 8338, " RÃ©union": 8339, " jackrab": 8340, " circumstances": 8341, " Massachus": 8342, " subspecies": 8343, " Barker": 8344, " helicop": 8345, " Parvati": 8346, " ammunition": 8347, " Massachusetts": 8348, "ni": 8349, "mn": 8350, "á»": 8351, " Ton": 8352, "ilst": 8353, "acle": 8354, "utz": 8355, "aga": 8356, " Ald": 8357, " Int": 8358, " cart": 8359, "oven": 8360, " Gary": 8361, " recur": 8362, " Found": 8363, " Hamp": 8364, "ables": 8365, " earn": 8366, " relie": 8367, " Kann": 8368, " belt": 8369, " eleven": 8370, " operate": 8371, " generals": 8372, " partially": 8373, " carved": 8374, " Having": 8375, " latex": 8376, " Guide": 8377, " listen": 8378, "rants": 8379, " 1927": 8380, "raham": 8381, " disaster": 8382, " causes": 8383, " ready": 8384, " Peters": 8385, " parish": 8386, " victories": 8387, " Xe": 8388, " Federal": 8389, "ateau": 8390, " Cec": 8391, " citing": 8392, " survive": 8393, " Corpor": 8394, " ille": 8395, " movements": 8396, " burning": 8397, "gency": 8398, " Branch": 8399, " Wilson": 8400, " transportation": 8401, " Portugal": 8402, " layer": 8403, " climate": 8404, " bombard": 8405, " festival": 8406, " cancer": 8407, " Sports": 8408, " administr": 8409, " shells": 8410, " instruments": 8411, "urricanes": 8412, " starlings": 8413, " Gwen": 8414, " Richmond": 8415, " behavior": 8416, " Historic": 8417, " departure": 8418, " RAAF": 8419, " Swedish": 8420, " Ministry": 8421, "tavÄda": 8422, "heera": 8423, " Eaton": 8424, " substantial": 8425, " mixture": 8426, " overseas": 8427, " Patty": 8428, " resistance": 8429, " impossible": 8430, " UstaÅ¡e": 8431, " Kannada": 8432, "ekÄntavÄda": 8433, "OK": 8434, "Ê»": 8435, "pes": 8436, "pent": 8437, "iling": 8438, " Sis": 8439, " wasn": 8440, "zac": 8441, "ithic": 8442, " Mand": 8443, "osm": 8444, "osl": 8445, " Ball": 8446, "urse": 8447, " shut": 8448, "aste": 8449, " wine": 8450, " abund": 8451, " Pass": 8452, "ricted": 8453, " lover": 8454, "chang": 8455, " spend": 8456, " commem": 8457, "lets": 8458, " consc": 8459, " Yug": 8460, " Pict": 8461, "life": 8462, " 123": 8463, " instance": 8464, " musician": 8465, " afterwards": 8466, " models": 8467, " 1933": 8468, " restored": 8469, " marry": 8470, " listing": 8471, " phr": 8472, "quez": 8473, " Midge": 8474, " compete": 8475, " Police": 8476, " interesting": 8477, " looks": 8478, "teenth": 8479, " Elect": 8480, " resigned": 8481, " sequences": 8482, " liber": 8483, " engineers": 8484, " spores": 8485, " thinking": 8486, " Khand": 8487, " tribute": 8488, " loan": 8489, " rooms": 8490, " persu": 8491, " electronic": 8492, " establishing": 8493, "forced": 8494, "itzer": 8495, " squadron": 8496, " Baker": 8497, " documents": 8498, " bearing": 8499, " temples": 8500, " Howe": 8501, "rorist": 8502, "ASA": 8503, "yria": 8504, " opportunities": 8505, " unlike": 8506, " struggle": 8507, " windows": 8508, " Masters": 8509, " premiered": 8510, " Stewart": 8511, " Eagle": 8512, " Simpson": 8513, " CBS": 8514, " dangerous": 8515, " beautiful": 8516, " amateur": 8517, " Yanke": 8518, " supporters": 8519, " Veronica": 8520, " Bureau": 8521, " MÃ¡r": 8522, " techniques": 8523, " Yugosl": 8524, " Khandoba": 8525, " MÃ¡rquez": 8526, "sp": 8527, "uv": 8528, "DH": 8529, "Hg": 8530, "MO": 8531, "nal": 8532, "roit": 8533, " AP": 8534, " Tam": 8535, " Then": 8536, "pus": 8537, "osis": 8538, " Nad": 8539, " Lith": 8540, " heat": 8541, " â": 8542, " Jr": 8543, " Ele": 8544, " gard": 8545, " Roc": 8546, " Last": 8547, " tip": 8548, "iped": 8549, "ishment": 8550, " union": 8551, " recru": 8552, "ryce": 8553, " outl": 8554, "rene": 8555, " 68": 8556, " Bath": 8557, " remember": 8558, " prove": 8559, " subst": 8560, " Niel": 8561, " mode": 8562, "otton": 8563, " pale": 8564, " sale": 8565, " fram": 8566, " Who": 8567, " designs": 8568, " offices": 8569, " 1957": 8570, " advis": 8571, "entional": 8572, " storms": 8573, "onto": 8574, " 21st": 8575, "western": 8576, " notably": 8577, " divor": 8578, " artwork": 8579, " Soon": 8580, " predomin": 8581, " recognised": 8582, " achieve": 8583, " interaction": 8584, " Philip": 8585, " merch": 8586, " properties": 8587, " memorial": 8588, " coins": 8589, " minimum": 8590, " experiences": 8591, " forcing": 8592, " Justice": 8593, " weapon": 8594, " Robin": 8595, " Miller": 8596, " situated": 8597, " thousand": 8598, " spiritual": 8599, " neighbor": 8600, " Wright": 8601, " vessel": 8602, " adventure": 8603, " Girls": 8604, "omura": 8605, " Jurchen": 8606, " Phoenix": 8607, " FRE": 8608, " Mulder": 8609, " retirement": 8610, "roscop": 8611, " Mozambique": 8612, " acknowled": 8613, " artificial": 8614, " elsewhere": 8615, " criminal": 8616, "atechism": 8617, " inHg": 8618, "LIMO": 8619, " Detroit": 8620, " Toronto": 8621, " FRELIMO": 8622, "Å": 8623, " á": 8624, "iar": 8625, " Ts": 8626, " Sb": 8627, " rect": 8628, " conj": 8629, " Rest": 8630, "aka": 8631, " shop": 8632, " Kim": 8633, " vast": 8634, "order": 8635, "ears": 8636, " Bell": 8637, " Ira": 8638, "icide": 8639, "cru": 8640, " resign": 8641, " Sans": 8642, " Bang": 8643, " Vice": 8644, " 67": 8645, " attrib": 8646, " agents": 8647, " Season": 8648, " See": 8649, " tiss": 8650, " sons": 8651, " Death": 8652, " format": 8653, " Cob": 8654, " founder": 8655, " trained": 8656, " Raj": 8657, "atherine": 8658, " obst": 8659, " instru": 8660, " Benn": 8661, " counties": 8662, " characterized": 8663, "orrow": 8664, " Prog": 8665, "pended": 8666, " engage": 8667, " Celt": 8668, " starred": 8669, " formerly": 8670, " westward": 8671, " Minor": 8672, " frig": 8673, " Barry": 8674, "heme": 8675, " programme": 8676, "omatic": 8677, " mask": 8678, " Scully": 8679, " fountain": 8680, " fallen": 8681, " radiation": 8682, " Network": 8683, " measured": 8684, " costs": 8685, " burial": 8686, " copy": 8687, " objective": 8688, " networks": 8689, " Perfect": 8690, " Moore": 8691, " Russia": 8692, " cleared": 8693, " check": 8694, " tanks": 8695, " biggest": 8696, " statistics": 8697, " giant": 8698, " depending": 8699, " institution": 8700, " Point": 8701, " vehicle": 8702, " photograph": 8703, " Kevin": 8704, " remarked": 8705, " excavation": 8706, " Journey": 8707, " selection": 8708, " Albums": 8709, " Management": 8710, " delayed": 8711, " Kansas": 8712, " Coleman": 8713, " holiday": 8714, "umption": 8715, " Bulls": 8716, " Gilbert": 8717, "owiecki": 8718, " convinced": 8719, " psych": 8720, " depicts": 8721, " infrastructure": 8722, " Hudson": 8723, " WiÅ": 8724, " á": 8725, "niowiecki": 8726, " WiÅniowiecki": 8727, "oe": 8728, "Ä": 8729, " sed": 8730, "mel": 8731, "heim": 8732, " Sid": 8733, "otal": 8734, "nce": 8735, " rum": 8736, "hist": 8737, " Gate": 8738, "hered": 8739, "ruz": 8740, " compound": 8741, " impl": 8742, "amps": 8743, "uable": 8744, "oyage": 8745, " 84": 8746, " formal": 8747, " horn": 8748, " 163": 8749, " Such": 8750, " rivers": 8751, " describe": 8752, " Warren": 8753, " 140": 8754, " Canal": 8755, " Gray": 8756, " Roth": 8757, " 1926": 8758, " decides": 8759, " differences": 8760, "ategy": 8761, " Stories": 8762, " crake": 8763, " claiming": 8764, " residence": 8765, " dream": 8766, " playoff": 8767, "akota": 8768, " closest": 8769, "criptions": 8770, " predators": 8771, " clearly": 8772, " housing": 8773, " Republican": 8774, " displayed": 8775, "avalry": 8776, " vote": 8777, " Trek": 8778, " skills": 8779, " restoration": 8780, " safe": 8781, " Oscar": 8782, " conservation": 8783, " inscription": 8784, " railroad": 8785, " Originally": 8786, " ranging": 8787, " hunting": 8788, "eratops": 8789, " Silver": 8790, " helmet": 8791, " opponent": 8792, " Budd": 8793, " audiences": 8794, " Memorial": 8795, " reservoir": 8796, " reinforcements": 8797, " benefit": 8798, " crops": 8799, " Persian": 8800, " Arsenal": 8801, "assador": 8802, " predecessor": 8803, " Initially": 8804, " Nevertheless": 8805, " Magdal": 8806, " Territory": 8807, " citizens": 8808, " mamm": 8809, " styles": 8810, " Organization": 8811, " determine": 8812, " feathers": 8813, " Hokies": 8814, " Anzac": 8815, "ef": 8816, "itt": 8817, "rees": 8818, "Mal": 8819, "rot": 8820, " Az": 8821, "oming": 8822, " alle": 8823, " Div": 8824, " Rain": 8825, " prol": 8826, "icate": 8827, "abil": 8828, "onia": 8829, "lie": 8830, "iform": 8831, " adm": 8832, " teen": 8833, " jun": 8834, "aints": 8835, "rates": 8836, "boy": 8837, " Comb": 8838, " grown": 8839, "rating": 8840, " enth": 8841, " attained": 8842, " toll": 8843, " teamm": 8844, " Until": 8845, " install": 8846, "yline": 8847, " anyone": 8848, " Beh": 8849, " promised": 8850, " possess": 8851, " arrive": 8852, " elections": 8853, " slide": 8854, " commandment": 8855, "rosaur": 8856, "iveness": 8857, " Valk": 8858, " regiment": 8859, " sung": 8860, " Abby": 8861, "shore": 8862, " representative": 8863, " 1905": 8864, "sequently": 8865, " announce": 8866, " grounds": 8867, "wald": 8868, " funer": 8869, " ranking": 8870, "ucky": 8871, " err": 8872, " argues": 8873, " Rocky": 8874, " defending": 8875, " ruling": 8876, " temporary": 8877, " cargo": 8878, " adaptation": 8879, " Turks": 8880, " Victorian": 8881, " badly": 8882, " magnitude": 8883, " childhood": 8884, " scientists": 8885, " Confeder": 8886, " Communist": 8887, " ranges": 8888, " preparation": 8889, " throne": 8890, " cooper": 8891, " Chapel": 8892, " tunnel": 8893, " Jonathan": 8894, " prompted": 8895, " Legacy": 8896, " Category": 8897, " exclusively": 8898, " perspective": 8899, " astronom": 8900, "piece": 8901, " ISB": 8902, " dipl": 8903, " moderate": 8904, " imprison": 8905, " Kelly": 8906, " Express": 8907, " Chagas": 8908, " Mathews": 8909, " Protestant": 8910, " thereafter": 8911, " restricted": 8912, " degrees": 8913, " 'Mal": 8914, " alleged": 8915, " Leslie": 8916, " Valkyria": 8917, " ISBN": 8918, " 'Malley": 8919, "AT": 8920, "CC": 8921, "yer": 8922, "rec": 8923, "aun": 8924, " bed": 8925, "inger": 8926, "icit": 8927, " Sle": 8928, " sad": 8929, " bear": 8930, "ola": 8931, "olen": 8932, " ster": 8933, "owa": 8934, "uses": 8935, "put": 8936, " Gun": 8937, " nav": 8938, " â": 8939, " deity": 8940, "fess": 8941, " UE": 8942, " Stal": 8943, "eline": 8944, " Dave": 8945, "ishn": 8946, "icia": 8947, " Vul": 8948, " clim": 8949, " theater": 8950, " 58": 8951, " Lover": 8952, " enh": 8953, "burn": 8954, "ternal": 8955, " 78": 8956, " cake": 8957, " gates": 8958, " Ash": 8959, " relation": 8960, " consol": 8961, " prime": 8962, " 08": 8963, " decay": 8964, " Show": 8965, " desert": 8966, " 178": 8967, " northward": 8968, " Plat": 8969, " exists": 8970, " Allen": 8971, " explains": 8972, "gery": 8973, " handled": 8974, " McL": 8975, " poison": 8976, "inery": 8977, " myst": 8978, " charged": 8979, " everyone": 8980, " twin": 8981, " reprodu": 8982, "alymp": 8983, " bands": 8984, " Hope": 8985, " Event": 8986, " Nebr": 8987, " Dyn": 8988, " moon": 8989, " bones": 8990, " sky": 8991, " Magad": 8992, " caves": 8993, " steam": 8994, " engineer": 8995, " injured": 8996, " deleg": 8997, " amounts": 8998, " colonies": 8999, " easy": 9000, "rupted": 9001, " boundary": 9002, " celebrated": 9003, " resumed": 9004, " Waterfall": 9005, " architecture": 9006, " manga": 9007, " corner": 9008, " advertising": 9009, " sisters": 9010, " huge": 9011, " Cheval": 9012, " Outstanding": 9013, " Democratic": 9014, " util": 9015, " rifle": 9016, " Brooks": 9017, " bulk": 9018, " strengthened": 9019, " dwar": 9020, " outbreak": 9021, " inhabitants": 9022, " erected": 9023, " Bertin": 9024, " ethnic": 9025, " deemed": 9026, " Treaty": 9027, " nurse": 9028, " Iraq": 9029, " Profess": 9030, " UEFA": 9031, " Paralymp": 9032, " Nebraska": 9033, " Magadheera": 9034, " dwarf": 9035, "kh": 9036, "SA": 9037, " aw": 9038, "ris": 9039, " Hor": 9040, " rever": 9041, " wet": 9042, " Rem": 9043, "osom": 9044, " anth": 9045, "ifies": 9046, "emies": 9047, "illed": 9048, " fate": 9049, " inse": 9050, "apse": 9051, " fant": 9052, " tack": 9053, "gov": 9054, "night": 9055, " bell": 9056, "uez": 9057, " Thus": 9058, " Lang": 9059, " rib": 9060, "weight": 9061, " lake": 9062, " Asom": 9063, " Ark": 9064, " 86": 9065, " canc": 9066, " recordings": 9067, " bind": 9068, " cars": 9069, " enters": 9070, " 165": 9071, " Much": 9072, " Univers": 9073, " landings": 9074, " designer": 9075, " warning": 9076, " exposed": 9077, "rophy": 9078, " Beet": 9079, "rows": 9080, " Nash": 9081, " driver": 9082, " difference": 9083, " productions": 9084, " partner": 9085, "plete": 9086, " 1924": 9087, " 1925": 9088, " breed": 9089, " profile": 9090, " Davis": 9091, "urrent": 9092, " 1890": 9093, " priest": 9094, " steep": 9095, " Tracy": 9096, " condem": 9097, "apping": 9098, " supern": 9099, " turb": 9100, " Herze": 9101, " Harold": 9102, " fundament": 9103, " Business": 9104, " banned": 9105, " executed": 9106, " Emmy": 9107, " prevented": 9108, " monuments": 9109, " demands": 9110, " dominant": 9111, " Heaven": 9112, " settlements": 9113, " Djok": 9114, " substitute": 9115, " judge": 9116, "ASP": 9117, " draf": 9118, " pursue": 9119, " graphics": 9120, " demonstrated": 9121, " excavations": 9122, " distinctive": 9123, " Madrid": 9124, " uncertain": 9125, "iggs": 9126, "otype": 9127, " garrison": 9128, " tactics": 9129, " Railway": 9130, " application": 9131, " distinguished": 9132, "tavruli": 9133, " turrets": 9134, " Rifles": 9135, "eorological": 9136, " scattered": 9137, " texts": 9138, " Yankees": 9139, " Pryce": 9140, " Nielsen": 9141, " Catechism": 9142, " strategy": 9143, " inscriptions": 9144, "govina": 9145, " Djokovic": 9146, " Asomtavruli": 9147, " Herzegovina": 9148, "ij": 9149, ".e": 9150, "AC": 9151, "EC": 9152, "oux": 9153, "oli": 9154, "imal": 9155, "rus": 9156, "ilation": 9157, " NL": 9158, "avel": 9159, "rior": 9160, " comed": 9161, "ifer": 9162, " sure": 9163, "arte": 9164, " Fall": 9165, "udes": 9166, " Kong": 9167, "inian": 9168, " pine": 9169, " trust": 9170, " Ve": 9171, "ignment": 9172, " usage": 9173, " tele": 9174, " aftern": 9175, " offs": 9176, " Those": 9177, " centers": 9178, " stood": 9179, " fee": 9180, "mouth": 9181, " consult": 9182, " charity": 9183, " Dean": 9184, "otten": 9185, " Lower": 9186, " Shel": 9187, "fully": 9188, " feels": 9189, " forty": 9190, "azines": 9191, " Bible": 9192, " 1934": 9193, " Clin": 9194, " drain": 9195, " triple": 9196, " McG": 9197, " amongst": 9198, " frust": 9199, " considering": 9200, " Women": 9201, " revers": 9202, " sounds": 9203, " edges": 9204, " aster": 9205, " Glob": 9206, " assisted": 9207, " liked": 9208, " tenth": 9209, " Anglo": 9210, " approval": 9211, " Jews": 9212, " Madison": 9213, " defenders": 9214, " Congo": 9215, " subjects": 9216, " indicating": 9217, " releases": 9218, " satell": 9219, " Overall": 9220, " innov": 9221, " boxing": 9222, " mbar": 9223, " translation": 9224, " initiated": 9225, " archaeologist": 9226, " pounds": 9227, " succeed": 9228, " Original": 9229, " Berlin": 9230, " Independence": 9231, " sacred": 9232, " duty": 9233, " ceratops": 9234, " Gallery": 9235, " collaboration": 9236, " altered": 9237, " premiere": 9238, " Veer": 9239, " striking": 9240, "chell": 9241, " Alfred": 9242, " Murray": 9243, " portrait": 9244, " residential": 9245, " elder": 9246, "borne": 9247, " downtown": 9248, " smooth": 9249, " tournaments": 9250, " false": 9251, " martial": 9252, " philosophy": 9253, " Tennesse": 9254, " Houston": 9255, " congreg": 9256, " Corporation": 9257, " emergency": 9258, " commemor": 9259, " suspended": 9260, " Celtic": 9261, " scheme": 9262, " afternoon": 9263, " magazines": 9264, " asteroid": 9265, " Tennessee": 9266, "ois": 9267, "pic": 9268, " lam": 9269, " Bat": 9270, "ote": 9271, "utor": 9272, " Wag": 9273, " bod": 9274, "sex": 9275, " Ken": 9276, "agine": 9277, "ellar": 9278, " cous": 9279, "oko": 9280, " nations": 9281, " Mach": 9282, "amount": 9283, " Aman": 9284, "cake": 9285, " 92": 9286, "ologies": 9287, " 03": 9288, " 09": 9289, " 101": 9290, " tale": 9291, " fert": 9292, "ffield": 9293, " obl": 9294, " poll": 9295, " toured": 9296, "ilty": 9297, " Fran": 9298, "ervative": 9299, " Auth": 9300, " flash": 9301, " receives": 9302, " Grade": 9303, " explo": 9304, " 1000": 9305, " realized": 9306, " ordering": 9307, " Romanian": 9308, " roots": 9309, " Esh": 9310, "encing": 9311, " 1908": 9312, " Next": 9313, " impressed": 9314, " fifty": 9315, " Swiss": 9316, " respective": 9317, " variation": 9318, " reveal": 9319, " deliber": 9320, " crews": 9321, " violent": 9322, " occupation": 9323, " Kurt": 9324, " testing": 9325, " Again": 9326, " Naval": 9327, " quarterback": 9328, " Priest": 9329, " frequent": 9330, " bishop": 9331, " Xenon": 9332, " adopt": 9333, " Finals": 9334, " Ontar": 9335, " Mountains": 9336, " Belg": 9337, " schedule": 9338, " SAS": 9339, " reducing": 9340, " requested": 9341, " talking": 9342, " communication": 9343, " Hawaii": 9344, " manufactur": 9345, " Conservation": 9346, " Mariana": 9347, " definition": 9348, " delivery": 9349, " conclusion": 9350, " northeastern": 9351, " Giants": 9352, " fatal": 9353, " Village": 9354, " eliminated": 9355, " Cubs": 9356, " rebuilt": 9357, " colleagues": 9358, " chamber": 9359, "burgh": 9360, " crisis": 9361, " Release": 9362, " simultaneously": 9363, " Wicca": 9364, " NDH": 9365, " battlecru": 9366, " Chevaliers": 9367, " Wagner": 9368, " Imagine": 9369, " Sheffield": 9370, " guilty": 9371, " Eshmun": 9372, " Ontario": 9373, "yo": 9374, "Ã§": 9375, "don": 9376, "nda": 9377, "ait": 9378, "oes": 9379, "rog": 9380, "tic": 9381, " CP": 9382, " Ace": 9383, " net": 9384, " Ple": 9385, " Dig": 9386, " NS": 9387, " send": 9388, " vul": 9389, " Mant": 9390, " cup": 9391, " Stav": 9392, " Dog": 9393, " intel": 9394, " clin": 9395, " spur": 9396, "oples": 9397, " Asian": 9398, " trick": 9399, "gars": 9400, " Leigh": 9401, " 02": 9402, " yield": 9403, "adier": 9404, " 155": 9405, " peaking": 9406, " operates": 9407, " carri": 9408, " pull": 9409, " Bah": 9410, "tah": 9411, " Carre": 9412, " metre": 9413, " gets": 9414, "rapped": 9415, " Christine": 9416, " helium": 9417, " 1923": 9418, " organised": 9419, " sentences": 9420, " Peach": 9421, " Anne": 9422, " nurs": 9423, " impression": 9424, " shoulder": 9425, " Evans": 9426, "aski": 9427, " visiting": 9428, " mathem": 9429, " Oreg": 9430, " Rhys": 9431, " Omar": 9432, " asks": 9433, " rounds": 9434, " strict": 9435, " Hills": 9436, " ABC": 9437, " runners": 9438, " fifteen": 9439, " jobs": 9440, " kilome": 9441, " Benj": 9442, " Hawaiian": 9443, " rhyme": 9444, " components": 9445, " withdrawal": 9446, " mechanical": 9447, " venues": 9448, " interpre": 9449, " refuge": 9450, " Harrison": 9451, " employees": 9452, " upset": 9453, " molecules": 9454, " assassination": 9455, " potentially": 9456, " Caes": 9457, "aganda": 9458, " newspapers": 9459, " Ghost": 9460, " Ancient": 9461, " obvious": 9462, " Queensland": 9463, " Labour": 9464, " collapsed": 9465, " culmin": 9466, " elaborate": 9467, " Dakota": 9468, " Eventually": 9469, " intellect": 9470, " Pulaski": 9471, " Oregon": 9472, " Benjamin": 9473, "ba": 9474, "Pa": 9475, "Å": 9476, " Sn": 9477, " SS": 9478, " wel": 9479, " Mit": 9480, "oln": 9481, "uty": 9482, " isot": 9483, " Pow": 9484, " Sem": 9485, " Wing": 9486, " Sand": 9487, " Nar": 9488, "umin": 9489, "agod": 9490, " ori": 9491, " dies": 9492, "apore": 9493, "aku": 9494, "eless": 9495, "acked": 9496, "iney": 9497, " gust": 9498, "raia": 9499, " ride": 9500, "ogy": 9501, " clust": 9502, " abol": 9503, " Eric": 9504, " sang": 9505, " Race": 9506, " vice": 9507, "osex": 9508, " Section": 9509, " Case": 9510, "angular": 9511, " earning": 9512, " Nob": 9513, "obile": 9514, "ohl": 9515, " Cany": 9516, "ieties": 9517, "ernon": 9518, " remove": 9519, " constant": 9520, " dams": 9521, " Plan": 9522, " Commons": 9523, " USS": 9524, " directors": 9525, " 14th": 9526, "atropical": 9527, " Trust": 9528, " kills": 9529, " Web": 9530, " sentiment": 9531, " parody": 9532, " paras": 9533, " Linc": 9534, " expression": 9535, " factory": 9536, " structural": 9537, " putting": 9538, " summ": 9539, " referring": 9540, " Prest": 9541, " Corb": 9542, "ucks": 9543, " valid": 9544, " personality": 9545, " creative": 9546, " asking": 9547, " renov": 9548, "atinum": 9549, " machines": 9550, " stores": 9551, " conflic": 9552, " artistic": 9553, " Valve": 9554, " drove": 9555, " spacecraft": 9556, " acids": 9557, " dispute": 9558, " compliment": 9559, " Charts": 9560, " classification": 9561, " boundaries": 9562, " Banks": 9563, "illiant": 9564, " documented": 9565, " translated": 9566, " contribution": 9567, " Supreme": 9568, " Woodhouse": 9569, " inhab": 9570, " youngest": 9571, " Korea": 9572, " seeking": 9573, " Children": 9574, " environmental": 9575, " comparison": 9576, " columns": 9577, " suitable": 9578, " advancing": 9579, " theatrical": 9580, " Islamic": 9581, " trouble": 9582, " Similarly": 9583, " Christopher": 9584, "Ã¶n": 9585, "imetres": 9586, " diagn": 9587, "ekend": 9588, " Foundation": 9589, " Sisler": 9590, " Program": 9591, " surgery": 9592, " Singapore": 9593, " Sorraia": 9594, " Canyon": 9595, " extratropical": 9596, " Lincoln": 9597, "C.": 9598, "NC": 9599, "IA": 9600, "NL": 9601, "Ã¸": 9602, "unes": 9603, "inge": 9604, "enic": 9605, " lat": 9606, " beam": 9607, " Bad": 9608, " Pf": 9609, " alt": 9610, " DD": 9611, "Grom": 9612, " lies": 9613, "odore": 9614, "oard": 9615, " Jard": 9616, " Bab": 9617, " Lud": 9618, " plus": 9619, " Sant": 9620, " kit": 9621, " Cred": 9622, "krit": 9623, " Near": 9624, " Lost": 9625, " cave": 9626, "ashed": 9627, " Die": 9628, "etime": 9629, " Hans": 9630, " Face": 9631, " notice": 9632, " Cress": 9633, " Jason": 9634, " Publ": 9635, "ugu": 9636, "inder": 9637, " produces": 9638, " gray": 9639, " coff": 9640, "enden": 9641, " completing": 9642, " Conc": 9643, " hull": 9644, "ennium": 9645, "mont": 9646, "byter": 9647, " trials": 9648, " explain": 9649, " personally": 9650, " expert": 9651, " bases": 9652, " tempor": 9653, " Champions": 9654, " twent": 9655, " solar": 9656, " representation": 9657, " rising": 9658, " 1907": 9659, " print": 9660, " sample": 9661, " anthem": 9662, " revised": 9663, " Bidd": 9664, " Where": 9665, " professor": 9666, " swim": 9667, " superv": 9668, " falls": 9669, " armament": 9670, " Sym": 9671, " programming": 9672, " Natural": 9673, " fishing": 9674, " honour": 9675, " Nett": 9676, " Know": 9677, " reflected": 9678, " removal": 9679, " archaeology": 9680, " Verac": 9681, " questions": 9682, " Prix": 9683, " Prize": 9684, " birthday": 9685, " submitted": 9686, "dney": 9687, " semif": 9688, " topped": 9689, " favorable": 9690, " enzy": 9691, " prepare": 9692, " powered": 9693, " sculptures": 9694, " Species": 9695, " Cooper": 9696, " spending": 9697, " Louisiana": 9698, " battleships": 9699, " organisation": 9700, " Furthermore": 9701, " inclusion": 9702, " Obser": 9703, " vertical": 9704, " encountered": 9705, " segment": 9706, " communications": 9707, " library": 9708, " Ingres": 9709, " bridges": 9710, " disagre": 9711, " Chronicles": 9712, " Together": 9713, " 766th": 9714, " Cullen": 9715, " anekÄntavÄda": 9716, " collapse": 9717, " WASP": 9718, " Briggs": 9719, " satellite": 9720, " Belgium": 9721, " Jardine": 9722, " Sanskrit": 9723, " Cresswell": 9724, " Telugu": 9725, " temporarily": 9726, " Biddenden": 9727, " Nettles": 9728, " Veracruz": 9729, "ta": 9730, " ï": 9731, " bom": 9732, "elle": 9733, " Mir": 9734, "ulu": 9735, " Ders": 9736, " hem": 9737, " â": 9738, " Dud": 9739, " tru": 9740, "urally": 9741, "ieth": 9742, "eign": 9743, " Tok": 9744, "ract": 9745, " Yo": 9746, "enses": 9747, "irates": 9748, " Youth": 9749, " canal": 9750, " meters": 9751, " Chron": 9752, " phen": 9753, " surge": 9754, " mainland": 9755, " evident": 9756, "ewise": 9757, " origins": 9758, "erto": 9759, " genera": 9760, " repair": 9761, " Sony": 9762, " foss": 9763, "gets": 9764, " wives": 9765, " weekly": 9766, "itively": 9767, " arriving": 9768, " 1922": 9769, " slip": 9770, " chest": 9771, " traded": 9772, " joining": 9773, " sailed": 9774, " Westmin": 9775, "incial": 9776, " charted": 9777, " Neves": 9778, " barr": 9779, "phoon": 9780, " Register": 9781, " convention": 9782, " Bald": 9783, " Magn": 9784, " highways": 9785, " fitted": 9786, "ansfield": 9787, ".com": 9788, " armored": 9789, " biological": 9790, " nominations": 9791, " ump": 9792, " publishing": 9793, " discussion": 9794, " objectives": 9795, " prefect": 9796, " Social": 9797, " keeping": 9798, " coinc": 9799, " XII": 9800, " Anti": 9801, " investigation": 9802, " boys": 9803, " shares": 9804, " struggled": 9805, "agogue": 9806, " emphasis": 9807, " neutral": 9808, " beliefs": 9809, " pleasure": 9810, " wishes": 9811, " Michel": 9812, " pulled": 9813, " accomplish": 9814, " choose": 9815, " pretty": 9816, " hidden": 9817, " indeed": 9818, " assembled": 9819, " updated": 9820, " Jacob": 9821, " upgraded": 9822, " Ernest": 9823, " Campbell": 9824, " demolished": 9825, " ARVN": 9826, " empire": 9827, " underwent": 9828, "howitz": 9829, " illegal": 9830, " phrase": 9831, " Bennett": 9832, " uniform": 9833, " junior": 9834, " Sioux": 9835, " Clinton": 9836, " Amanita": 9837, " Pattycake": 9838, " Digital": 9839, " Dudley": 9840, "overeign": 9841, " Chrono": 9842, " Westminster": 9843, " Nevesinje": 9844, " Dershowitz": 9845, "SP": 9846, ".g": 9847, " ax": 9848, " pion": 9849, "acre": 9850, " Ian": 9851, " Bor": 9852, " Let": 9853, "ersed": 9854, " sect": 9855, " suit": 9856, "rich": 9857, " chrom": 9858, "ivated": 9859, " Und": 9860, "otte": 9861, " clay": 9862, " Cater": 9863, " bare": 9864, " Alb": 9865, "inations": 9866, " pace": 9867, " export": 9868, "bles": 9869, "acles": 9870, " beings": 9871, "orable": 9872, " 83": 9873, " dict": 9874, " assess": 9875, " quant": 9876, " alph": 9877, " finale": 9878, " 170": 9879, "nels": 9880, " warn": 9881, "aho": 9882, " advice": 9883, " Tony": 9884, " Europ": 9885, " publications": 9886, " Canning": 9887, "tropical": 9888, " pages": 9889, " margin": 9890, " eventual": 9891, " presentation": 9892, " Weir": 9893, " threw": 9894, " Without": 9895, "brace": 9896, " Country": 9897, " profit": 9898, " Parks": 9899, " Jackets": 9900, " tourist": 9901, " Indones": 9902, " Magic": 9903, " starring": 9904, " facility": 9905, " reduction": 9906, " Keith": 9907, " carries": 9908, " strip": 9909, " resolution": 9910, " electron": 9911, " 1861": 9912, " merely": 9913, " disband": 9914, " 360": 9915, " certainly": 9916, " daughters": 9917, " abilities": 9918, " rotation": 9919, " categ": 9920, " percentage": 9921, " feeding": 9922, " controller": 9923, " shift": 9924, " Zanz": 9925, " Wander": 9926, " recovery": 9927, " architectural": 9928, " Columbus": 9929, " lanes": 9930, " neighb": 9931, " Defense": 9932, " illustrated": 9933, " measurements": 9934, " fusion": 9935, " advertis": 9936, " Argentine": 9937, " aggreg": 9938, " Usher": 9939, " shorter": 9940, " Sweden": 9941, " conversation": 9942, " southeastern": 9943, " reforms": 9944, " 130th": 9945, " fasc": 9946, " Kirk": 9947, " negotiations": 9948, " surrender": 9949, " Building": 9950, " unlik": 9951, " cinema": 9952, " Abbey": 9953, " unnamed": 9954, " appointment": 9955, " WWF": 9956, " ibis": 9957, "ropolitan": 9958, " whilst": 9959, "olithic": 9960, " Switzer": 9961, " â¹": 9962, " punishment": 9963, " neighborhood": 9964, " enthus": 9965, " peoples": 9966, " Caesar": 9967, " Mitchell": 9968, " Pohl": 9969, " Preston": 9970, " e.g": 9971, " Charlotte": 9972, " Idaho": 9973, " Zanzib": 9974, " Wanderers": 9975, " unlikely": 9976, " Switzerland": 9977, " e.g.": 9978, " sq": 9979, "oust": 9980, "urst": 9981, "acter": 9982, " forth": 9983, "usic": 9984, "otes": 9985, " Fle": 9986, " WN": 9987, " Main": 9988, " Nel": 9989, " Non": 9990, " Jen": 9991, "odrom": 9992, "oren": 9993, " gap": 9994, "opl": 9995, "uart": 9996, " Pak": 9997, " chain": 9998, " Sab": 9999, "arant": 10000, "vant": 10001, " Ky": 10002, " K.": 10003, "iao": 10004, "pper": 10005, "inction": 10006, " tub": 10007, " Sign": 10008, " anime": 10009, " Dover": 10010, "hang": 10011, "ensions": 10012, " themed": 10013, "soft": 10014, " buy": 10015, " Bird": 10016, " mines": 10017, "leton": 10018, "father": 10019, " acute": 10020, " 117": 10021, " signs": 10022, "yram": 10023, "aired": 10024, "embers": 10025, " advoc": 10026, " string": 10027, " onwards": 10028, " Tales": 10029, " guid": 10030, " Feel": 10031, " Christians": 10032, "atically": 10033, "ishops": 10034, " contrad": 10035, " controls": 10036, " offering": 10037, " confront": 10038, " historically": 10039, " significance": 10040, " hosp": 10041, "ospel": 10042, " Amb": 10043, " tooth": 10044, " reader": 10045, " Herald": 10046, " YouT": 10047, " Health": 10048, " Bush": 10049, " helping": 10050, " facil": 10051, " telling": 10052, "inÃ¡": 10053, " profession": 10054, " closure": 10055, " circle": 10056, " 350": 10057, " wider": 10058, " devast": 10059, " illness": 10060, " Yellow": 10061, " rebell": 10062, " McCart": 10063, " Imm": 10064, " travelled": 10065, " Everton": 10066, " decisions": 10067, " Freak": 10068, " adapt": 10069, " Belgian": 10070, " batteries": 10071, " Twenty": 10072, " genetic": 10073, " Interchange": 10074, " supplement": 10075, " magnetic": 10076, " elevation": 10077, " ceremon": 10078, " patterns": 10079, " entertain": 10080, " waiting": 10081, " chicks": 10082, " Nazi": 10083, " mobile": 10084, " Gardner": 10085, " Madero": 10086, " Province": 10087, " Alberta": 10088, " depicting": 10089, " gravity": 10090, " pregnancy": 10091, " aggressive": 10092, " duration": 10093, " Hoover": 10094, " Lessing": 10095, " Heritage": 10096, " brigades": 10097, " Walker": 10098, " disappoin": 10099, " Delaware": 10100, " ongoing": 10101, " accompanying": 10102, " Isesi": 10103, " Dahl": 10104, " Nadal": 10105, " cotton": 10106, " suicide": 10107, " Carmel": 10108, " enemies": 10109, " stellar": 10110, " Paramount": 10111, "osexual": 10112, " Credits": 10113, " Stuart": 10114, " Upper": 10115, " YouTube": 10116, " ToninÃ¡": 10117, " McCartney": 10118, "iy": 10119, "ean": 10120, " tom": 10121, " AT": 10122, " Sin": 10123, "star": 10124, " Mun": 10125, " Mk": 10126, "tered": 10127, " Bow": 10128, " Rom": 10129, " Fem": 10130, " Las": 10131, "rik": 10132, " Fif": 10133, " sup": 10134, "arded": 10135, " Kate": 10136, " wish": 10137, "olia": 10138, "bra": 10139, "water": 10140, " Heart": 10141, "imeter": 10142, "herry": 10143, " exclud": 10144, " encl": 10145, "face": 10146, " shear": 10147, "wick": 10148, " jury": 10149, " stock": 10150, "roph": 10151, "arsh": 10152, " grave": 10153, " Lane": 10154, " diver": 10155, " Rivers": 10156, "erne": 10157, " signal": 10158, " hook": 10159, " promin": 10160, " Andre": 10161, "rett": 10162, " commanders": 10163, " commands": 10164, " McE": 10165, " Priv": 10166, " similarly": 10167, " stead": 10168, "itarian": 10169, " symp": 10170, " Perform": 10171, " spots": 10172, " Centre": 10173, " 1902": 10174, " destroyer": 10175, " 1895": 10176, " Disc": 10177, " values": 10178, "where": 10179, " closing": 10180, " hyg": 10181, " raising": 10182, " Khan": 10183, " donated": 10184, " execution": 10185, " riding": 10186, " indicates": 10187, " shirt": 10188, " pairs": 10189, " parent": 10190, " requires": 10191, " Allosaurus": 10192, " girls": 10193, " policies": 10194, " searching": 10195, " Critics": 10196, " platoon": 10197, " liqu": 10198, " concentrated": 10199, " printed": 10200, " preparing": 10201, " universities": 10202, " Madonna": 10203, " permission": 10204, " connecting": 10205, " conversion": 10206, " terrain": 10207, " Observ": 10208, " farmers": 10209, " category": 10210, " Headquarters": 10211, " Leonard": 10212, " aimed": 10213, " dubbed": 10214, " exactly": 10215, " Adela": 10216, " Seattle": 10217, " accurate": 10218, " freedom": 10219, " Crusad": 10220, " decorated": 10221, " acycl": 10222, " embarked": 10223, " hydrogen": 10224, " trapped": 10225, " doctrine": 10226, "penter": 10227, " Arkansas": 10228, " cancelled": 10229, " fundamental": 10230, " Stavanger": 10231, " conflicts": 10232, " Sydney": 10233, " phenomen": 10234, " Adelaide": 10235, " acyclic": 10236, "Ã£": 10237, "han": 10238, " tox": 10239, "isle": 10240, "lee": 10241, "oom": 10242, " anch": 10243, "anag": 10244, " Nav": 10245, " wore": 10246, " bore": 10247, " reop": 10248, "atever": 10249, "rose": 10250, "cour": 10251, "ipes": 10252, "iang": 10253, " nave": 10254, " Eight": 10255, " Vic": 10256, "oken": 10257, " touring": 10258, "pled": 10259, " Hugh": 10260, " jew": 10261, " overt": 10262, "active": 10263, "bound": 10264, "ternet": 10265, " Food": 10266, "lesh": 10267, " infer": 10268, "oyd": 10269, " Rick": 10270, " Mars": 10271, " inning": 10272, "lock": 10273, " bears": 10274, " beating": 10275, " 01": 10276, " intercept": 10277, " 125": 10278, " caps": 10279, " backing": 10280, " operas": 10281, " Christi": 10282, " beats": 10283, " seats": 10284, " Maur": 10285, " phone": 10286, " McD": 10287, " dense": 10288, " fewer": 10289, "ffling": 10290, " crash": 10291, " strongest": 10292, " 22nd": 10293, " Abd": 10294, " solution": 10295, " affil": 10296, " Polit": 10297, " friendly": 10298, "dream": 10299, " sket": 10300, " tenure": 10301, " ballad": 10302, " functions": 10303, " detected": 10304, " ranks": 10305, " Morgan": 10306, "grad": 10307, " animated": 10308, " Serbs": 10309, " Harry": 10310, "thodon": 10311, " civilians": 10312, " characteristic": 10313, " failing": 10314, " Donald": 10315, " Angelou": 10316, " Jeremy": 10317, " prosec": 10318, " credit": 10319, " credits": 10320, " unclear": 10321, " reaches": 10322, " counterp": 10323, " logic": 10324, " Boys": 10325, " sevent": 10326, " gift": 10327, " Panz": 10328, " pilots": 10329, " Survey": 10330, " danger": 10331, " internation": 10332, " Francis": 10333, " compositions": 10334, " withdrawn": 10335, " Leeds": 10336, " ninet": 10337, " Description": 10338, " pursuit": 10339, " abroad": 10340, " Books": 10341, " qualified": 10342, " steps": 10343, " continental": 10344, " mental": 10345, " prisoners": 10346, " transmission": 10347, " harbour": 10348, " melody": 10349, " molecular": 10350, " mountains": 10351, " evolved": 10352, " rushing": 10353, " solely": 10354, " Falls": 10355, " interactions": 10356, " wickets": 10357, " Broadway": 10358, " sleep": 10359, " Nightingale": 10360, " wealthy": 10361, " temperatures": 10362, " Watson": 10363, " sympt": 10364, " vegetation": 10365, " Bulgar": 10366, " Hungarian": 10367, " leukemia": 10368, " maintaining": 10369, " Eccl": 10370, " ashore": 10371, " Fernandez": 10372, " Tigers": 10373, " vertex": 10374, " HawaiÊ»": 10375, " Corpus": 10376, " tissue": 10377, " Wyoming": 10378, " apprec": 10379, " Dynasty": 10380, " cousin": 10381, " hPa": 10382, " HNC": 10383, " positively": 10384, " Internet": 10385, " flesh": 10386, " Derffling": 10387, " Daydream": 10388, " Panzer": 10389, " HawaiÊ»i": 10390, " Derfflinger": 10391, "po": 10392, "alf": 10393, "bing": 10394, " Tro": 10395, "entle": 10396, "omic": 10397, " CO": 10398, "iac": 10399, " id": 10400, "ows": 10401, "aya": 10402, " inher": 10403, " Got": 10404, " Rap": 10405, "zong": 10406, " Hop": 10407, "equ": 10408, "fra": 10409, " Dub": 10410, "hire": 10411, "ector": 10412, "ective": 10413, "ultan": 10414, " compens": 10415, "oyle": 10416, "esters": 10417, " acted": 10418, " dual": 10419, " Born": 10420, " 105": 10421, " numbered": 10422, "tenance": 10423, " amph": 10424, " 127": 10425, " 168": 10426, "power": 10427, " 114": 10428, " brain": 10429, " Maya": 10430, "aza": 10431, " successive": 10432, " succession": 10433, " gaining": 10434, " restore": 10435, " Living": 10436, " Kody": 10437, " reviewed": 10438, " Heavy": 10439, "enger": 10440, " handed": 10441, "eltown": 10442, " starter": 10443, " coverage": 10444, " Barn": 10445, " Batter": 10446, " champions": 10447, "estyle": 10448, " Romania": 10449, "street": 10450, " 1903": 10451, " Neil": 10452, " goods": 10453, " Almost": 10454, " Actor": 10455, " ideal": 10456, " obtain": 10457, " cyt": 10458, " Gael": 10459, " occurring": 10460, " revival": 10461, " Welling": 10462, " animation": 10463, "ingray": 10464, " evolution": 10465, " 1889": 10466, " measuring": 10467, " Zoo": 10468, "rehens": 10469, " Arabs": 10470, " heavier": 10471, " increases": 10472, " permitted": 10473, " Years": 10474, " observation": 10475, " consistent": 10476, " Administ": 10477, " seriously": 10478, " Poly": 10479, " Trees": 10480, "ygen": 10481, " assembly": 10482, " Antimony": 10483, " Cricket": 10484, " identify": 10485, " anticip": 10486, " walking": 10487, " surprise": 10488, " parliamentary": 10489, " Sora": 10490, " Witch": 10491, " beauty": 10492, " virtually": 10493, " disrupt": 10494, " bowling": 10495, " Jurchens": 10496, " ownership": 10497, " cruisers": 10498, " Library": 10499, " pregnant": 10500, " clothes": 10501, " relegated": 10502, " Transportation": 10503, " Baseball": 10504, " Bedell": 10505, " appropriate": 10506, "schild": 10507, " Hampshire": 10508, " administrative": 10509, " reinforced": 10510, " photographs": 10511, " Cyrus": 10512, " Author": 10513, " Mantell": 10514, " cougars": 10515, " Utah": 10516, " interpreted": 10517, " platinum": 10518, " lifetime": 10519, " targets": 10520, " XIII": 10521, " grandfather": 10522, "yramid": 10523, "fraid": 10524, " Bradstreet": 10525, " Gaelic": 10526, " Wellington": 10527, " oxygen": 10528, " Rothschild": 10529, "jo": 10530, "CU": 10531, "ori": 10532, " bon": 10533, " ban": 10534, "ras": 10535, " Son": 10536, "stal": 10537, " Cas": 10538, " gar": 10539, " mir": 10540, "inus": 10541, "rous": 10542, "aration": 10543, " Set": 10544, " Pot": 10545, " PC": 10546, "unch": 10547, " DS": 10548, " Dot": 10549, "icul": 10550, " Nat": 10551, " rid": 10552, " Eg": 10553, " Oak": 10554, " fame": 10555, "udo": 10556, "oster": 10557, "itia": 10558, "enous": 10559, "ormal": 10560, " manip": 10561, " jet": 10562, " gang": 10563, "acts": 10564, " Mix": 10565, " sings": 10566, " feud": 10567, "olve": 10568, "worth": 10569, " grade": 10570, " code": 10571, " backed": 10572, " diff": 10573, " Dram": 10574, " rains": 10575, " runway": 10576, " distrib": 10577, " therap": 10578, " seized": 10579, " sized": 10580, " varied": 10581, " admin": 10582, "issioned": 10583, " Grace": 10584, " Room": 10585, " guides": 10586, " capturing": 10587, " helps": 10588, " 230": 10589, " authorized": 10590, " sitting": 10591, " laugh": 10592, " tours": 10593, " toler": 10594, " doctor": 10595, " Kau": 10596, " balls": 10597, " promotional": 10598, " revived": 10599, "regular": 10600, " commenting": 10601, " audition": 10602, " armies": 10603, " depiction": 10604, " agency": 10605, " flooded": 10606, " Christianity": 10607, " excell": 10608, " Econom": 10609, " Data": 10610, " golden": 10611, " Manuel": 10612, " believing": 10613, " Import": 10614, " housed": 10615, " fault": 10616, " 1849": 10617, " Collection": 10618, " participate": 10619, " blocked": 10620, " Studies": 10621, " autom": 10622, " dispat": 10623, " pitching": 10624, " sixteen": 10625, " votes": 10626, " understood": 10627, " hills": 10628, " heroes": 10629, " attitude": 10630, " habitats": 10631, " loud": 10632, " secretary": 10633, " representatives": 10634, " constitu": 10635, " questioned": 10636, " subsid": 10637, " tasked": 10638, " sporting": 10639, " championships": 10640, " Contem": 10641, " reactions": 10642, " Halo": 10643, " departed": 10644, " continuous": 10645, " resemble": 10646, " downstream": 10647, " engagement": 10648, " Ult": 10649, " hamper": 10650, " cancel": 10651, " naming": 10652, " Tristan": 10653, " Coldrum": 10654, " infection": 10655, " Ohio": 10656, " Etty": 10657, " puzzles": 10658, " MLB": 10659, " pounder": 10660, " IOC": 10661, " suddenly": 10662, " perceived": 10663, " registered": 10664, " Rhodesian": 10665, " balance": 10666, " displaced": 10667, " proportion": 10668, " Joyful": 10669, " clothing": 10670, "legraph": 10671, " Looking": 10672, " manuscripts": 10673, " Margaret": 10674, " KÅ": 10675, " announcement": 10676, " explicit": 10677, " Palestinian": 10678, " bodyline": 10679, " kilometers": 10680, " synagogue": 10681, " hospitals": 10682, " entertainment": 10683, " irregular": 10684, "rep": 10685, " Tit": 10686, " AA": 10687, "iad": 10688, " BÃ": 10689, " stim": 10690, " Say": 10691, " Pan": 10692, " Pur": 10693, " ech": 10694, " Dor": 10695, " Prom": 10696, " NM": 10697, "agen": 10698, " sew": 10699, " dod": 10700, " List": 10701, " Mort": 10702, " vir": 10703, " pap": 10704, " Cant": 10705, "eloc": 10706, " Come": 10707, " herd": 10708, " cler": 10709, " Heb": 10710, " scar": 10711, "cover": 10712, "thren": 10713, " Reb": 10714, "ricts": 10715, " Ground": 10716, " Dick": 10717, " Ship": 10718, " flies": 10719, " accum": 10720, " epic": 10721, "phant": 10722, " Pier": 10723, " Shell": 10724, " 174": 10725, "anches": 10726, "azer": 10727, " Deep": 10728, " passion": 10729, " Ext": 10730, " Blu": 10731, " metall": 10732, " edited": 10733, "ashi": 10734, "ikk": 10735, " Wik": 10736, " Trond": 10737, " noble": 10738, " refere": 10739, " distances": 10740, " replied": 10741, "terior": 10742, " victim": 10743, " factor": 10744, " Buck": 10745, " Morning": 10746, " lacking": 10747, " veter": 10748, " coaching": 10749, " prize": 10750, " industries": 10751, "mingham": 10752, " ruler": 10753, " zomb": 10754, " McCar": 10755, " memories": 10756, " rays": 10757, "anville": 10758, " arrangements": 10759, " Campaign": 10760, " Monkey": 10761, " Foreign": 10762, " approaches": 10763, " banks": 10764, " Sky": 10765, "barian": 10766, " dependent": 10767, " wolf": 10768, " kickoff": 10769, " queen": 10770, " touchdowns": 10771, " salv": 10772, " Haitian": 10773, " rescued": 10774, " candidates": 10775, " NCAA": 10776, " roller": 10777, " flew": 10778, " teachers": 10779, " shrine": 10780, " comprised": 10781, " fastest": 10782, " affairs": 10783, " mainstream": 10784, " Bapt": 10785, " component": 10786, " Gregory": 10787, " Slayer": 10788, " undertaken": 10789, " Skinner": 10790, " disturbance": 10791, " Honor": 10792, " vicinity": 10793, " vs.": 10794, " scorer": 10795, " Hellbl": 10796, " pistol": 10797, " strategic": 10798, " absorbed": 10799, " Dennis": 10800, " RÃ¤": 10801, " Bosn": 10802, " archbishop": 10803, " tickets": 10804, " Hannah": 10805, " Interstate": 10806, " Wrestling": 10807, " restrictions": 10808, " Creutz": 10809, " Palmyrene": 10810, " Iowa": 10811, " Staley": 10812, " mystery": 10813, " compilation": 10814, " Vegas": 10815, " Wrapped": 10816, " mathemat": 10817, "Ã¶nen": 10818, " Tokyo": 10819, " Zanzibar": 10820, " aerodrom": 10821, " Ecclestone": 10822, " districts": 10823, " Trondheim": 10824, " Birmingham": 10825, " Hellblazer": 10826, " RÃ¤ikk": 10827, " RÃ¤ikkÃ¶nen": 10828, "fe": 10829, "la": 10830, "DS": 10831, "Æ°": 10832, "ini": 10833, "erm": 10834, "wan": 10835, " pp": 10836, " da": 10837, " Cit": 10838, " mac": 10839, " hur": 10840, "uras": 10841, " Iv": 10842, " gat": 10843, " gor": 10844, "imer": 10845, "pir": 10846, "oted": 10847, " Pam": 10848, " Ful": 10849, " Rul": 10850, " Âµ": 10851, "romet": 10852, " Lad": 10853, " reag": 10854, " rig": 10855, " Dod": 10856, "oded": 10857, " atop": 10858, "pse": 10859, " Mack": 10860, " Nine": 10861, " dust": 10862, " Aub": 10863, " fru": 10864, " Thak": 10865, " Tree": 10866, "olence": 10867, "arest": 10868, "urance": 10869, " trough": 10870, "ilda": 10871, "oints": 10872, "alsa": 10873, "veland": 10874, " consent": 10875, " Marie": 10876, " Lind": 10877, " worn": 10878, " locally": 10879, " pole": 10880, " Shim": 10881, " popul": 10882, " Father": 10883, " Bright": 10884, " miners": 10885, " Hair": 10886, "achute": 10887, " brut": 10888, "emble": 10889, " Isle": 10890, " matters": 10891, "book": 10892, " Pole": 10893, " poets": 10894, " extens": 10895, " True": 10896, " justice": 10897, " vital": 10898, " medal": 10899, " McM": 10900, "inness": 10901, "luence": 10902, " Places": 10903, " curved": 10904, " 1901": 10905, " 1906": 10906, "ficial": 10907, " genes": 10908, " Federation": 10909, " praising": 10910, "arris": 10911, " Moon": 10912, " Ages": 10913, " crick": 10914, " myster": 10915, "iscus": 10916, " Highland": 10917, " redes": 10918, "hemical": 10919, " trend": 10920, " audio": 10921, " Exper": 10922, " cutting": 10923, " Doo": 10924, " hitting": 10925, " businesses": 10926, " concession": 10927, " Liter": 10928, " opposing": 10929, " penet": 10930, " traveling": 10931, " chapters": 10932, " Singh": 10933, " denomin": 10934, " speaker": 10935, " Tommy": 10936, " extinct": 10937, " hearing": 10938, " territorial": 10939, "guard": 10940, " observatory": 10941, " arguing": 10942, " consistently": 10943, " fourteen": 10944, " insurg": 10945, " bombing": 10946, "wegian": 10947, " punt": 10948, " marketing": 10949, " concepts": 10950, " craf": 10951, " relatives": 10952, " escaped": 10953, " 1819": 10954, "¬nh": 10955, " exhibition": 10956, " admir": 10957, " requirements": 10958, " membrane": 10959, " universe": 10960, " Senator": 10961, " fragment": 10962, " sending": 10963, " wait": 10964, " Reagan": 10965, " extending": 10966, " pictures": 10967, " batsmen": 10968, " Matthew": 10969, " agriculture": 10970, " Cambodian": 10971, " puppet": 10972, " exclusive": 10973, " Bruce": 10974, " Return": 10975, " surrend": 10976, " laboratory": 10977, " Shadow": 10978, " aerial": 10979, " Ariz": 10980, " Kennedy": 10981, " Zagre": 10982, " Archaeological": 10983, " archaeologists": 10984, " liner": 10985, " rubber": 10986, " Hughes": 10987, " talent": 10988, " diamond": 10989, " drinking": 10990, " juven": 10991, " Hobbs": 10992, " recurring": 10993, " conjunction": 10994, " machinery": 10995, " Professor": 10996, " Beeton": 10997, " Meteorological": 10998, " Quiney": 10999, " Corbet": 11000, " complimented": 11001, " brilliant": 11002, " aboard": 11003, " tubes": 11004, " behalf": 11005, " maintenance": 11006, " Cleveland": 11007, " extensively": 11008, " crickets": 11009, " Norwegian": 11010, " Arizona": 11011, " Zagreb": 11012, "ng": 11013, "zo": 11014, "PA": 11015, "CW": 11016, "una": 11017, "esh": 11018, " Af": 11019, "rad": 11020, " lad": 11021, " IA": 11022, " liv": 11023, "olin": 11024, "iger": 11025, " Ra": 11026, " Fut": 11027, " mand": 11028, " Lam": 11029, "gers": 11030, " Ow": 11031, "eries": 11032, " Gill": 11033, " Hong": 11034, "osity": 11035, " alive": 11036, " squ": 11037, "cles": 11038, "tical": 11039, " users": 11040, " reper": 11041, "orage": 11042, " Cond": 11043, " Dance": 11044, " Alg": 11045, "overy": 11046, " enorm": 11047, "aceous": 11048, "ensis": 11049, "ribi": 11050, " deals": 11051, "underst": 11052, " canon": 11053, " stick": 11054, " Marge": 11055, "inaw": 11056, " apply": 11057, " Stars": 11058, " usual": 11059, " presents": 11060, " recept": 11061, " Reines": 11062, "ogram": 11063, " brand": 11064, " couldn": 11065, " trains": 11066, " reven": 11067, " operational": 11068, " mature": 11069, " simpl": 11070, " sheep": 11071, " advised": 11072, " governments": 11073, " guide": 11074, "asha": 11075, " Guine": 11076, " tracked": 11077, " explore": 11078, " sugar": 11079, " faster": 11080, " gene": 11081, " McN": 11082, " myself": 11083, " Kyle": 11084, " 220": 11085, " 261": 11086, " Sox": 11087, " 1897": 11088, " rocks": 11089, "rieved": 11090, " commenced": 11091, " legacy": 11092, " happ": 11093, " lacked": 11094, " 1880": 11095, " statements": 11096, " Serb": 11097, " exceed": 11098, " hostile": 11099, "iography": 11100, " device": 11101, " motif": 11102, " 1878": 11103, " Egyptians": 11104, " investment": 11105, " zinc": 11106, " persist": 11107, " Partington": 11108, " transported": 11109, " racing": 11110, " tested": 11111, " fulf": 11112, " presidential": 11113, " Comedy": 11114, " examination": 11115, " decomm": 11116, " Operations": 11117, " Opera": 11118, " Finally": 11119, " trails": 11120, " spawn": 11121, " exploration": 11122, " Justin": 11123, " predicted": 11124, " Sixth": 11125, " Johnny": 11126, " Humph": 11127, " Joint": 11128, " beaten": 11129, " revenue": 11130, "ographical": 11131, " Community": 11132, " JosÃ©": 11133, " venue": 11134, " abuse": 11135, " neighbour": 11136, " Popular": 11137, " Files": 11138, " allocated": 11139, " Pagan": 11140, " Champion": 11141, " peninsula": 11142, " Works": 11143, " pushing": 11144, " horiz": 11145, " Kenneth": 11146, " households": 11147, " Urania": 11148, " Lucas": 11149, " Archaeology": 11150, " immigration": 11151, "iÃ¨": 11152, " Flower": 11153, " partnership": 11154, " AtlÃ©t": 11155, " Local": 11156, " courses": 11157, " Holoca": 11158, " renewed": 11159, " Plateau": 11160, " Hurricanes": 11161, " cosm": 11162, " taste": 11163, " conscious": 11164, " NASA": 11165, "iÄ": 11166, " funeral": 11167, " Vulcan": 11168, " consolid": 11169, " Globe": 11170, " Brenda": 11171, " propaganda": 11172, " intellectual": 11173, "agoda": 11174, " centimetres": 11175, " weekend": 11176, " twentieth": 11177, " provincial": 11178, " Europa": 11179, " acoust": 11180, " Kyra": 11181, " Liao": 11182, " tombs": 11183, " steadily": 11184, " Carpenter": 11185, " Doyle": 11186, " pyramid": 11187, " indigenous": 11188, " Contemporary": 11189, " Humphrey": 11190, " AtlÃ©tico": 11191, " Holocaust": 11192, "zz": 11193, "CO": 11194, "ES": 11195, ".m": 11196, "»¿": 11197, " wre": 11198, " ing": 11199, "asm": 11200, "arro": 11201, " Tu": 11202, " Ten": 11203, "fly": 11204, "olm": 11205, "olt": 11206, " Bal": 11207, " Hay": 11208, "uther": 11209, " seas": 11210, "aple": 11211, " Mong": 11212, " mate": 11213, " Cart": 11214, " ward": 11215, " plate": 11216, " pled": 11217, " kid": 11218, " comprom": 11219, "andra": 11220, "ogan": 11221, "alog": 11222, " Vand": 11223, " V.": 11224, " Cass": 11225, " 1800": 11226, "inted": 11227, "itely": 11228, " reward": 11229, "join": 11230, " mood": 11231, "ubles": 11232, "irts": 11233, " canals": 11234, "ighters": 11235, "uters": 11236, " consum": 11237, " jaw": 11238, " acre": 11239, " retain": 11240, " amid": 11241, " cook": 11242, "ended": 11243, " eating": 11244, "uating": 11245, " singers": 11246, " 169": 11247, " Brack": 11248, " assert": 11249, " developers": 11250, " mayor": 11251, " complement": 11252, " distant": 11253, " styl": 11254, "ernoot": 11255, "tym": 11256, " Boss": 11257, "incess": 11258, "Ã©e": 11259, " Guild": 11260, " portions": 11261, " ports": 11262, " visits": 11263, " trio": 11264, " speculation": 11265, " soci": 11266, " marking": 11267, " Box": 11268, "ifeng": 11269, " Thai": 11270, "riarch": 11271, " magical": 11272, " situ": 11273, " reportedly": 11274, " obsc": 11275, " Charm": 11276, " corpor": 11277, " Colomb": 11278, " studying": 11279, " unrest": 11280, "rÃ­": 11281, " argument": 11282, " approaching": 11283, " Crash": 11284, " priests": 11285, " warned": 11286, " Computer": 11287, " funded": 11288, " Players": 11289, " 1860": 11290, " acceler": 11291, " Composition": 11292, " threats": 11293, " load": 11294, " persons": 11295, " snow": 11296, " breaks": 11297, " placing": 11298, " minority": 11299, " Agency": 11300, " Austrian": 11301, " Superman": 11302, " autob": 11303, " Offic": 11304, " Companies": 11305, " Russell": 11306, " celebrate": 11307, " autumn": 11308, "awny": 11309, " talks": 11310, "RNA": 11311, " Philipp": 11312, " sexuality": 11313, " Cloud": 11314, " airports": 11315, " enforce": 11316, " Africaine": 11317, " concentration": 11318, " proceeded": 11319, " lumber": 11320, "gends": 11321, " Franklin": 11322, " voices": 11323, " volumes": 11324, " repairs": 11325, " connections": 11326, " storylines": 11327, " Alfa": 11328, " challenging": 11329, " comfort": 11330, " flagship": 11331, " Villaret": 11332, " calculated": 11333, " constantly": 11334, " sponsored": 11335, " Movie": 11336, " slopes": 11337, " quoted": 11338, "hedruli": 11339, " ignored": 11340, "abyrin": 11341, " LÃ¼": 11342, " Hockey": 11343, " Lancaster": 11344, " inaugural": 11345, " integr": 11346, " absolute": 11347, " exhausted": 11348, " cemetery": 11349, " tributaries": 11350, " density": 11351, " Graham": 11352, " Cecil": 11353, " conventional": 11354, "orrowed": 11355, " valuable": 11356, " offshore": 11357, " insects": 11358, " Trophy": 11359, " condemned": 11360, " lumin": 11361, " Banksia": 11362, " Pirates": 11363, " alphab": 11364, "bracelet": 11365, " homosexual": 11366, " Lloyd": 11367, " Cantrell": 11368, " Hebrew": 11369, " Glanville": 11370, " Baptist": 11371, ".m.": 11372, " ï»¿": 11373, " Navarro": 11374, " Vandernoot": 11375, " Princess": 11376, " Kaifeng": 11377, " Mkhedruli": 11378, "abyrinth": 11379, " Charmbracelet": 11380, "ht": 11381, "rh": 11382, "tz": 11383, "VP": 11384, " hi": 11385, " reun": 11386, "ilis": 11387, " nom": 11388, " Cad": 11389, " pig": 11390, "bow": 11391, " nut": 11392, " Lt": 11393, " heir": 11394, "atum": 11395, " Ech": 11396, "apol": 11397, " Tong": 11398, " stall": 11399, "nall": 11400, "gud": 11401, "ocent": 11402, " Pup": 11403, " lect": 11404, " Still": 11405, " trunk": 11406, "aria": 11407, " Tide": 11408, " resid": 11409, " scre": 11410, " scr": 11411, " manage": 11412, " overs": 11413, " spore": 11414, "place": 11415, "kef": 11416, " Dress": 11417, " finest": 11418, " prest": 11419, "rible": 11420, " Sev": 11421, "igious": 11422, " centered": 11423, " Eve": 11424, " Arn": 11425, " hind": 11426, " Raid": 11427, "anya": 11428, " Giel": 11429, "olics": 11430, " torn": 11431, " 106": 11432, " decide": 11433, " noise": 11434, " monit": 11435, " mini": 11436, " shield": 11437, "uedoc": 11438, " shipments": 11439, " Seven": 11440, " Isles": 11441, " Austro": 11442, " Conn": 11443, " pink": 11444, " Blues": 11445, " edit": 11446, " Adult": 11447, " drivers": 11448, " passages": 11449, " march": 11450, " Mission": 11451, " Sina": 11452, " humor": 11453, "icians": 11454, " collections": 11455, " legit": 11456, " similarities": 11457, " soldier": 11458, " roadway": 11459, "arged": 11460, " stronger": 11461, " Fried": 11462, " Imp": 11463, " 240": 11464, " Leices": 11465, " traditions": 11466, " colours": 11467, " 1904": 11468, "ambo": 11469, " Lamb": 11470, " corps": 11471, " Elgin": 11472, " travels": 11473, " Raf": 11474, " waves": 11475, " dying": 11476, " progressed": 11477, " Circ": 11478, " grows": 11479, " airfield": 11480, " Commandos": 11481, " deterior": 11482, " unless": 11483, " Invest": 11484, " replacing": 11485, " Small": 11486, " physics": 11487, "ibilities": 11488, " undergo": 11489, " Farm": 11490, " auton": 11491, " flows": 11492, " clergy": 11493, "rapping": 11494, " smoke": 11495, " hoping": 11496, "zhou": 11497, " preserve": 11498, " lyrical": 11499, "nyi": 11500, " improvement": 11501, " Austria": 11502, " salary": 11503, " intersects": 11504, " emotions": 11505, " Yorkshire": 11506, " beds": 11507, " tasks": 11508, " circuit": 11509, " Clocks": 11510, " Aviation": 11511, " permanently": 11512, " duo": 11513, " belonging": 11514, " venture": 11515, "claimed": 11516, " fragments": 11517, " Larry": 11518, " devoted": 11519, " imagery": 11520, " surpass": 11521, " timber": 11522, " Ulster": 11523, " attorney": 11524, " reflecting": 11525, " dynamic": 11526, " knocked": 11527, " hamlet": 11528, " occasional": 11529, " moist": 11530, " variations": 11531, " buoys": 11532, " stretched": 11533, " Ronald": 11534, " vertices": 11535, " graduate": 11536, "hua": 11537, " repeatedly": 11538, " Qedarites": 11539, " essentially": 11540, " experimental": 11541, " Bhair": 11542, " wicket": 11543, " Ganges": 11544, " puzzle": 11545, " prospect": 11546, " loved": 11547, " Bristol": 11548, " indigo": 11549, " urged": 11550, " sanct": 11551, " rivals": 11552, " Billy": 11553, " dozen": 11554, " jackrabbit": 11555, " divorce": 11556, " consumption": 11557, " teammate": 11558, " cooperation": 11559, " diplomatic": 11560, " Loverboy": 11561, " Machine": 11562, " truly": 11563, " memorable": 11564, " WNO": 11565, " Nelson": 11566, " Freakum": 11567, " Performance": 11568, " toxic": 11569, " Sultan": 11570, "iaduct": 11571, " gathered": 11572, " Ruler": 11573, " Auburn": 11574, " mysterious": 11575, " surrendered": 11576, " Berht": 11577, " MVP": 11578, " screens": 11579, " Rockef": 11580, " Gielgud": 11581, " Catholics": 11582, " Languedoc": 11583, " Sinai": 11584, " politicians": 11585, " Leicester": 11586, " Berhtwald": 11587, " Rockefeller": 11588, "ii": 11589, "EA": 11590, "": 11591, "ker": 11592, "isp": 11593, "enar": 11594, " pin": 11595, " sic": 11596, "mad": 11597, " BM": 11598, "iga": 11599, " ath": 11600, "owed": 11601, " Hur": 11602, "amation": 11603, "osy": 11604, " Jag": 11605, " â¦": 11606, " Ep": 11607, " tort": 11608, "akim": 11609, " Want": 11610, " Gack": 11611, " Uk": 11612, " Kle": 11613, " Cov": 11614, " Fast": 11615, " compan": 11616, "ubs": 11617, " Sout": 11618, " Mond": 11619, "gans": 11620, " Rover": 11621, " span": 11622, "enson": 11623, " Kings": 11624, "issions": 11625, " Loy": 11626, "ictions": 11627, " endors": 11628, " knock": 11629, "ashes": 11630, "anka": 11631, " grain": 11632, " grap": 11633, " 04": 11634, "pense": 11635, "evelop": 11636, "raits": 11637, " 2000s": 11638, " 118": 11639, " brood": 11640, "irty": 11641, " intend": 11642, "oided": 11643, "azing": 11644, " Vik": 11645, " publicly": 11646, " directing": 11647, " verses": 11648, "kner": 11649, " Cret": 11650, " navy": 11651, " cards": 11652, " Weather": 11653, " demon": 11654, " garn": 11655, " planes": 11656, " planets": 11657, " magic": 11658, " Scots": 11659, " involves": 11660, " tape": 11661, " posts": 11662, " Faul": 11663, " genu": 11664, " Nev": 11665, " limits": 11666, " Beau": 11667, " dressed": 11668, " destination": 11669, " survival": 11670, " processing": 11671, "Ã¡n": 11672, " 1857": 11673, " battlefield": 11674, " acceptable": 11675, " ceased": 11676, " Crab": 11677, " aviation": 11678, " draws": 11679, " Actress": 11680, "mediate": 11681, " employment": 11682, "lights": 11683, " violation": 11684, " opined": 11685, " dealing": 11686, " Ã": 11687, " Studio": 11688, " screened": 11689, " links": 11690, " Metro": 11691, " complicated": 11692, " Bradman": 11693, " urg": 11694, " stability": 11695, " Formation": 11696, "ipitation": 11697, " stanz": 11698, " funny": 11699, " kicked": 11700, " ascend": 11701, " angle": 11702, " essay": 11703, " dedication": 11704, " Jimmy": 11705, " narrator": 11706, " Direct": 11707, " Devin": 11708, " remarkable": 11709, " manufacturing": 11710, " duet": 11711, " confusion": 11712, " tools": 11713, " unex": 11714, " battleship": 11715, " opinions": 11716, " Loose": 11717, " landmark": 11718, " perfectly": 11719, " devotion": 11720, " Railroad": 11721, " junction": 11722, " mythology": 11723, " imperial": 11724, " horror": 11725, " sufficiently": 11726, " tonnes": 11727, " Trail": 11728, " evacuated": 11729, " naked": 11730, " Bernard": 11731, " barrier": 11732, " disappeared": 11733, " Antonio": 11734, " nightingale": 11735, " relegation": 11736, " seemingly": 11737, " sibl": 11738, "iblical": 11739, " boyfriend": 11740, " sharp": 11741, " shallow": 11742, " Leban": 11743, " shifted": 11744, " price": 11745, " songwriter": 11746, " accommodate": 11747, " prohibited": 11748, " Montreal": 11749, " Cultural": 11750, " bombardment": 11751, " Yugoslavia": 11752, " substance": 11753, " predominantly": 11754, " Robinson": 11755, " familiar": 11756, " ambassador": 11757, " Remix": 11758, " i.e": 11759, " minimal": 11760, " drainage": 11761, " CPS": 11762, "igadier": 11763, " isotopes": 11764, " sacked": 11765, " rectangular": 11766, " Millennium": 11767, " bombs": 11768, " tunnels": 11769, " Neolithic": 11770, " guarant": 11771, " Maurice": 11772, " symptoms": 11773, " adequ": 11774, " amphib": 11775, " Telegraph": 11776, " McCarthy": 11777, " Barbarian": 11778, " Shimomura": 11779, " enormous": 11780, " â": 11781, " scenar": 11782, " athlete": 11783, " Gacko": 11784, " avoided": 11785, " Cretaceous": 11786, " garnered": 11787, " Faulkner": 11788, " Nevada": 11789, " siblings": 11790, " i.e.": 11791, "CE": 11792, "OM": 11793, "à¸": 11794, "Æ¡": 11795, "zed": 11796, "har": 11797, " mg": 11798, " m3": 11799, " ion": 11800, " Ak": 11801, " eat": 11802, " CG": 11803, "urre": 11804, " Tow": 11805, " Hit": 11806, "cut": 11807, " alg": 11808, " Da": 11809, " Dw": 11810, " Wed": 11811, " item": 11812, " Rag": 11813, "rix": 11814, " EP": 11815, " Spe": 11816, "illas": 11817, "aping": 11818, "inate": 11819, "ygh": 11820, " plag": 11821, "anther": 11822, " Hip": 11823, " Ford": 11824, " Chan": 11825, " Vist": 11826, " Mile": 11827, "achment": 11828, " Yang": 11829, " nep": 11830, " eval": 11831, " weigh": 11832, "iors": 11833, "athy": 11834, " sick": 11835, "onsin": 11836, " remind": 11837, " colors": 11838, " Commer": 11839, " movies": 11840, " retail": 11841, " subord": 11842, " 172": 11843, " 154": 11844, " continu": 11845, " expand": 11846, " imposed": 11847, " Full": 11848, " bull": 11849, " governed": 11850, " Mole": 11851, " varies": 11852, " cash": 11853, "ginning": 11854, "aiman": 11855, " advances": 11856, " halted": 11857, "adys": 11858, " experts": 11859, " realised": 11860, " Earn": 11861, "olves": 11862, " Xb": 11863, " Xook": 11864, " Assy": 11865, " Edge": 11866, " afford": 11867, " Aircraft": 11868, "aulted": 11869, " saint": 11870, " competitive": 11871, " Wisc": 11872, " lying": 11873, " Glad": 11874, " releasing": 11875, " wrest": 11876, " 1850": 11877, " 1854": 11878, " 1856": 11879, " swit": 11880, " morph": 11881, " Month": 11882, " Represent": 11883, " Imb": 11884, " cuts": 11885, " Medal": 11886, " defender": 11887, " cyclones": 11888, " 1848": 11889, " Curt": 11890, " Filming": 11891, " participants": 11892, " populated": 11893, " caliber": 11894, " FIT": 11895, " learns": 11896, " fires": 11897, " suspect": 11898, " options": 11899, " demanded": 11900, " electrical": 11901, " soph": 11902, " taxon": 11903, " weakening": 11904, " offerings": 11905, " Julian": 11906, " alternate": 11907, " Malays": 11908, " rushed": 11909, " walks": 11910, " grasses": 11911, " Defence": 11912, " universal": 11913, " Destroy": 11914, " Senate": 11915, " spotted": 11916, " enroll": 11917, " Appe": 11918, " collaborated": 11919, " sensitive": 11920, " extends": 11921, " bypass": 11922, " Pete": 11923, " Garden": 11924, " challenges": 11925, " Montfort": 11926, " Liberal": 11927, " variable": 11928, " Gabri": 11929, " inducted": 11930, " limestone": 11931, " highlighted": 11932, " linear": 11933, " petition": 11934, " licens": 11935, " Official": 11936, " heritage": 11937, " Brigades": 11938, " Napole": 11939, " census": 11940, " landscape": 11941, " Constitution": 11942, " gender": 11943, " warfare": 11944, " surprised": 11945, " Technology": 11946, " hypothes": 11947, " cabinet": 11948, " sacrif": 11949, " improvements": 11950, " Nicholas": 11951, " helicopter": 11952, " relieved": 11953, " immigrants": 11954, " microscop": 11955, " cavalry": 11956, "oceratops": 11957, " Combat": 11958, " deliberately": 11959, " vulner": 11960, "saku": 11961, " Pfaster": 11962, " presbyter": 11963, " disbanded": 11964, " Pakistan": 11965, " ATP": 11966, " supreme": 11967, " stingray": 11968, " comprehens": 11969, " Witchcraft": 11970, " therapy": 11971, " BÃ¬nh": 11972, " decommissioned": 11973, " acoustic": 11974, " rejoin": 11975, " computers": 11976, "Æ°Æ¡": 11977, " Dwight": 11978, " Uygh": 11979, " Beginning": 11980, " Earnest": 11981, " Xbox": 11982, " Wisconsin": 11983, " Gladstone": 11984, " Imbudo": 11985, " KÅsaku": 11986, "Æ°Æ¡ng": 11987, "pa": 11988, "A.": 11989, "Ã±": 11990, "ais": 11991, " ben": 11992, " tal": 11993, " ped": 11994, "itic": 11995, " Tan": 11996, " Ah": 11997, "gom": 11998, " nat": 11999, " Mh": 12000, " 'C": 12001, "itter": 12002, " Aut": 12003, " isn": 12004, " Pu": 12005, " RI": 12006, " Fa": 12007, " Nus": 12008, " Gy": 12009, "ags": 12010, "agers": 12011, " Rav": 12012, " deer": 12013, " rit": 12014, " gri": 12015, "ifest": 12016, "iller": 12017, " Ins": 12018, " pse": 12019, " yd": 12020, " Kam": 12021, "iper": 12022, " Stand": 12023, " Tell": 12024, " Action": 12025, "atra": 12026, " aside": 12027, " lie": 12028, "ework": 12029, " Hein": 12030, " boil": 12031, "lando": 12032, "ricus": 12033, " Site": 12034, " intact": 12035, "ounced": 12036, " playable": 12037, " Worth": 12038, " Kick": 12039, "aft": 12040, " Dead": 12041, " pron": 12042, " shock": 12043, " quit": 12044, " Level": 12045, "hesh": 12046, "ulating": 12047, " descent": 12048, "dale": 12049, "bits": 12050, " Brun": 12051, " quiet": 12052, " Scout": 12053, " fier": 12054, " 115": 12055, " milk": 12056, " metric": 12057, " heading": 12058, "ashire": 12059, " promise": 12060, " extant": 12061, " arrives": 12062, " Stakes": 12063, " triang": 12064, " Belt": 12065, " communist": 12066, "lroy": 12067, " competed": 12068, " perception": 12069, " Paran": 12070, " rape": 12071, "ometric": 12072, " pressed": 12073, " divines": 12074, "ocese": 12075, " casting": 12076, " Blackie": 12077, " Saf": 12078, " 1898": 12079, " 1894": 12080, " push": 12081, " rush": 12082, " addressed": 12083, " Moro": 12084, " commentary": 12085, " casem": 12086, " 1851": 12087, " recognize": 12088, " estimate": 12089, " 1881": 12090, " 1880s": 12091, "mar": 12092, "aliation": 12093, " floods": 12094, " dealt": 12095, " apartment": 12096, "rooms": 12097, " 1832": 12098, " Greatest": 12099, " Note": 12100, " speculated": 12101, " antiqu": 12102, " Terry": 12103, " examined": 12104, " reconc": 12105, " declaring": 12106, " Laure": 12107, " flowers": 12108, " knee": 12109, " disgu": 12110, "amoul": 12111, " Energy": 12112, " paying": 12113, " labour": 12114, " invaded": 12115, " convey": 12116, " Bergen": 12117, " portrayal": 12118, " Surv": 12119, " attending": 12120, " Colonies": 12121, " SMS": 12122, " crowds": 12123, " Todd": 12124, " Reviews": 12125, " exhibited": 12126, " thirteen": 12127, " dissipating": 12128, " Ferd": 12129, " Rhode": 12130, " Apart": 12131, " connects": 12132, " Poet": 12133, " comprising": 12134, "etheless": 12135, " Trinity": 12136, " outstanding": 12137, " Derby": 12138, " sweet": 12139, " Keys": 12140, " dancing": 12141, " 737": 12142, " concerning": 12143, " Gabbar": 12144, " Traff": 12145, "athetic": 12146, " Brazilian": 12147, " Gangan": 12148, " qualifying": 12149, " Darwin": 12150, " Wallace": 12151, " cattle": 12152, " Nazaire": 12153, " volunteers": 12154, " mentions": 12155, " Vargas": 12156, " Katia": 12157, " Personal": 12158, " recreational": 12159, " preceding": 12160, " nickn": 12161, " enabled": 12162, " icon": 12163, " transformed": 12164, " guerr": 12165, " adventures": 12166, " diverse": 12167, "escope": 12168, " PAVN": 12169, " aftermath": 12170, " interpretation": 12171, " overwhelming": 12172, " Humpty": 12173, " Taxon": 12174, " Katherine": 12175, " Sidon": 12176, " Total": 12177, " reservoirs": 12178, " altarpiece": 12179, " lawyer": 12180, "khuri": 12181, " gusts": 12182, " subtropical": 12183, " categories": 12184, " Members": 12185, " guidance": 12186, " rebellion": 12187, " liquid": 12188, " internationally": 12189, " tempo": 12190, " metallic": 12191, " Âµm": 12192, " hygromet": 12193, " Guinness": 12194, " Harris": 12195, " Guinea": 12196, " Retrieved": 12197, " Bracknell": 12198, " tawny": 12199, " Strapping": 12200, " Montgom": 12201, " Mhalsa": 12202, " Puerto": 12203, " rituals": 12204, " Orlando": 12205, " Mahesh": 12206, " Lancashire": 12207, " McElroy": 12208, " Paranthodon": 12209, " Ãmar": 12210, " Rajamoul": 12211, " Ganganelli": 12212, " Taxonomy": 12213, " Nuskhuri": 12214, " hygrometricus": 12215, " Montgomery": 12216, " Rajamouli": 12217, "Ar": 12218, "ji": 12219, " Î": 12220, "ED": 12221, "pat": 12222, "gro": 12223, "oma": 12224, "aman": 12225, " cam": 12226, " CN": 12227, " dad": 12228, "adic": 12229, "lyn": 12230, " Mes": 12231, " 'P": 12232, "ivan": 12233, " Bou": 12234, "igon": 12235, " Fat": 12236, " DE": 12237, "andom": 12238, "hum": 12239, " fart": 12240, "reated": 12241, " shall": 12242, "ovil": 12243, "ipel": 12244, "ption": 12245, " Well": 12246, " Chop": 12247, " gra": 12248, " wheel": 12249, " rot": 12250, " intr": 12251, " clar": 12252, " abn": 12253, "irect": 12254, " ages": 12255, "usade": 12256, " desper": 12257, "found": 12258, " Liz": 12259, " Yam": 12260, " pref": 12261, "season": 12262, " nose": 12263, " Based": 12264, " mild": 12265, " bold": 12266, "atters": 12267, " secular": 12268, " wished": 12269, "unning": 12270, " Moh": 12271, " coat": 12272, "tene": 12273, " 1200": 12274, " transits": 12275, " entert": 12276, " Scand": 12277, " 116": 12278, " 111": 12279, " brings": 12280, " thoughts": 12281, " Gross": 12282, " Boot": 12283, " chanc": 12284, "aels": 12285, "cially": 12286, "eping": 12287, " Sull": 12288, " Beth": 12289, " Coll": 12290, " Forb": 12291, " batting": 12292, "Ã©d": 12293, " positioned": 12294, " discont": 12295, " cakes": 12296, " Therefore": 12297, " organic": 12298, " marched": 12299, " coaster": 12300, " Brother": 12301, " debt": 12302, "ayne": 12303, " Analy": 12304, " Parker": 12305, " incurs": 12306, " statue": 12307, " involve": 12308, " wanting": 12309, " femin": 12310, " lights": 12311, " genres": 12312, " destroying": 12313, " Lyn": 12314, " Blacks": 12315, " tourists": 12316, " skill": 12317, " 1891": 12318, " insisted": 12319, " travelling": 12320, " DÃ­": 12321, " sword": 12322, " Sword": 12323, " commerce": 12324, " 1882": 12325, " Crim": 12326, " circular": 12327, " hosts": 12328, " drawings": 12329, " 1865": 12330, " farming": 12331, " Days": 12332, " responses": 12333, " radius": 12334, "arius": 12335, " honours": 12336, " interviews": 12337, " interviewed": 12338, " zones": 12339, " loop": 12340, " realistic": 12341, " educational": 12342, " occupy": 12343, " layers": 12344, " Finn": 12345, " scripts": 12346, " thesis": 12347, " invitation": 12348, " paths": 12349, " confirm": 12350, " Cadmium": 12351, " principle": 12352,
[...]
